unsigned char model_autoencoder_tflite[] = {
  0x1c, 0x00, 0x00, 0x00, 0x54, 0x46, 0x4c, 0x33, 0x14, 0x00, 0x20, 0x00,
  0x1c, 0x00, 0x18, 0x00, 0x14, 0x00, 0x10, 0x00, 0x0c, 0x00, 0x00, 0x00,
  0x08, 0x00, 0x04, 0x00, 0x14, 0x00, 0x00, 0x00, 0x1c, 0x00, 0x00, 0x00,
  0x8c, 0x00, 0x00, 0x00, 0xe4, 0x00, 0x00, 0x00, 0xbc, 0x37, 0x00, 0x00,
  0xcc, 0x37, 0x00, 0x00, 0x18, 0x43, 0x00, 0x00, 0x03, 0x00, 0x00, 0x00,
  0x01, 0x00, 0x00, 0x00, 0x10, 0x00, 0x00, 0x00, 0x00, 0x00, 0x0a, 0x00,
  0x10, 0x00, 0x0c, 0x00, 0x08, 0x00, 0x04, 0x00, 0x0a, 0x00, 0x00, 0x00,
  0x0c, 0x00, 0x00, 0x00, 0x1c, 0x00, 0x00, 0x00, 0x38, 0x00, 0x00, 0x00,
  0x0f, 0x00, 0x00, 0x00, 0x73, 0x65, 0x72, 0x76, 0x69, 0x6e, 0x67, 0x5f,
  0x64, 0x65, 0x66, 0x61, 0x75, 0x6c, 0x74, 0x00, 0x01, 0x00, 0x00, 0x00,
  0x04, 0x00, 0x00, 0x00, 0x9c, 0xff, 0xff, 0xff, 0x21, 0x00, 0x00, 0x00,
  0x04, 0x00, 0x00, 0x00, 0x07, 0x00, 0x00, 0x00, 0x64, 0x65, 0x6e, 0x73,
  0x65, 0x5f, 0x31, 0x00, 0x01, 0x00, 0x00, 0x00, 0x04, 0x00, 0x00, 0x00,
  0x0e, 0xc9, 0xff, 0xff, 0x04, 0x00, 0x00, 0x00, 0x07, 0x00, 0x00, 0x00,
  0x69, 0x6e, 0x70, 0x75, 0x74, 0x5f, 0x33, 0x00, 0x02, 0x00, 0x00, 0x00,
  0x34, 0x00, 0x00, 0x00, 0x04, 0x00, 0x00, 0x00, 0xdc, 0xff, 0xff, 0xff,
  0x24, 0x00, 0x00, 0x00, 0x04, 0x00, 0x00, 0x00, 0x13, 0x00, 0x00, 0x00,
  0x43, 0x4f, 0x4e, 0x56, 0x45, 0x52, 0x53, 0x49, 0x4f, 0x4e, 0x5f, 0x4d,
  0x45, 0x54, 0x41, 0x44, 0x41, 0x54, 0x41, 0x00, 0x08, 0x00, 0x0c, 0x00,
  0x08, 0x00, 0x04, 0x00, 0x08, 0x00, 0x00, 0x00, 0x23, 0x00, 0x00, 0x00,
  0x04, 0x00, 0x00, 0x00, 0x13, 0x00, 0x00, 0x00, 0x6d, 0x69, 0x6e, 0x5f,
  0x72, 0x75, 0x6e, 0x74, 0x69, 0x6d, 0x65, 0x5f, 0x76, 0x65, 0x72, 0x73,
  0x69, 0x6f, 0x6e, 0x00, 0x25, 0x00, 0x00, 0x00, 0xd4, 0x36, 0x00, 0x00,
  0xcc, 0x36, 0x00, 0x00, 0x7c, 0x36, 0x00, 0x00, 0x60, 0x36, 0x00, 0x00,
  0x50, 0x32, 0x00, 0x00, 0x40, 0x2e, 0x00, 0x00, 0x30, 0x2a, 0x00, 0x00,
  0x20, 0x26, 0x00, 0x00, 0xd0, 0x25, 0x00, 0x00, 0x80, 0x25, 0x00, 0x00,
  0x30, 0x25, 0x00, 0x00, 0xe0, 0x24, 0x00, 0x00, 0x90, 0x24, 0x00, 0x00,
  0x40, 0x24, 0x00, 0x00, 0xf0, 0x23, 0x00, 0x00, 0xa0, 0x23, 0x00, 0x00,
  0x90, 0x1f, 0x00, 0x00, 0x80, 0x1b, 0x00, 0x00, 0x70, 0x17, 0x00, 0x00,
  0x60, 0x13, 0x00, 0x00, 0x10, 0x13, 0x00, 0x00, 0xc0, 0x12, 0x00, 0x00,
  0x70, 0x12, 0x00, 0x00, 0x20, 0x12, 0x00, 0x00, 0x10, 0x0e, 0x00, 0x00,
  0x00, 0x0a, 0x00, 0x00, 0xf0, 0x05, 0x00, 0x00, 0xe0, 0x01, 0x00, 0x00,
  0x90, 0x01, 0x00, 0x00, 0x40, 0x01, 0x00, 0x00, 0x38, 0x01, 0x00, 0x00,
  0xe8, 0x00, 0x00, 0x00, 0x98, 0x00, 0x00, 0x00, 0x90, 0x00, 0x00, 0x00,
  0x88, 0x00, 0x00, 0x00, 0x68, 0x00, 0x00, 0x00, 0x04, 0x00, 0x00, 0x00,
  0x16, 0xca, 0xff, 0xff, 0x04, 0x00, 0x00, 0x00, 0x54, 0x00, 0x00, 0x00,
  0x0c, 0x00, 0x00, 0x00, 0x08, 0x00, 0x0e, 0x00, 0x08, 0x00, 0x04, 0x00,
  0x08, 0x00, 0x00, 0x00, 0x10, 0x00, 0x00, 0x00, 0x24, 0x00, 0x00, 0x00,
  0x00, 0x00, 0x06, 0x00, 0x08, 0x00, 0x04, 0x00, 0x06, 0x00, 0x00, 0x00,
  0x04, 0x00, 0x00, 0x00, 0x00, 0x00, 0x00, 0x00, 0x00, 0x00, 0x0a, 0x00,
  0x10, 0x00, 0x0c, 0x00, 0x08, 0x00, 0x04, 0x00, 0x0a, 0x00, 0x00, 0x00,
  0x02, 0x00, 0x00, 0x00, 0x02, 0x00, 0x00, 0x00, 0x04, 0x00, 0x00, 0x00,
  0x06, 0x00, 0x00, 0x00, 0x32, 0x2e, 0x31, 0x31, 0x2e, 0x30, 0x00, 0x00,
  0x76, 0xca, 0xff, 0xff, 0x04, 0x00, 0x00, 0x00, 0x10, 0x00, 0x00, 0x00,
  0x32, 0x2e, 0x30, 0x2e, 0x30, 0x00, 0x00, 0x00, 0x00, 0x00, 0x00, 0x00,
  0x00, 0x00, 0x00, 0x00, 0x0c, 0xbf, 0xff, 0xff, 0x10, 0xbf, 0xff, 0xff,
  0x9a, 0xca, 0xff, 0xff, 0x04, 0x00, 0x00, 0x00, 0x40, 0x00, 0x00, 0x00,
  0x00, 0x00, 0x00, 0x00, 0x00, 0x00, 0x00, 0x00, 0x00, 0x00, 0x00, 0x00,
  0x00, 0x00, 0x00, 0x00, 0x00, 0x00, 0x00, 0x00, 0x00, 0x00, 0x00, 0x00,
  0x00, 0x00, 0x00, 0x00, 0x00, 0x00, 0x00, 0x00, 0x00, 0x00, 0x00, 0x00,
  0x00, 0x00, 0x00, 0x00, 0x00, 0x00, 0x00, 0x00, 0x00, 0x00, 0x00, 0x00,
  0x00, 0x00, 0x00, 0x00, 0x00, 0x00, 0x00, 0x00, 0x00, 0x00, 0x00, 0x00,
  0x00, 0x00, 0x00, 0x00, 0xe6, 0xca, 0xff, 0xff, 0x04, 0x00, 0x00, 0x00,
  0x40, 0x00, 0x00, 0x00, 0x00, 0x00, 0x00, 0x00, 0x00, 0x00, 0x00, 0x00,
  0x00, 0x00, 0x00, 0x00, 0x00, 0x00, 0x00, 0x00, 0x00, 0x00, 0x00, 0x00,
  0x00, 0x00, 0x00, 0x00, 0x00, 0x00, 0x00, 0x00, 0x00, 0x00, 0x00, 0x00,
  0x00, 0x00, 0x00, 0x00, 0x00, 0x00, 0x00, 0x00, 0x00, 0x00, 0x00, 0x00,
  0x00, 0x00, 0x00, 0x00, 0x00, 0x00, 0x00, 0x00, 0x00, 0x00, 0x00, 0x00,
  0x00, 0x00, 0x00, 0x00, 0x00, 0x00, 0x00, 0x00, 0xac, 0xbf, 0xff, 0xff,
  0x36, 0xcb, 0xff, 0xff, 0x04, 0x00, 0x00, 0x00, 0x40, 0x00, 0x00, 0x00,
  0x00, 0x00, 0x00, 0x00, 0x00, 0x00, 0x00, 0x00, 0x00, 0x00, 0x00, 0x00,
  0x00, 0x00, 0x00, 0x00, 0x00, 0x00, 0x00, 0x00, 0x00, 0x00, 0x00, 0x00,
  0x00, 0x00, 0x00, 0x00, 0x00, 0x00, 0x00, 0x00, 0x00, 0x00, 0x00, 0x00,
  0x00, 0x00, 0x00, 0x00, 0x00, 0x00, 0x00, 0x00, 0x00, 0x00, 0x00, 0x00,
  0x00, 0x00, 0x00, 0x00, 0x00, 0x00, 0x00, 0x00, 0x00, 0x00, 0x00, 0x00,
  0x00, 0x00, 0x00, 0x00, 0x82, 0xcb, 0xff, 0xff, 0x04, 0x00, 0x00, 0x00,
  0x40, 0x00, 0x00, 0x00, 0x99, 0xdf, 0x51, 0x3f, 0xa4, 0xb6, 0x67, 0x3f,
  0x25, 0x11, 0x51, 0x3f, 0x85, 0x9a, 0x84, 0x3f, 0x1e, 0x30, 0x74, 0xbf,
  0xd2, 0x59, 0x32, 0x3f, 0xe0, 0xe3, 0x0d, 0xbf, 0x54, 0x27, 0x6a, 0x3f,
  0x15, 0x50, 0x63, 0xbf, 0x50, 0xa4, 0xd5, 0x3e, 0x22, 0xae, 0x62, 0xbf,
  0xde, 0xe6, 0x84, 0x3f, 0xde, 0xbd, 0x55, 0x3f, 0xa3, 0xd5, 0x7d, 0xbf,
  0x10, 0xf5, 0x22, 0xbf, 0x92, 0x67, 0x7b, 0xbf, 0xce, 0xcb, 0xff, 0xff,
  0x04, 0x00, 0x00, 0x00, 0x00, 0x04, 0x00, 0x00, 0x1e, 0x79, 0x96, 0xbe,
  0x0f, 0x62, 0x1a, 0x3f, 0x02, 0xd8, 0x10, 0xbe, 0xcd, 0x47, 0xba, 0xbe,
  0x24, 0x3d, 0x21, 0xbf, 0xd0, 0xb5, 0x12, 0x3f, 0x06, 0x3d, 0xfa, 0x3d,
  0xe1, 0xe5, 0x3b, 0x3e, 0x35, 0x66, 0xdb, 0x3e, 0xb2, 0x0c, 0x88, 0x3e,
  0xae, 0xc8, 0x3f, 0x3e, 0x0b, 0x28, 0x80, 0x3f, 0xee, 0x2a, 0xa0, 0xbe,
  0x7b, 0xbe, 0x3d, 0xbe, 0xd5, 0x9e, 0x1e, 0x3f, 0xf8, 0x32, 0x93, 0xbf,
  0x31, 0x86, 0x14, 0xbf, 0x8f, 0x5f, 0xfc, 0x3e, 0x82, 0x96, 0x44, 0xbd,
  0x88, 0xc0, 0x0c, 0xbf, 0xc0, 0xcf, 0x2b, 0xbf, 0xe8, 0xa2, 0x9c, 0x3e,
  0x87, 0x33, 0xef, 0x3d, 0xb4, 0x90, 0x44, 0x3e, 0x9f, 0x56, 0xf4, 0x3e,
  0x3e, 0x7a, 0x1a, 0x3f, 0x2f, 0x30, 0x92, 0x3d, 0xa7, 0x10, 0x7c, 0x3f,
  0x44, 0xba, 0x38, 0xbf, 0xb2, 0x1a, 0xa8, 0xbe, 0x79, 0xf6, 0xaf, 0x3e,
  0x43, 0x09, 0x39, 0xbf, 0xaa, 0xb4, 0x3e, 0xbe, 0xf2, 0x5b, 0x38, 0x3e,
  0xc4, 0x34, 0xe8, 0x3d, 0x31, 0xf1, 0x75, 0xbf, 0xb3, 0xaa, 0x2b, 0xbf,
  0xc3, 0x0d, 0x15, 0x3f, 0xc0, 0x3d, 0x9a, 0x3e, 0x09, 0xb0, 0x33, 0x3e,
  0x4e, 0x70, 0x58, 0x3e, 0x28, 0x1a, 0x30, 0x3f, 0xd1, 0xd4, 0x55, 0x3d,
  0x55, 0x91, 0x65, 0x3f, 0x62, 0x46, 0xce, 0xbe, 0xdd, 0x97, 0x3d, 0xbe,
  0xf1, 0x09, 0xa8, 0x3e, 0x2e, 0xec, 0x2e, 0xbf, 0xa1, 0xec, 0xd7, 0xbd,
  0xc6, 0x26, 0x9a, 0x3e, 0xe5, 0xd4, 0x82, 0xbd, 0x47, 0x16, 0xe9, 0xbe,
  0x01, 0x71, 0x45, 0xbf, 0x85, 0x0a, 0x2a, 0xbd, 0x1f, 0x35, 0xb5, 0x3e,
  0xb3, 0xae, 0x95, 0x3e, 0x06, 0x0a, 0x48, 0x3e, 0xed, 0xf8, 0x12, 0x3f,
  0x69, 0x2e, 0xc9, 0x3e, 0x6b, 0x7b, 0x10, 0x3f, 0x70, 0x60, 0x89, 0xbe,
  0x76, 0xfa, 0x79, 0xbe, 0x7d, 0xce, 0xc7, 0x3e, 0x5f, 0x2f, 0xe2, 0xbe,
  0xe9, 0xc3, 0xa9, 0xbe, 0x56, 0x6e, 0x32, 0x3e, 0x0d, 0x77, 0xec, 0x3d,
  0x20, 0x49, 0x46, 0xbf, 0x1a, 0x79, 0x1f, 0xbf, 0xba, 0x02, 0xb4, 0x3e,
  0x89, 0xdd, 0xc2, 0x3e, 0x70, 0x6e, 0xe2, 0x3e, 0x1c, 0xfc, 0x0d, 0x3e,
  0x3a, 0xf3, 0x03, 0x3f, 0xf1, 0x19, 0x8b, 0x3d, 0x97, 0xb7, 0x09, 0x3e,
  0xba, 0x44, 0xad, 0xbd, 0xa5, 0xd8, 0xed, 0xbe, 0x0f, 0x95, 0xb9, 0x3e,
  0x1e, 0x3f, 0xd3, 0xbe, 0x7d, 0x0b, 0x91, 0xbd, 0x2a, 0x10, 0x93, 0x3e,
  0xa4, 0x7a, 0xaa, 0xbd, 0x39, 0x5d, 0x20, 0xbf, 0x0f, 0x57, 0x37, 0xbf,
  0x6a, 0x68, 0xb2, 0x3c, 0x70, 0xe6, 0x55, 0x3d, 0x2b, 0x99, 0x8f, 0xbd,
  0x13, 0x2c, 0xc9, 0x3e, 0x61, 0x1d, 0xea, 0x3e, 0xe7, 0xc4, 0x51, 0x3e,
  0x93, 0x9b, 0x3c, 0x3f, 0x77, 0x53, 0xc5, 0xbe, 0x29, 0xaf, 0xad, 0xbe,
  0x6e, 0x71, 0x17, 0x3f, 0xaa, 0x35, 0x14, 0xbf, 0x85, 0x1d, 0x7a, 0xbf,
  0xe5, 0x94, 0xa2, 0x3f, 0x86, 0xee, 0x98, 0xbd, 0x16, 0x04, 0x91, 0xbf,
  0xe0, 0x94, 0x95, 0xbf, 0x45, 0xae, 0x3f, 0x3f, 0x97, 0xf1, 0x58, 0x3e,
  0x3d, 0xe2, 0x0f, 0x3f, 0xa7, 0xfb, 0xcd, 0x3e, 0x8e, 0xff, 0x2b, 0x3f,
  0x36, 0x00, 0x18, 0xbd, 0xd0, 0xbe, 0xa2, 0x3f, 0x05, 0x7c, 0x84, 0xbe,
  0x5a, 0x81, 0xa5, 0xbe, 0x48, 0x49, 0x17, 0x3f, 0xc8, 0x35, 0x7e, 0xbf,
  0xdd, 0xa6, 0x4e, 0xbe, 0xb2, 0xe3, 0xf8, 0x3e, 0x61, 0x37, 0x19, 0xbf,
  0xac, 0x07, 0xcd, 0xbe, 0xb4, 0xf8, 0xb9, 0xbd, 0xa2, 0x80, 0xd0, 0x3e,
  0xa4, 0x2c, 0xea, 0xba, 0xec, 0xc6, 0x3e, 0x3e, 0xb6, 0x26, 0xb3, 0x3e,
  0x4c, 0xf5, 0xf5, 0x3e, 0x81, 0x6b, 0x19, 0x3d, 0x19, 0x34, 0x5f, 0x3f,
  0x4f, 0x6d, 0x32, 0xbf, 0x6a, 0xc1, 0x3d, 0xbf, 0x3e, 0x90, 0x38, 0x3f,
  0xba, 0xbe, 0x5e, 0xbe, 0x29, 0x9d, 0xd3, 0xbe, 0x0a, 0x8d, 0x32, 0x3f,
  0xe4, 0xac, 0x30, 0x3d, 0xc6, 0x2d, 0x37, 0xbf, 0x6c, 0x07, 0x63, 0xbe,
  0x68, 0x19, 0xe6, 0x3e, 0x0a, 0xff, 0x93, 0x3e, 0x67, 0x63, 0x9a, 0x3e,
  0x20, 0xc1, 0xa3, 0x3e, 0xcc, 0x7c, 0xd1, 0x3e, 0x5d, 0xff, 0xca, 0x3d,
  0xdc, 0xc2, 0x78, 0x3f, 0x07, 0xd0, 0x94, 0xbe, 0xfb, 0xc4, 0x2e, 0xbf,
  0x81, 0xc7, 0x2d, 0x3f, 0x7d, 0xb0, 0x27, 0xbf, 0x67, 0x7e, 0xec, 0xbe,
  0x6a, 0xfc, 0x54, 0x3f, 0x90, 0x45, 0x16, 0x3e, 0xcd, 0x1d, 0x70, 0xbf,
  0x65, 0x35, 0xd2, 0xbe, 0xc8, 0xbe, 0xee, 0x3e, 0x09, 0xfa, 0xc4, 0x3e,
  0xf5, 0xcc, 0xef, 0x3e, 0xad, 0xa5, 0xa1, 0x3e, 0xf8, 0xfb, 0x67, 0x3f,
  0xe6, 0x01, 0x92, 0xbe, 0xa3, 0xbd, 0x0f, 0x3f, 0x32, 0x92, 0xef, 0xbe,
  0xcc, 0x1f, 0x97, 0xbe, 0xb1, 0x86, 0x52, 0x3f, 0x76, 0x37, 0xea, 0xbe,
  0x8a, 0x06, 0x18, 0xbf, 0xf3, 0xbd, 0x81, 0x3f, 0x7d, 0x47, 0x56, 0xbe,
  0x45, 0x2b, 0x48, 0xbf, 0x8a, 0x2d, 0x35, 0xbf, 0x49, 0xc6, 0x4d, 0x3e,
  0xd6, 0x23, 0x87, 0x3e, 0x2e, 0xfd, 0xc9, 0x3e, 0xd0, 0xdb, 0xfd, 0x3d,
  0x47, 0x8b, 0xbe, 0x3e, 0x7f, 0x3d, 0x9a, 0xbe, 0xe2, 0xc9, 0x5f, 0x3f,
  0x26, 0x94, 0xbb, 0xbe, 0x89, 0xb3, 0xe1, 0xbe, 0x29, 0x7a, 0xca, 0x3e,
  0xe9, 0x27, 0x3c, 0xbf, 0xf9, 0x9b, 0x08, 0xbd, 0x28, 0x4c, 0xbe, 0x3e,
  0x63, 0xb8, 0x85, 0xbe, 0xbd, 0xc7, 0x3b, 0xbf, 0xf7, 0xf2, 0xaa, 0xbe,
  0x5b, 0x54, 0x7a, 0x3e, 0x04, 0x4d, 0x76, 0x3e, 0x3c, 0x73, 0xa8, 0xbd,
  0x3d, 0x41, 0x13, 0x3e, 0x3a, 0xde, 0x89, 0x3e, 0x05, 0x78, 0xc4, 0x3d,
  0xa0, 0xa1, 0xde, 0x3e, 0xee, 0x71, 0x95, 0xbe, 0x3c, 0xfa, 0xf4, 0xbe,
  0xdb, 0x2e, 0x09, 0x3f, 0xf7, 0x73, 0x55, 0xbf, 0xd2, 0xd9, 0x18, 0xbf,
  0x1f, 0x1d, 0x03, 0x3f, 0x0c, 0xcc, 0x59, 0xbe, 0x35, 0x23, 0x6d, 0xbf,
  0xbe, 0x4a, 0xea, 0xbe, 0x9d, 0xc9, 0xd2, 0x3e, 0xb2, 0x7e, 0xd0, 0x3e,
  0x3a, 0x5d, 0x13, 0x3e, 0x1f, 0x70, 0x02, 0x3f, 0xa3, 0x81, 0x4a, 0x3f,
  0x0c, 0xc0, 0xe6, 0x3c, 0x46, 0xe8, 0x51, 0x3f, 0x4e, 0x58, 0x92, 0xbe,
  0x10, 0x0d, 0xbb, 0xbe, 0x7d, 0xe6, 0x0a, 0x3f, 0x1a, 0x54, 0x11, 0xbf,
  0x5e, 0x44, 0xb8, 0x3d, 0xf7, 0x1c, 0xf5, 0x3e, 0x47, 0xc8, 0x4a, 0xbe,
  0xc6, 0x45, 0x07, 0xbf, 0x65, 0x6f, 0x52, 0xbf, 0xb8, 0x5c, 0x19, 0xbe,
  0x23, 0x56, 0xfe, 0x3e, 0xf2, 0x8b, 0xd5, 0x3b, 0x4b, 0x0f, 0x23, 0x3e,
  0xce, 0xf9, 0x9c, 0x3e, 0x4c, 0xa5, 0x5f, 0x3e, 0x82, 0x88, 0xfb, 0x3e,
  0x2c, 0x23, 0x92, 0xbe, 0x5d, 0xe7, 0x8d, 0xbe, 0x22, 0xe1, 0x19, 0x3f,
  0x70, 0x87, 0xb9, 0xbe, 0xa3, 0xcf, 0x32, 0x3e, 0xcc, 0x80, 0xd2, 0x3e,
  0x21, 0x7c, 0x82, 0xbd, 0x26, 0x6b, 0x5f, 0xbf, 0xb0, 0x57, 0x3f, 0xbf,
  0xf8, 0xfa, 0x51, 0xbe, 0x5c, 0xf3, 0x52, 0x3e, 0xd9, 0xa9, 0x89, 0x3e,
  0xc9, 0xd4, 0xee, 0x3d, 0x34, 0x3f, 0x1f, 0x3f, 0xec, 0x16, 0x1c, 0x3e,
  0xdc, 0x24, 0x05, 0x3e, 0x88, 0x0e, 0xd3, 0xbd, 0xa6, 0xd7, 0x3e, 0xbe,
  0x6c, 0xad, 0xe8, 0x3e, 0xd5, 0x74, 0xb4, 0xbe, 0x49, 0xf4, 0xb4, 0xbe,
  0x05, 0x9c, 0xaa, 0x3e, 0x16, 0x8c, 0x32, 0x3e, 0x63, 0xf6, 0x30, 0xbf,
  0xfd, 0x9e, 0x1e, 0xbf, 0x93, 0x24, 0x36, 0x3f, 0xfa, 0x62, 0xb8, 0x3d,
  0xc4, 0xcc, 0x4e, 0x3e, 0x92, 0x9e, 0x0c, 0x3f, 0x21, 0x40, 0x38, 0x3f,
  0xff, 0xa0, 0x5d, 0xbd, 0x0f, 0xf7, 0x54, 0x3f, 0x84, 0xaa, 0x9f, 0xbe,
  0x20, 0xb2, 0xb4, 0xbe, 0xfb, 0x43, 0xb5, 0x3e, 0x7e, 0xf2, 0x3a, 0xbf,
  0xda, 0xcf, 0xff, 0xff, 0x04, 0x00, 0x00, 0x00, 0x00, 0x04, 0x00, 0x00,
  0xb2, 0xb7, 0x2d, 0xbc, 0xdc, 0x27, 0x2d, 0xbe, 0x53, 0xf9, 0xdf, 0xbe,
  0xd8, 0x13, 0x81, 0xbe, 0x0c, 0x06, 0x83, 0x3e, 0x19, 0x53, 0x81, 0x3d,
  0x1f, 0xce, 0x03, 0x3e, 0xa0, 0x30, 0xce, 0x3e, 0xa0, 0xac, 0x9a, 0x3e,
  0xee, 0xe4, 0xdf, 0x3e, 0x2e, 0x02, 0xb1, 0xbd, 0xa4, 0x61, 0x8b, 0xbd,
  0x0f, 0xd0, 0x68, 0xbe, 0x89, 0x97, 0x13, 0xbf, 0x27, 0xe4, 0xea, 0x3d,
  0x36, 0x2e, 0xb3, 0x3e, 0xdc, 0x06, 0x07, 0xbe, 0x6b, 0xf1, 0xf3, 0x3c,
  0x40, 0x53, 0xeb, 0xbd, 0x81, 0xb5, 0xc4, 0x3d, 0x4c, 0x99, 0xd2, 0x3e,
  0x71, 0x98, 0xeb, 0xbd, 0xf7, 0x27, 0xfe, 0xbc, 0x42, 0x79, 0xd4, 0x3c,
  0xc6, 0x01, 0xcb, 0x3e, 0xfe, 0x13, 0x8c, 0x3e, 0x9a, 0x78, 0xb0, 0x3d,
  0x03, 0xc6, 0x84, 0xbb, 0x3c, 0x81, 0x73, 0xbe, 0x28, 0x62, 0x5a, 0xbe,
  0xec, 0x12, 0x35, 0x3e, 0x7c, 0xd8, 0xe6, 0xbd, 0xf8, 0x79, 0x5a, 0x3d,
  0xc4, 0x79, 0x16, 0xbe, 0x81, 0x38, 0x7f, 0xbe, 0x2e, 0xa2, 0x6a, 0xbe,
  0x1e, 0xa1, 0xe6, 0x3e, 0xf3, 0xf1, 0x94, 0xbe, 0xd5, 0x9a, 0xb1, 0x3c,
  0xee, 0x7a, 0xf0, 0x3d, 0x5e, 0xc6, 0xd8, 0x3c, 0xb9, 0x1c, 0xd0, 0x3e,
  0xb3, 0x53, 0x42, 0xbd, 0x8f, 0x06, 0x54, 0xbe, 0xb2, 0x8b, 0xb8, 0xbe,
  0x63, 0xd6, 0xbe, 0xbe, 0x6c, 0x71, 0xd0, 0xbd, 0x8f, 0xc5, 0xbe, 0x3e,
  0x48, 0x87, 0x49, 0x3e, 0xe2, 0x93, 0xae, 0x3c, 0x45, 0xc2, 0xcf, 0x3d,
  0xc6, 0x89, 0x1d, 0xbd, 0xd3, 0x80, 0x3a, 0xbe, 0xb0, 0x81, 0x2e, 0xbc,
  0xee, 0x9c, 0x58, 0x3e, 0x2b, 0x60, 0x85, 0x3e, 0xf3, 0xdd, 0x5f, 0x3e,
  0xf1, 0xab, 0x95, 0x3e, 0x93, 0x13, 0x06, 0x3c, 0x32, 0xf9, 0x35, 0x3d,
  0x6f, 0x3b, 0x90, 0xbe, 0x98, 0x65, 0x4f, 0xbe, 0x53, 0xf1, 0x57, 0x3e,
  0xbc, 0x2d, 0xea, 0x3e, 0xf1, 0xa6, 0x93, 0x3e, 0x13, 0x2e, 0x76, 0x3d,
  0xca, 0xb7, 0xd5, 0xbd, 0x28, 0x3f, 0x40, 0x3e, 0x62, 0xc7, 0x7a, 0x3d,
  0x7f, 0xf1, 0x64, 0x3e, 0x40, 0x32, 0x62, 0x3e, 0x5e, 0x34, 0x40, 0xbd,
  0x15, 0xae, 0x9d, 0x3e, 0x2f, 0x76, 0x06, 0x3e, 0xfc, 0x43, 0xd0, 0xbd,
  0x7f, 0xfa, 0x04, 0x3e, 0x5a, 0x12, 0x7b, 0xbe, 0xd1, 0x5a, 0x87, 0xbe,
  0xfa, 0x5e, 0x94, 0x3e, 0xdf, 0x50, 0xd0, 0x3d, 0x95, 0x0e, 0x03, 0xbe,
  0x82, 0x9d, 0x99, 0xbd, 0xbc, 0xcd, 0x81, 0x3c, 0xd4, 0x79, 0xb7, 0xbe,
  0xf7, 0x89, 0x29, 0xbe, 0x3b, 0x8f, 0x58, 0xbe, 0x06, 0xef, 0x81, 0x3e,
  0x76, 0xf0, 0xdd, 0x3d, 0x99, 0x42, 0xed, 0x3d, 0x50, 0x69, 0x3e, 0x3c,
  0x98, 0x6b, 0x05, 0x3e, 0x65, 0xb9, 0xa7, 0xbe, 0xa1, 0x85, 0x3e, 0xbe,
  0x43, 0x9e, 0xba, 0xbe, 0x91, 0xa8, 0xe2, 0x3d, 0x9d, 0x8e, 0xf3, 0x3e,
  0xb2, 0x8c, 0x87, 0xbd, 0xc1, 0x64, 0x88, 0x3e, 0x57, 0xe8, 0x8d, 0x3e,
  0x41, 0x37, 0x0a, 0x3e, 0x7e, 0x23, 0x93, 0xbd, 0x64, 0xdb, 0x2e, 0x3e,
  0xce, 0x1d, 0x81, 0x3c, 0x99, 0x55, 0x8d, 0xbe, 0x3f, 0x8f, 0x90, 0x3d,
  0xbc, 0x28, 0x9c, 0xbe, 0x79, 0x8f, 0x85, 0xbe, 0x24, 0xef, 0x85, 0x3e,
  0x6e, 0xfb, 0x6e, 0x3d, 0x1c, 0x24, 0x20, 0xbe, 0x68, 0x83, 0xfb, 0x3d,
  0xa0, 0xcf, 0x98, 0x3e, 0xe6, 0x03, 0xd7, 0xbe, 0x51, 0xb5, 0xcd, 0x3a,
  0xac, 0x67, 0xbc, 0x3e, 0x01, 0x5e, 0xae, 0x3e, 0x50, 0x6a, 0x4a, 0x3f,
  0xf5, 0x84, 0x58, 0x3e, 0x98, 0x8e, 0x91, 0xbe, 0xf2, 0xa8, 0x9d, 0x3d,
  0x6b, 0x4f, 0x57, 0x3c, 0x85, 0x06, 0xbe, 0xbd, 0xa0, 0x41, 0xa3, 0xbe,
  0x35, 0x02, 0xa2, 0x3e, 0x58, 0xdf, 0x0a, 0xbe, 0xb9, 0x2f, 0x3c, 0xbe,
  0x31, 0x2e, 0x32, 0x3e, 0x53, 0x6c, 0xc8, 0xbe, 0xc8, 0xb0, 0xca, 0xbb,
  0x48, 0x15, 0x52, 0xbc, 0x89, 0x91, 0xf9, 0x3d, 0xf1, 0x9e, 0xf0, 0xbd,
  0xf6, 0x43, 0x1d, 0x3f, 0x21, 0xbb, 0xfb, 0xbb, 0x7f, 0x2a, 0xff, 0x3d,
  0x92, 0x4b, 0x91, 0x3e, 0xd8, 0x53, 0x98, 0x3e, 0x8c, 0xf8, 0xa3, 0x3e,
  0x9b, 0x34, 0xd5, 0x3d, 0x9a, 0xb8, 0x38, 0x3c, 0x7f, 0xb4, 0xd0, 0x3d,
  0x21, 0xa4, 0x93, 0xbe, 0x43, 0xaa, 0x0a, 0x3e, 0xbb, 0xb0, 0x3e, 0xbe,
  0xdf, 0x23, 0x08, 0xbe, 0x24, 0x40, 0xa0, 0xbd, 0x13, 0x9e, 0x76, 0xbc,
  0x81, 0xcf, 0x6c, 0x3d, 0x55, 0xf3, 0xe1, 0x3e, 0xbc, 0x50, 0x85, 0x3e,
  0xa4, 0xd6, 0x40, 0xbe, 0x3b, 0x1a, 0x70, 0xbd, 0x93, 0xf6, 0xeb, 0x3a,
  0x75, 0xaf, 0xe8, 0xbb, 0xc0, 0xee, 0x2c, 0xbd, 0xfa, 0x74, 0x58, 0xbe,
  0xb0, 0x5e, 0x45, 0x3c, 0x7f, 0x93, 0x3e, 0xbe, 0x8e, 0x99, 0x9f, 0xbe,
  0x75, 0xd1, 0x7a, 0x3e, 0x7c, 0xd0, 0xa6, 0x3d, 0xac, 0x67, 0x17, 0xbe,
  0xd5, 0xb0, 0xbe, 0xbd, 0x49, 0x53, 0x51, 0xbd, 0xa9, 0x4b, 0x5c, 0x3e,
  0x4a, 0xa0, 0x54, 0xbe, 0xdf, 0xa3, 0xd4, 0xbd, 0x3c, 0x3a, 0x23, 0xbd,
  0x15, 0xf1, 0x33, 0x3e, 0x8a, 0x40, 0x29, 0xbc, 0x4e, 0x84, 0x36, 0x3e,
  0xdc, 0xd6, 0x12, 0x3b, 0x09, 0xb9, 0xf5, 0xbd, 0x69, 0x55, 0xa9, 0xbe,
  0x9b, 0x9f, 0xf9, 0xbd, 0x14, 0x11, 0x17, 0x3e, 0x05, 0x3f, 0x5c, 0x3e,
  0x83, 0x32, 0x5e, 0x3d, 0xc7, 0x24, 0xb9, 0xbe, 0xd0, 0xe6, 0x41, 0xbd,
  0x03, 0xa8, 0x5d, 0x3e, 0xfb, 0x74, 0x05, 0x3e, 0x67, 0xcc, 0xfd, 0xbd,
  0xc9, 0x2f, 0xce, 0x3c, 0x68, 0x9c, 0xd0, 0x3e, 0x0a, 0xd9, 0x83, 0x3e,
  0x66, 0x76, 0x10, 0xbd, 0x35, 0x74, 0x50, 0xbe, 0x4c, 0xc7, 0xc1, 0xbe,
  0x5c, 0xc2, 0x54, 0xbe, 0xdd, 0x8e, 0xad, 0x3c, 0xa9, 0x04, 0x7f, 0x3e,
  0x90, 0x5f, 0xb7, 0x3d, 0xc7, 0x4b, 0x55, 0x3d, 0x6c, 0x6c, 0xd6, 0xbe,
  0x0e, 0xe0, 0xd1, 0x3c, 0xf7, 0x01, 0xc5, 0x3e, 0x11, 0xe2, 0xec, 0xbd,
  0x10, 0x83, 0xc4, 0x3d, 0xad, 0x07, 0x9c, 0xbc, 0x7a, 0x1e, 0xad, 0x3e,
  0x2a, 0xa5, 0xbf, 0x3e, 0x0f, 0xa5, 0xf3, 0x3d, 0x05, 0x9e, 0xfe, 0xbc,
  0x1c, 0x88, 0xce, 0xbe, 0x4f, 0xb4, 0x98, 0xbe, 0xc6, 0x18, 0xad, 0x3e,
  0x5e, 0x7d, 0x01, 0x3d, 0x16, 0xa3, 0x7f, 0x3d, 0xc8, 0xbc, 0x82, 0xba,
  0xa0, 0xe8, 0xc6, 0xbb, 0x07, 0x02, 0x47, 0xbe, 0x56, 0x63, 0xdb, 0xbd,
  0xa1, 0x70, 0x9d, 0xbe, 0xe7, 0xf7, 0xa0, 0x3e, 0x8b, 0xa3, 0xc6, 0x3e,
  0x46, 0x74, 0xe0, 0x3e, 0x35, 0x79, 0xb8, 0x3d, 0x1a, 0xeb, 0xf2, 0xbd,
  0x35, 0x7d, 0x0f, 0xbe, 0x66, 0xa1, 0xbf, 0xbe, 0x77, 0xe2, 0x22, 0x3d,
  0xe1, 0x35, 0x0e, 0xbe, 0xf6, 0x70, 0x89, 0x3e, 0xc9, 0x53, 0x59, 0x3e,
  0xf3, 0xf7, 0x9c, 0x3e, 0x32, 0x9c, 0xae, 0xbd, 0xbf, 0x8d, 0x75, 0xbd,
  0x21, 0x9f, 0xbf, 0xbe, 0x3b, 0x73, 0x3c, 0xbe, 0xcc, 0xd9, 0xf2, 0xbd,
  0x86, 0xfa, 0xcf, 0x3e, 0xb7, 0x13, 0x92, 0x3e, 0x40, 0xad, 0xaf, 0x3d,
  0x87, 0x1a, 0x9b, 0x3d, 0x61, 0x2b, 0x01, 0xbe, 0x19, 0x73, 0x6f, 0xbe,
  0xe9, 0x3f, 0xea, 0xbe, 0x86, 0x73, 0xa4, 0x3d, 0x6b, 0x7d, 0x7d, 0x3e,
  0x81, 0x21, 0x29, 0x3e, 0x50, 0xab, 0x34, 0x3e, 0x74, 0x4b, 0xf6, 0xbd,
  0xa6, 0xd5, 0xd2, 0xbe, 0x6d, 0x37, 0x00, 0xbd, 0xdd, 0x9a, 0x53, 0xbd,
  0x73, 0xaf, 0xef, 0xbd, 0xc7, 0x2b, 0x6b, 0x3e, 0x1b, 0xd2, 0xd2, 0x3e,
  0x15, 0xba, 0xa4, 0x3e, 0x94, 0x56, 0x35, 0x3e, 0x09, 0xaf, 0x01, 0x3e,
  0xd5, 0x35, 0x2d, 0xbe, 0xa3, 0xff, 0xb9, 0xbe, 0x5f, 0xa6, 0x8b, 0xbd,
  0x52, 0xf6, 0xc2, 0x3e, 0xe6, 0xd3, 0xff, 0xff, 0x04, 0x00, 0x00, 0x00,
  0x00, 0x04, 0x00, 0x00, 0x26, 0x0a, 0x94, 0x3e, 0xf2, 0x5d, 0xe3, 0x3c,
  0x8e, 0xdd, 0x96, 0xbe, 0x3f, 0x4e, 0x96, 0xbd, 0x3b, 0x07, 0xc7, 0x3d,
  0xc9, 0x5a, 0xd5, 0xbe, 0x8c, 0x2e, 0x7a, 0x3e, 0xfb, 0x8f, 0x92, 0x3e,
  0xed, 0x86, 0xf1, 0x3e, 0x96, 0x7d, 0x59, 0xbd, 0xbc, 0x95, 0xd3, 0x3e,
  0xc8, 0x09, 0xd1, 0xbe, 0x60, 0x6a, 0xfc, 0xbe, 0x48, 0x31, 0xb8, 0xbd,
  0x58, 0xd3, 0xda, 0x3e, 0x8b, 0xae, 0xd4, 0x3e, 0xa5, 0x7a, 0xf2, 0x3e,
  0x03, 0xe5, 0x18, 0xbe, 0x64, 0x2f, 0x8d, 0xbe, 0x29, 0xaf, 0x6e, 0xbe,
  0x72, 0x0a, 0xfd, 0x3d, 0x41, 0x51, 0x1d, 0xbd, 0xb5, 0x69, 0xc7, 0x3e,
  0x8c, 0xb5, 0xef, 0x3e, 0x48, 0x8f, 0x2e, 0x3e, 0x87, 0x2d, 0x05, 0x3e,
  0xcc, 0xaa, 0xa5, 0x3e, 0xc5, 0x06, 0x72, 0xbe, 0x0a, 0x22, 0x76, 0xbd,
  0x59, 0x99, 0x85, 0xbe, 0x0d, 0x3c, 0x3b, 0x3e, 0xdb, 0x0c, 0x30, 0x3e,
  0x8e, 0x5e, 0x6c, 0x3c, 0x2f, 0x30, 0xb3, 0xbe, 0x7c, 0x36, 0xb5, 0xbe,
  0xdb, 0x64, 0x9a, 0xbe, 0x36, 0x31, 0xfe, 0xbd, 0xf1, 0x9b, 0xef, 0xbe,
  0x86, 0x6d, 0xe6, 0x3e, 0x3d, 0x6e, 0x90, 0x3e, 0xdc, 0x2f, 0xa2, 0x3e,
  0xda, 0x27, 0x8a, 0x3d, 0xd9, 0x64, 0xe5, 0x3d, 0x53, 0x90, 0xdf, 0xbe,
  0x73, 0xac, 0x2f, 0xbe, 0x73, 0x8c, 0x8a, 0xbd, 0xb8, 0x77, 0x87, 0x3e,
  0x32, 0x6f, 0xb9, 0x3e, 0x28, 0x37, 0xb2, 0x3e, 0x00, 0x53, 0x7a, 0xbe,
  0x5f, 0x1a, 0x0c, 0xbf, 0xff, 0x52, 0x65, 0xbe, 0x89, 0x87, 0x9f, 0x3d,
  0xe7, 0x4c, 0xd4, 0xbe, 0xd5, 0x30, 0x45, 0x3e, 0x0c, 0x02, 0xef, 0x3e,
  0xf6, 0x8d, 0x29, 0x3e, 0xc6, 0xc2, 0xc0, 0x3d, 0x64, 0x49, 0xcf, 0x3e,
  0x67, 0x3c, 0xc0, 0xbe, 0xd7, 0xd6, 0xb7, 0xbe, 0xd6, 0xa4, 0x72, 0xbe,
  0xff, 0x93, 0xda, 0xbc, 0xbf, 0x3a, 0xac, 0x3e, 0x10, 0x61, 0xb2, 0xbe,
  0x30, 0x3b, 0xba, 0xbd, 0xe8, 0x27, 0x43, 0x3d, 0xf9, 0xe9, 0x1e, 0x3e,
  0xd7, 0x9d, 0x88, 0x3c, 0xf8, 0x32, 0x95, 0x3e, 0x2e, 0x4d, 0xa0, 0xbe,
  0x38, 0xea, 0xc1, 0xbe, 0x5d, 0x0a, 0xa0, 0xbe, 0x74, 0x02, 0x72, 0x3d,
  0x43, 0x2d, 0x85, 0xbe, 0x51, 0x8c, 0x9b, 0x3e, 0xdc, 0x62, 0xf7, 0x3e,
  0xa4, 0x19, 0x93, 0x3e, 0xd4, 0xcb, 0xae, 0xbe, 0x1c, 0xfa, 0xd9, 0xbd,
  0x28, 0x3f, 0x05, 0x3f, 0xda, 0xba, 0x88, 0xbd, 0xd2, 0x1e, 0x9b, 0xbe,
  0x98, 0x95, 0x88, 0xb9, 0x32, 0x92, 0xa1, 0xbd, 0x60, 0x34, 0xd4, 0xbe,
  0xcc, 0xb5, 0x05, 0x3f, 0x00, 0xbd, 0xd8, 0x3d, 0xc0, 0x61, 0x14, 0x3e,
  0x31, 0x3f, 0x87, 0x3e, 0x5b, 0x2c, 0x93, 0x3e, 0x80, 0x58, 0xa9, 0xbe,
  0x69, 0x33, 0x3f, 0xbe, 0x63, 0xdd, 0x01, 0xbd, 0xc7, 0x5a, 0xb8, 0x3e,
  0x19, 0x2f, 0xdd, 0xbd, 0xaf, 0x0e, 0x9e, 0xbd, 0xb6, 0xf2, 0x21, 0x3d,
  0x8a, 0x48, 0x41, 0xbc, 0x95, 0x0b, 0xd8, 0x3e, 0x2e, 0x7b, 0xd4, 0x3d,
  0x43, 0xc6, 0x3f, 0x3e, 0x9a, 0xd0, 0x8b, 0xbe, 0xee, 0xbe, 0xe8, 0x3d,
  0x2c, 0xab, 0x49, 0xbe, 0x37, 0x20, 0xa1, 0xbe, 0x82, 0xec, 0x73, 0xbe,
  0x6e, 0xae, 0x1b, 0x3e, 0x6c, 0x9e, 0xa2, 0x3e, 0x91, 0xfa, 0xff, 0x3d,
  0x0f, 0x2f, 0xc2, 0xbe, 0x34, 0x2c, 0x0b, 0xbe, 0x97, 0xab, 0xa6, 0x3e,
  0xdf, 0xff, 0x3f, 0x3e, 0xb8, 0x87, 0x12, 0xbe, 0x3c, 0x89, 0x84, 0xbe,
  0xec, 0x4e, 0x42, 0x3e, 0xb7, 0xc6, 0xd4, 0xbe, 0x18, 0x33, 0xb9, 0x3d,
  0x04, 0x59, 0xc6, 0x3e, 0x0d, 0xeb, 0x04, 0x3f, 0x52, 0x49, 0x17, 0x3e,
  0x91, 0x53, 0x98, 0x3e, 0xea, 0x0d, 0x17, 0xbe, 0xa8, 0x6f, 0xca, 0xbe,
  0x52, 0x65, 0x13, 0xbf, 0xd0, 0xce, 0x3f, 0x3e, 0x9d, 0xcf, 0x87, 0x3e,
  0x90, 0x09, 0x12, 0xbf, 0x42, 0x26, 0xd0, 0x3d, 0x52, 0x56, 0x87, 0x3e,
  0xd8, 0x05, 0xd2, 0x3e, 0x26, 0xed, 0x93, 0xbd, 0x3b, 0x71, 0xa6, 0x3d,
  0x96, 0xd5, 0xd0, 0xbe, 0x1c, 0xa1, 0x0c, 0xbe, 0xfc, 0xdf, 0x86, 0xbe,
  0x8c, 0xb1, 0x30, 0xbe, 0xbf, 0x62, 0x28, 0xbe, 0xa1, 0x49, 0x55, 0x3e,
  0xc0, 0x01, 0x28, 0x3e, 0xad, 0x59, 0x40, 0x3e, 0x5e, 0xfa, 0x46, 0xbe,
  0x27, 0x1d, 0xfd, 0xbe, 0x0c, 0x7d, 0xba, 0x3d, 0xd7, 0x31, 0x3a, 0x3f,
  0x2e, 0x7b, 0x98, 0x3c, 0xe9, 0x51, 0x9b, 0xbe, 0xf8, 0x5a, 0x46, 0xbe,
  0x3c, 0x15, 0x7a, 0x3e, 0x73, 0x17, 0xaa, 0x3d, 0x4d, 0x88, 0x22, 0xbb,
  0x2a, 0x1f, 0x60, 0x3e, 0xb2, 0x2f, 0xeb, 0x3e, 0x96, 0x34, 0xfc, 0x3c,
  0x64, 0xb6, 0x41, 0xbe, 0x8a, 0x5f, 0x45, 0xbc, 0xcd, 0x38, 0xcd, 0xbe,
  0x56, 0x68, 0x91, 0x3e, 0xc0, 0x7f, 0x54, 0x3e, 0x7f, 0xe6, 0x17, 0xbf,
  0x89, 0xe1, 0xed, 0xbb, 0xc2, 0x79, 0xc2, 0x3e, 0xca, 0x6b, 0x4e, 0xbd,
  0x7f, 0x28, 0x4c, 0x3d, 0xb5, 0x85, 0x0f, 0x3f, 0x21, 0x46, 0x0a, 0xbf,
  0xf3, 0xbf, 0x4a, 0xbe, 0x13, 0xe2, 0xb2, 0xbe, 0xb5, 0x33, 0xaa, 0xbd,
  0x36, 0x2b, 0x82, 0xbe, 0xba, 0xc8, 0x9f, 0x3d, 0x3f, 0x9f, 0x05, 0x3f,
  0x12, 0x91, 0x34, 0x3e, 0x2c, 0x8e, 0xcf, 0xbe, 0xf7, 0x3b, 0x6d, 0xbd,
  0x0e, 0xf4, 0xed, 0x3e, 0xda, 0x0a, 0x46, 0x3e, 0xad, 0xdf, 0x75, 0xbe,
  0x53, 0x30, 0xdb, 0xbc, 0xef, 0x6a, 0x96, 0x3c, 0xce, 0xff, 0xf6, 0xbe,
  0xad, 0xfd, 0x12, 0x3e, 0x63, 0x27, 0x94, 0x3e, 0x2c, 0x46, 0xd0, 0x3e,
  0xa2, 0x5b, 0xd9, 0x3e, 0xd2, 0xd5, 0x30, 0x3e, 0x57, 0x98, 0x8a, 0xbe,
  0xd6, 0x67, 0xf6, 0xbc, 0xee, 0x02, 0x43, 0xbe, 0x7c, 0xd1, 0x83, 0x3e,
  0x8e, 0x1b, 0x8e, 0x3e, 0x6d, 0xba, 0xdc, 0x3c, 0x55, 0x84, 0x1e, 0xbe,
  0xe8, 0x59, 0xf2, 0x3d, 0xc8, 0x15, 0x58, 0xbd, 0x4a, 0x41, 0x5a, 0xbe,
  0x67, 0x84, 0x4a, 0xbd, 0x9c, 0xf3, 0x7e, 0x3e, 0x53, 0xa3, 0xd1, 0x3e,
  0x08, 0x73, 0xa6, 0x3e, 0x4a, 0xb0, 0x87, 0x3e, 0x44, 0xbe, 0xc5, 0x3e,
  0xbb, 0x38, 0xbe, 0xbc, 0xd1, 0x97, 0xa6, 0xbe, 0xa3, 0xad, 0x6a, 0xbe,
  0x8b, 0xdd, 0x1c, 0x3e, 0x58, 0x84, 0xaf, 0x3e, 0xa8, 0x98, 0x6e, 0xbe,
  0xee, 0xdb, 0xc2, 0x3e, 0x2e, 0xa7, 0x07, 0x3e, 0x1f, 0x74, 0xdb, 0xbd,
  0xb2, 0xd9, 0xb1, 0x3e, 0x19, 0xf2, 0x55, 0x3e, 0xbb, 0x87, 0x19, 0xbe,
  0x57, 0xd3, 0x89, 0xbe, 0x3b, 0x86, 0x8b, 0xbe, 0xed, 0xca, 0x11, 0xbe,
  0x87, 0xa3, 0xef, 0xbe, 0x99, 0x45, 0xfa, 0x3e, 0x70, 0x94, 0x9e, 0x3e,
  0xaa, 0xca, 0x7c, 0x3e, 0x23, 0x41, 0xe0, 0xbe, 0x27, 0x4a, 0x41, 0xbd,
  0xff, 0x61, 0xdf, 0xbe, 0xab, 0x24, 0xaa, 0x3e, 0xc6, 0xfb, 0x9f, 0x3e,
  0xc2, 0x57, 0xec, 0x3b, 0xee, 0xf2, 0x36, 0x3d, 0x66, 0x57, 0x31, 0x3e,
  0x01, 0xad, 0x11, 0xbe, 0xd0, 0xec, 0x0c, 0xbe, 0x03, 0x92, 0x49, 0xbe,
  0xcd, 0x2c, 0x0c, 0xbe, 0xb4, 0xd2, 0x45, 0xbe, 0x5f, 0x62, 0x0e, 0x3e,
  0x8e, 0x1a, 0xa9, 0x3e, 0x75, 0x71, 0xe8, 0x3e, 0xab, 0xac, 0xd3, 0xbd,
  0xce, 0xeb, 0x88, 0xbd, 0x51, 0xda, 0x4e, 0xbe, 0x25, 0x7e, 0x85, 0x3e,
  0x6f, 0xc3, 0xf0, 0x3e, 0x6b, 0x1f, 0x42, 0x3e, 0x93, 0x9d, 0xf5, 0xbd,
  0xb8, 0xbe, 0xca, 0x3e, 0x38, 0x01, 0xe2, 0xbe, 0xd9, 0x99, 0xaa, 0xbe,
  0xe7, 0xfc, 0x7f, 0xbe, 0x14, 0x9d, 0x9d, 0xbe, 0x9f, 0xa6, 0xa6, 0xbd,
  0x4b, 0x24, 0x9a, 0xbc, 0x89, 0x39, 0x97, 0x3e, 0x96, 0x06, 0xcf, 0x3e,
  0x0a, 0x55, 0x85, 0xbe, 0x54, 0x80, 0x54, 0xbe, 0xf2, 0xd7, 0xff, 0xff,
  0x04, 0x00, 0x00, 0x00, 0x00, 0x04, 0x00, 0x00, 0xf2, 0x1e, 0x9b, 0xbd,
  0xe8, 0xd9, 0x03, 0x3f, 0xfa, 0x74, 0xc1, 0xbe, 0x29, 0xb3, 0x05, 0xbf,
  0xcd, 0x33, 0x01, 0xbe, 0x20, 0x52, 0xab, 0x3e, 0x38, 0x09, 0x7d, 0x3e,
  0xd4, 0x36, 0x25, 0x3e, 0x97, 0x8c, 0xe8, 0x3e, 0x6b, 0x1c, 0x46, 0x3f,
  0xa4, 0x85, 0xdc, 0xbc, 0xdf, 0xeb, 0xb2, 0x3e, 0xb2, 0x34, 0xdd, 0xbe,
  0x79, 0x42, 0x7c, 0xbe, 0x3b, 0x97, 0x18, 0x3f, 0x03, 0xcc, 0x15, 0xbf,
  0xa9, 0xb2, 0xc4, 0xbe, 0xdd, 0xff, 0x03, 0x3f, 0x07, 0xd8, 0xe7, 0x3d,
  0xeb, 0x90, 0x5d, 0xbf, 0xbb, 0xfc, 0xb6, 0x3d, 0xf0, 0x1b, 0x84, 0x3e,
  0xba, 0x53, 0xb5, 0x3e, 0x9f, 0x55, 0x06, 0x3e, 0x98, 0xcc, 0xb4, 0x3e,
  0x19, 0xdf, 0x73, 0x3f, 0x92, 0x74, 0xc4, 0x39, 0x1f, 0xe0, 0xbe, 0x3e,
  0x2f, 0xe1, 0x49, 0xbe, 0x7c, 0xa9, 0x0d, 0xbf, 0x92, 0xed, 0x4a, 0x3f,
  0xb7, 0xc3, 0xeb, 0xbe, 0xb6, 0x3a, 0xf0, 0xbd, 0xde, 0xb1, 0xa0, 0x3e,
  0xd1, 0xc2, 0xc4, 0xbe, 0xc7, 0x09, 0x4d, 0xbf, 0xd9, 0x9d, 0x2d, 0xbe,
  0xe4, 0xf3, 0x7f, 0x3e, 0xfb, 0x40, 0x4a, 0x3e, 0x90, 0x55, 0xf0, 0x3e,
  0xd9, 0xa0, 0x12, 0x3f, 0x5f, 0x85, 0x14, 0x3f, 0x77, 0x55, 0xa2, 0xbd,
  0x76, 0x83, 0x8b, 0x3e, 0x04, 0x91, 0xf0, 0xbe, 0xe0, 0x8a, 0xfc, 0xbe,
  0x11, 0x49, 0x7a, 0x3e, 0x12, 0xc1, 0x55, 0xbe, 0x2a, 0xdc, 0x93, 0x3d,
  0x78, 0x13, 0xda, 0x3e, 0x7f, 0x17, 0x11, 0xbf, 0x90, 0x49, 0x0c, 0xbe,
  0x1b, 0x39, 0x55, 0xbe, 0xa8, 0xab, 0x3b, 0x3e, 0xa2, 0x7f, 0x75, 0x3e,
  0xc4, 0x48, 0xb6, 0x3e, 0xc2, 0xa1, 0x0c, 0x3f, 0xbe, 0x43, 0x33, 0x3f,
  0x9d, 0x9e, 0xb6, 0x3e, 0xd8, 0x97, 0x5e, 0x3e, 0x4e, 0x82, 0x6c, 0xbe,
  0x3a, 0xbc, 0x16, 0xbf, 0x45, 0xf1, 0xc0, 0x3e, 0xdd, 0x64, 0x1a, 0xbe,
  0xf8, 0x0d, 0xce, 0xbd, 0xa3, 0x34, 0x7f, 0x3d, 0x5c, 0xe7, 0xd8, 0xbe,
  0xd8, 0xc9, 0x43, 0xbf, 0xee, 0x49, 0x5d, 0xbe, 0x37, 0x1e, 0x1d, 0xbe,
  0xec, 0x22, 0x83, 0x3d, 0x56, 0xe9, 0xd4, 0x3d, 0x42, 0xc3, 0x03, 0x3f,
  0x67, 0x51, 0xde, 0x3e, 0xa3, 0xda, 0xff, 0x3d, 0x11, 0x13, 0xbe, 0x3d,
  0xa5, 0x8b, 0x13, 0xbf, 0x1f, 0x46, 0x03, 0xbf, 0x19, 0xc8, 0xa0, 0x3e,
  0x70, 0x87, 0xb8, 0x3d, 0xeb, 0xd4, 0x58, 0x3e, 0x3d, 0x94, 0x99, 0x3e,
  0xb7, 0xa5, 0xbf, 0xbe, 0x58, 0xe1, 0x03, 0xbf, 0x0b, 0x4d, 0xb5, 0xbe,
  0x3b, 0x35, 0x80, 0x3d, 0x9e, 0x27, 0x77, 0x3e, 0x59, 0xbb, 0xb5, 0x3e,
  0x0b, 0x46, 0xba, 0x3e, 0x95, 0xa4, 0x1d, 0x3f, 0x0f, 0x65, 0x68, 0x3e,
  0x7f, 0x2a, 0x3f, 0x3e, 0x80, 0xaa, 0xd6, 0xbe, 0x20, 0x08, 0xc4, 0xbe,
  0xbb, 0x4a, 0x04, 0x3f, 0x32, 0x2b, 0x98, 0x3d, 0xc5, 0xca, 0x14, 0xbf,
  0xeb, 0xd9, 0x22, 0x3f, 0xcc, 0xd7, 0x3d, 0xbe, 0x39, 0xb3, 0x8a, 0xbf,
  0x85, 0x04, 0xa0, 0xbf, 0x89, 0xc4, 0x10, 0x3e, 0x40, 0x4d, 0x2d, 0x3e,
  0x59, 0xdb, 0x58, 0x3c, 0x53, 0x5f, 0xf9, 0x3e, 0x6c, 0xb5, 0x46, 0x3f,
  0x90, 0xc7, 0x25, 0x3d, 0xd9, 0x55, 0xaa, 0x3e, 0xa6, 0x7c, 0x03, 0xbf,
  0x49, 0x3c, 0x2a, 0xbe, 0x66, 0x89, 0x46, 0x3f, 0x21, 0x9d, 0xee, 0xbe,
  0x84, 0x0b, 0xd9, 0xbe, 0x26, 0xba, 0x6c, 0x3e, 0x84, 0xf4, 0x9b, 0xbe,
  0x0e, 0x12, 0x4a, 0xbf, 0xbb, 0x3a, 0x47, 0x3e, 0xb9, 0x52, 0xb3, 0x3d,
  0xe8, 0x7a, 0x81, 0x3e, 0x44, 0x1c, 0xe1, 0x3e, 0x3d, 0xc1, 0x05, 0x3f,
  0x37, 0xc6, 0xe7, 0x3e, 0x89, 0xc3, 0xed, 0xbd, 0x88, 0xc6, 0x38, 0x3f,
  0x1e, 0x40, 0x9f, 0xbe, 0x45, 0xe5, 0x40, 0xbe, 0xa2, 0x70, 0xac, 0x3e,
  0x86, 0x70, 0xe5, 0xbc, 0xf5, 0x62, 0x36, 0x3d, 0x12, 0x3b, 0xc1, 0x3e,
  0x43, 0x54, 0x1f, 0xbe, 0x1d, 0xbf, 0x2a, 0xbf, 0x22, 0xb0, 0x1d, 0xbe,
  0x33, 0xf9, 0x95, 0xbd, 0x9f, 0xc4, 0xc2, 0x3e, 0x2c, 0xcd, 0xec, 0x3e,
  0xcc, 0x19, 0x61, 0x3e, 0x24, 0xf1, 0x34, 0x3f, 0x43, 0xba, 0x2f, 0xbe,
  0x71, 0xab, 0x12, 0x3f, 0xc2, 0x68, 0xe6, 0xbe, 0xf1, 0xf9, 0xaa, 0xbe,
  0x45, 0x5b, 0x9a, 0x3e, 0x65, 0x4e, 0x37, 0xbe, 0x1a, 0x04, 0x14, 0xbf,
  0xbf, 0x73, 0x0a, 0x3e, 0xa5, 0xe1, 0x0f, 0xbe, 0x64, 0x19, 0x35, 0xbf,
  0xa7, 0xa5, 0x10, 0xbf, 0x90, 0x98, 0x30, 0x3f, 0xf5, 0xab, 0x91, 0x3e,
  0x3e, 0x5e, 0x73, 0x3d, 0xc4, 0x54, 0xc4, 0x3e, 0xe6, 0x46, 0x4d, 0x3f,
  0xec, 0xde, 0xc5, 0x3c, 0x68, 0x4b, 0x73, 0x3f, 0x1d, 0x13, 0xb2, 0xbe,
  0x40, 0x35, 0xff, 0xbe, 0xf6, 0x97, 0x52, 0x3f, 0x82, 0x78, 0xd2, 0xbe,
  0x58, 0xd8, 0xc1, 0x3d, 0x61, 0x31, 0x0f, 0x3f, 0x01, 0x21, 0x70, 0xbe,
  0x02, 0xdf, 0x52, 0xbf, 0xcd, 0xd0, 0xfa, 0xbd, 0x9c, 0x14, 0xbc, 0x3d,
  0x6a, 0x5e, 0xd0, 0x3e, 0xce, 0x4a, 0x3f, 0x3e, 0x79, 0x2d, 0xc8, 0x3e,
  0x3b, 0x69, 0xda, 0x3e, 0xb5, 0x2f, 0xef, 0xbc, 0x4c, 0x47, 0x91, 0x3e,
  0x6e, 0xce, 0x2d, 0xbf, 0x0c, 0xaa, 0x0d, 0xbf, 0x56, 0x13, 0xde, 0x3e,
  0xe9, 0x84, 0x84, 0xbe, 0xe0, 0x13, 0x7c, 0x3e, 0xfe, 0xad, 0x5c, 0x3e,
  0x6d, 0x7b, 0xde, 0xbe, 0xfb, 0xff, 0xc7, 0xbe, 0xba, 0x53, 0xf1, 0xbd,
  0xd0, 0xe3, 0xd3, 0x3d, 0x5f, 0xe9, 0xa9, 0x3e, 0x92, 0xde, 0xaa, 0x3e,
  0xe9, 0x89, 0x19, 0x3f, 0x2b, 0xcb, 0x9f, 0x3e, 0xa1, 0x33, 0x72, 0x3e,
  0x83, 0x54, 0xdf, 0x3e, 0xbd, 0xd3, 0xe2, 0xbe, 0x06, 0x7e, 0xb2, 0xbe,
  0x6a, 0x0c, 0x06, 0x3f, 0x1c, 0x92, 0x7a, 0xbe, 0x12, 0x95, 0x2d, 0xbc,
  0x1b, 0xaa, 0xb4, 0x3e, 0x15, 0x65, 0x8b, 0xbe, 0x3b, 0xb3, 0x88, 0xbf,
  0xe8, 0x9f, 0xcd, 0xbe, 0x9f, 0x32, 0xb5, 0x3e, 0xa7, 0x9b, 0x79, 0x3e,
  0x7f, 0xd8, 0x36, 0x3e, 0x22, 0x1c, 0x23, 0x3f, 0x9d, 0xa2, 0x12, 0x3f,
  0xe0, 0x71, 0x61, 0xbe, 0x9a, 0x17, 0xda, 0x3e, 0x2c, 0x36, 0xef, 0xbe,
  0xba, 0xcf, 0x1b, 0xbf, 0x96, 0x9f, 0x14, 0x3f, 0x5e, 0xbb, 0x46, 0xbe,
  0xd0, 0xef, 0x00, 0xbd, 0x38, 0x31, 0xb1, 0x3e, 0xd0, 0x23, 0x0c, 0xbf,
  0x96, 0x8f, 0x00, 0xbf, 0xaf, 0x91, 0x82, 0xbe, 0xcb, 0xf8, 0x2c, 0xbd,
  0x32, 0xec, 0x92, 0x3e, 0x4a, 0xcf, 0xd9, 0x3e, 0xb0, 0x92, 0x21, 0x3f,
  0x3f, 0x71, 0xf5, 0x3e, 0x5f, 0x19, 0xc3, 0xbd, 0xde, 0x72, 0x97, 0xbe,
  0xd7, 0xe7, 0x97, 0xbe, 0x98, 0xd8, 0xb2, 0xbe, 0xcf, 0x22, 0x0e, 0x3f,
  0x95, 0x23, 0x4c, 0x3e, 0x84, 0xa9, 0xfe, 0x3d, 0x4a, 0x0b, 0x65, 0x3e,
  0x33, 0x81, 0xf2, 0xbe, 0x0a, 0xc4, 0x85, 0xbe, 0x58, 0xa9, 0x8b, 0xbe,
  0x4e, 0xec, 0x97, 0xbe, 0x66, 0x5e, 0x94, 0x3e, 0xf1, 0xa4, 0x07, 0x3f,
  0x16, 0xb4, 0x49, 0x3e, 0xd5, 0x3d, 0x25, 0x3f, 0x8c, 0xfc, 0x56, 0x3e,
  0x69, 0x24, 0x84, 0xbc, 0x18, 0x04, 0x17, 0xbf, 0x03, 0xea, 0xee, 0xbe,
  0x31, 0x8e, 0x1b, 0x3f, 0x5b, 0xba, 0x94, 0xbc, 0x43, 0x66, 0x87, 0xbe,
  0xe3, 0x8f, 0x8b, 0x3e, 0x2f, 0x64, 0x85, 0xbd, 0x6c, 0x9f, 0x0d, 0xbf,
  0x8b, 0x03, 0x03, 0xbf, 0xb5, 0xaf, 0x28, 0x3e, 0x0f, 0xfd, 0x0a, 0x3e,
  0xe6, 0xb2, 0xfc, 0x3d, 0xc1, 0x6f, 0x35, 0x3f, 0x60, 0x73, 0xd9, 0x3e,
  0x18, 0x92, 0xa0, 0x3e, 0x0e, 0x6f, 0xf4, 0x3e, 0x11, 0xc6, 0x0d, 0xbf,
  0xbc, 0x22, 0xfd, 0xbe, 0x33, 0xf1, 0xed, 0x3e, 0x4e, 0xa8, 0xc7, 0xbe,
  0xfe, 0xdb, 0xff, 0xff, 0x04, 0x00, 0x00, 0x00, 0x40, 0x00, 0x00, 0x00,
  0xe4, 0x3d, 0x0b, 0x3e, 0x88, 0x69, 0x92, 0x3c, 0xda, 0x24, 0x8b, 0x3d,
  0x87, 0x47, 0x94, 0x3e, 0xf7, 0x71, 0x23, 0x3e, 0x84, 0xaa, 0xeb, 0x3d,
  0x8f, 0x89, 0x3e, 0xbf, 0x66, 0x29, 0x99, 0x3e, 0x47, 0xaf, 0x31, 0x3e,
  0x93, 0xcf, 0x03, 0xbf, 0x84, 0x3b, 0x33, 0x3f, 0xdc, 0xb2, 0x84, 0x3e,
  0x73, 0xd8, 0xd3, 0xbe, 0xd7, 0xe6, 0x0a, 0x3e, 0xf8, 0x96, 0x40, 0x3d,
  0x98, 0xa2, 0x5c, 0x3a, 0x4a, 0xdc, 0xff, 0xff, 0x04, 0x00, 0x00, 0x00,
  0x40, 0x00, 0x00, 0x00, 0xef, 0xd1, 0x5f, 0x3f, 0x7b, 0x6b, 0x2b, 0x3f,
  0xc7, 0xe8, 0x43, 0x3f, 0xc5, 0xce, 0x4d, 0x3f, 0xd1, 0x55, 0x4a, 0x3f,
  0x18, 0xc2, 0x41, 0x3f, 0x90, 0xe7, 0x15, 0x3f, 0xd3, 0x7e, 0x04, 0x3f,
  0x5e, 0x12, 0x3f, 0x3f, 0x74, 0xe6, 0x91, 0x3e, 0x3e, 0x65, 0x0e, 0x3f,
  0xe6, 0xd2, 0x4b, 0x3f, 0x27, 0x57, 0x47, 0x3f, 0x09, 0xcc, 0x49, 0x3f,
  0x0e, 0x73, 0x4b, 0x3f, 0xd1, 0xc0, 0x4f, 0x3f, 0x96, 0xdc, 0xff, 0xff,
  0x04, 0x00, 0x00, 0x00, 0x40, 0x00, 0x00, 0x00, 0x0d, 0x04, 0xa3, 0x3c,
  0x65, 0x17, 0x2a, 0xbd, 0x38, 0xda, 0x1d, 0xbb, 0xa9, 0x18, 0x97, 0x3c,
  0xec, 0x4b, 0xb8, 0xbc, 0x2c, 0x64, 0x6b, 0x3b, 0x66, 0x2e, 0x10, 0x3c,
  0xc5, 0xfd, 0x98, 0xbd, 0xe9, 0x26, 0x0c, 0x3c, 0xe4, 0x21, 0xe5, 0xbc,
  0xdd, 0x3d, 0x01, 0xbc, 0x78, 0x49, 0x03, 0x3c, 0x3e, 0x05, 0xf8, 0x3b,
  0xf5, 0x64, 0xe2, 0xbc, 0x24, 0x2b, 0x34, 0xbd, 0x88, 0x03, 0x78, 0xb9,
  0xe2, 0xdc, 0xff, 0xff, 0x04, 0x00, 0x00, 0x00, 0x40, 0x00, 0x00, 0x00,
  0x7d, 0xbd, 0x9f, 0x3e, 0x12, 0x20, 0x6b, 0x3e, 0x90, 0xc0, 0x19, 0x3e,
  0xe1, 0xab, 0x8b, 0x3e, 0xb2, 0x60, 0x4a, 0x3e, 0x11, 0x58, 0x16, 0x3d,
  0x18, 0xf9, 0x01, 0xbf, 0xcf, 0xe8, 0x19, 0x3f, 0xef, 0x5c, 0xeb, 0x3e,
  0x35, 0xee, 0xd7, 0xbe, 0x68, 0x38, 0x89, 0x3f, 0xbb, 0xe6, 0xb5, 0x3e,
  0xaa, 0xfb, 0x6f, 0xbe, 0x19, 0xd8, 0xfe, 0x3d, 0xff, 0xc3, 0xf3, 0xbc,
  0xf7, 0xce, 0x68, 0x3e, 0x2e, 0xdd, 0xff, 0xff, 0x04, 0x00, 0x00, 0x00,
  0x00, 0x04, 0x00, 0x00, 0x05, 0x5a, 0xce, 0x3c, 0x82, 0x84, 0x9c, 0x3e,
  0x76, 0x98, 0x84, 0x3d, 0x1a, 0x84, 0x1b, 0x3e, 0x1b, 0x4d, 0xe9, 0xbd,
  0x79, 0x21, 0xe7, 0x3c, 0xa8, 0x0d, 0xa3, 0x3e, 0x04, 0x23, 0x01, 0xbe,
  0x8f, 0xf8, 0x3a, 0xbd, 0x8e, 0x69, 0x03, 0xbe, 0x81, 0x97, 0x99, 0x3d,
  0xfb, 0x0c, 0xb5, 0xbc, 0x7e, 0x81, 0x08, 0x3e, 0x07, 0x10, 0x41, 0xbe,
  0x9e, 0x12, 0xc6, 0xbd, 0xee, 0x34, 0x21, 0xbe, 0x29, 0xb7, 0x04, 0xbe,
  0x5a, 0xbf, 0xdb, 0xbd, 0x03, 0xfe, 0xbd, 0xbd, 0x80, 0xfd, 0x41, 0xbd,
  0x74, 0xf0, 0xcc, 0xbd, 0x51, 0xa1, 0xf6, 0x3c, 0x83, 0xfc, 0xe4, 0x3e,
  0x9c, 0x0d, 0x7f, 0xbd, 0x81, 0xf2, 0x8c, 0x3e, 0x1a, 0xc1, 0xbc, 0xbe,
  0x2d, 0x6f, 0x7e, 0x3e, 0x8a, 0x78, 0xbb, 0xbd, 0xad, 0x3a, 0x1c, 0xbe,
  0x44, 0x47, 0xaf, 0x3e, 0x61, 0x7c, 0x78, 0x3d, 0x23, 0x54, 0x1a, 0x3e,
  0x04, 0x7c, 0x05, 0x3e, 0x4e, 0xe3, 0x80, 0xbe, 0x54, 0xc7, 0xbb, 0xbd,
  0x83, 0xaf, 0xc6, 0x3d, 0xa7, 0xd3, 0x79, 0xbd, 0xfd, 0x01, 0xcd, 0xbd,
  0x3e, 0x5a, 0xf6, 0x3d, 0xa0, 0x12, 0x98, 0xbe, 0x9c, 0x32, 0x03, 0xbb,
  0xd3, 0x6b, 0x01, 0xbe, 0xe0, 0x2a, 0x8a, 0x3e, 0x77, 0xa8, 0x18, 0x3e,
  0x49, 0x40, 0xaa, 0xbd, 0x57, 0x38, 0xa0, 0x3c, 0x4d, 0x2b, 0xff, 0xbd,
  0x57, 0x6d, 0xc5, 0xbd, 0xab, 0x08, 0x02, 0x3e, 0xd2, 0xe6, 0xf0, 0x3d,
  0x54, 0xc3, 0x3a, 0x3e, 0x27, 0x69, 0x45, 0x3e, 0xd2, 0x53, 0x67, 0xbd,
  0xb7, 0xfc, 0xe4, 0x3b, 0x00, 0xfc, 0xf3, 0x3d, 0xbf, 0x75, 0xac, 0xbe,
  0x0e, 0xee, 0x6d, 0x3d, 0x36, 0xd2, 0xdf, 0x3d, 0xdd, 0x15, 0x6e, 0x3d,
  0x2f, 0x1a, 0x53, 0x3e, 0x96, 0xad, 0xe0, 0xbb, 0xc5, 0x5f, 0x53, 0xbd,
  0x2e, 0x39, 0xdf, 0xbd, 0xf0, 0xbb, 0x52, 0xbe, 0x56, 0xa2, 0x4c, 0xbe,
  0xac, 0x70, 0xaa, 0x3b, 0x64, 0x5b, 0x80, 0xbd, 0x75, 0xce, 0xaa, 0xbd,
  0x90, 0xf3, 0x56, 0x3e, 0x73, 0x3b, 0x9b, 0x3d, 0x76, 0xc2, 0x25, 0x3d,
  0xdc, 0x6f, 0x11, 0xbe, 0x9c, 0xf5, 0x49, 0xbd, 0xa0, 0xb5, 0x9e, 0xbd,
  0x25, 0x06, 0x94, 0xbe, 0x53, 0x5f, 0x3b, 0x3d, 0xa2, 0x16, 0x2b, 0xbe,
  0xd4, 0x30, 0x16, 0x3e, 0xb5, 0xd3, 0x13, 0xbe, 0x27, 0xec, 0xb1, 0x3e,
  0xdc, 0xf3, 0x2d, 0x3e, 0x01, 0xfb, 0x8b, 0x3c, 0xc7, 0x0e, 0x0b, 0x3e,
  0x8f, 0x83, 0x4d, 0x3e, 0x25, 0x73, 0xac, 0xbc, 0xc8, 0xfb, 0xd6, 0xbc,
  0xe6, 0x6c, 0x8e, 0xbe, 0xab, 0x1d, 0xa6, 0xbd, 0x59, 0x34, 0x10, 0x3e,
  0xae, 0x37, 0xb1, 0xbd, 0x59, 0x6f, 0x62, 0x3e, 0x69, 0x9e, 0xf6, 0x3d,
  0x3f, 0x04, 0x63, 0xbe, 0x0b, 0x10, 0x63, 0x3d, 0xf4, 0x52, 0x1c, 0xbe,
  0xfe, 0xea, 0x94, 0x3e, 0x03, 0xb9, 0x5f, 0xbd, 0x2d, 0x6e, 0x24, 0xbf,
  0xc6, 0x2a, 0xad, 0xbe, 0x67, 0xd9, 0xf2, 0xbd, 0xbc, 0xa5, 0xa0, 0x3e,
  0x23, 0x65, 0x2c, 0xbe, 0x97, 0x53, 0x77, 0x3f, 0xeb, 0x42, 0x53, 0xbf,
  0x78, 0x73, 0xdf, 0x3e, 0x57, 0xdc, 0x79, 0xbf, 0xd7, 0x84, 0x0c, 0x3f,
  0x77, 0x06, 0xf8, 0xbe, 0x51, 0x2d, 0x0f, 0xbf, 0x50, 0x65, 0xa4, 0x3e,
  0xf7, 0x6d, 0xee, 0x3e, 0x18, 0x5a, 0x95, 0x3e, 0x96, 0x84, 0x69, 0xbe,
  0x7e, 0x4c, 0x09, 0xbf, 0x95, 0x1f, 0xbb, 0xbe, 0x16, 0xd3, 0xd9, 0xbe,
  0x3e, 0xf8, 0x70, 0x3e, 0x1e, 0x80, 0x49, 0xbe, 0xee, 0x0c, 0x57, 0x3f,
  0x3a, 0xfc, 0x13, 0xbf, 0x23, 0xec, 0xdc, 0x3e, 0x7e, 0xcc, 0x12, 0xbf,
  0xf3, 0xc4, 0x68, 0x3e, 0xa1, 0x95, 0x40, 0xbe, 0x5b, 0x2c, 0xf9, 0xbe,
  0x0e, 0x29, 0x60, 0x3d, 0xe0, 0x68, 0xc8, 0x3e, 0xb9, 0x3f, 0xf7, 0x3e,
  0xc0, 0x20, 0x16, 0x3d, 0xc2, 0x88, 0xb2, 0xbd, 0x9d, 0xee, 0x6d, 0xbd,
  0xb7, 0xf8, 0xef, 0xbd, 0x8b, 0xd7, 0x36, 0x3e, 0x64, 0xf8, 0x0b, 0x3e,
  0xc9, 0x92, 0x95, 0x3e, 0x9f, 0x3b, 0x06, 0xbf, 0x87, 0xf4, 0xc0, 0x3e,
  0xf3, 0x31, 0x18, 0xbd, 0x3a, 0xed, 0x5f, 0x3e, 0xc9, 0xce, 0x52, 0xbe,
  0x89, 0xc4, 0x1a, 0xbd, 0xb0, 0x00, 0xa0, 0x3e, 0x2d, 0x9d, 0xea, 0xbd,
  0xa9, 0x2a, 0x17, 0xbb, 0x88, 0x9b, 0x45, 0xbe, 0x49, 0x30, 0x3c, 0xbd,
  0xfd, 0x15, 0x00, 0xbf, 0xf5, 0xe6, 0x7b, 0xbe, 0x7f, 0x63, 0xdc, 0x3e,
  0x9d, 0xb4, 0x99, 0xbd, 0x8c, 0xfa, 0x40, 0x3e, 0xaa, 0xf9, 0x66, 0x3d,
  0x3b, 0x29, 0x41, 0xbd, 0xf7, 0x7a, 0x05, 0x3e, 0x7c, 0x3c, 0x15, 0x3f,
  0xff, 0x7d, 0x8e, 0xbe, 0x24, 0x22, 0x58, 0xbe, 0x77, 0xcf, 0x70, 0x3e,
  0x1d, 0xd8, 0x9b, 0x3d, 0x18, 0x7e, 0x85, 0x3e, 0xbe, 0x6f, 0x00, 0x3e,
  0xa2, 0x4b, 0xd5, 0xbe, 0x4f, 0x8f, 0xb9, 0xbe, 0x22, 0xfe, 0xef, 0xbd,
  0xd0, 0x82, 0x06, 0xbb, 0x16, 0x00, 0x30, 0xbd, 0xc3, 0x26, 0x95, 0x3e,
  0x40, 0xb5, 0x91, 0xbf, 0x06, 0x1a, 0x9b, 0x3e, 0x7d, 0xbf, 0x29, 0xbf,
  0xb4, 0x30, 0x45, 0xbd, 0xaa, 0x50, 0xe9, 0xbd, 0x2a, 0x69, 0x50, 0xbe,
  0x02, 0xdb, 0x36, 0x3e, 0xb8, 0xc1, 0x59, 0x3d, 0xb7, 0x2b, 0xc3, 0x3d,
  0xaa, 0x6b, 0x2b, 0x3e, 0xa5, 0xa9, 0x13, 0xbd, 0x41, 0xd8, 0x52, 0xbe,
  0x1f, 0x45, 0x93, 0x3e, 0xe5, 0x3b, 0xa5, 0x3c, 0xbb, 0x42, 0x38, 0x3e,
  0x88, 0x5a, 0x1b, 0x3e, 0x94, 0x3a, 0x8c, 0xbe, 0x55, 0x8c, 0x61, 0x3b,
  0x1a, 0x6c, 0x84, 0xbc, 0xcd, 0x91, 0x83, 0x3d, 0xcf, 0x27, 0x35, 0xbe,
  0x4e, 0x98, 0xb2, 0x3d, 0xcd, 0x78, 0x17, 0xbe, 0x63, 0xa9, 0x1f, 0xbe,
  0x4a, 0xa4, 0xa1, 0x3e, 0xe7, 0x22, 0xed, 0xbd, 0x5a, 0x4f, 0x7e, 0xbe,
  0xbb, 0x1a, 0x16, 0x3c, 0x91, 0x50, 0x31, 0x3b, 0xd5, 0x61, 0xdd, 0x3b,
  0xbd, 0xf2, 0x03, 0xbc, 0xee, 0xca, 0x89, 0x3e, 0xa5, 0x80, 0x08, 0xbd,
  0x74, 0x37, 0x37, 0x3e, 0x10, 0x46, 0x1d, 0xbe, 0x10, 0x66, 0xe8, 0xbd,
  0xb9, 0xaf, 0x2a, 0xbe, 0x19, 0x85, 0xbe, 0xbe, 0x08, 0x27, 0xfe, 0x3d,
  0xa2, 0x12, 0x22, 0xbd, 0x2d, 0x72, 0x99, 0xbd, 0x38, 0x58, 0xac, 0xbd,
  0xb5, 0x8d, 0x41, 0xbc, 0x6e, 0x15, 0x0d, 0xbe, 0xa0, 0x8f, 0x9a, 0xbe,
  0x63, 0x12, 0x30, 0x3d, 0x63, 0x58, 0xa5, 0x3b, 0x20, 0x17, 0xe2, 0xbc,
  0xc8, 0x6e, 0xc9, 0xbd, 0xe6, 0xdd, 0x25, 0xbe, 0x2c, 0xa2, 0x48, 0x3e,
  0x0d, 0x82, 0x5b, 0x3e, 0x49, 0xd9, 0xdc, 0x3d, 0xcf, 0x95, 0x7e, 0xbd,
  0x44, 0x10, 0xc2, 0x3d, 0xab, 0x6b, 0xbd, 0x3d, 0x08, 0x7a, 0x4c, 0x3d,
  0x89, 0x7c, 0xc9, 0x3c, 0xc6, 0xa4, 0x3b, 0xbd, 0x38, 0x9d, 0x64, 0x3e,
  0xca, 0x4c, 0xdd, 0xbc, 0x6d, 0x4f, 0x1c, 0x3e, 0x0b, 0x89, 0x4e, 0xbe,
  0x69, 0x90, 0xe5, 0x3d, 0xa4, 0x8e, 0x03, 0x3e, 0x89, 0x9f, 0xa1, 0xbc,
  0xef, 0xaa, 0xca, 0x3e, 0x3b, 0x33, 0x0f, 0xbd, 0xe3, 0x15, 0x07, 0xbe,
  0x22, 0x9a, 0x40, 0xbe, 0x5e, 0x41, 0xe5, 0xba, 0x7d, 0xb3, 0xc9, 0xbd,
  0x09, 0x15, 0xbe, 0xbd, 0x48, 0xdd, 0xb7, 0x3d, 0x6b, 0x91, 0x39, 0xbc,
  0xde, 0x05, 0xab, 0xbd, 0xa1, 0x37, 0x35, 0x3e, 0x27, 0x92, 0xa4, 0xbd,
  0x29, 0xfc, 0x1b, 0xbe, 0x1e, 0x33, 0x5a, 0x3f, 0x9b, 0xe7, 0xd9, 0xbe,
  0x0a, 0x70, 0x84, 0x3d, 0x7d, 0xb2, 0xba, 0xbe, 0x90, 0xa1, 0x74, 0x3d,
  0x97, 0xeb, 0xa4, 0x3e, 0x58, 0xbd, 0x87, 0x3e, 0x90, 0x5b, 0x85, 0xb9,
  0xbb, 0x47, 0xa3, 0xbe, 0x8f, 0x48, 0x20, 0xbe, 0x3a, 0xe1, 0xff, 0xff,
  0x04, 0x00, 0x00, 0x00, 0x00, 0x04, 0x00, 0x00, 0x16, 0x3a, 0x3d, 0xbe,
  0xc0, 0x37, 0x98, 0xbc, 0x16, 0xf1, 0x36, 0xbd, 0xb8, 0x7c, 0x84, 0xbe,
  0xce, 0x53, 0x08, 0x3e, 0xa1, 0x8c, 0xd0, 0xbd, 0x91, 0x00, 0xde, 0xbd,
  0x38, 0x9c, 0x8c, 0xbd, 0xa0, 0xca, 0x6e, 0x3d, 0x81, 0x69, 0x39, 0xbd,
  0x15, 0xbe, 0xb7, 0xbc, 0x16, 0xbf, 0xb1, 0xbe, 0x0c, 0xea, 0x85, 0xbe,
  0xd8, 0xc6, 0xe7, 0x3d, 0xbb, 0xc8, 0x1d, 0x3e, 0x99, 0x8c, 0x7c, 0x3e,
  0x79, 0xe8, 0x7b, 0x3d, 0xf0, 0xcf, 0xbd, 0x3d, 0x50, 0xab, 0x88, 0x3e,
  0x9f, 0x32, 0x6c, 0x3d, 0x74, 0x92, 0xa8, 0x3c, 0xcb, 0x1f, 0x31, 0x3e,
  0xce, 0xb6, 0xb8, 0xbe, 0x23, 0xb7, 0x89, 0x3e, 0x22, 0x64, 0x82, 0xbe,
  0x6c, 0xb3, 0xaf, 0x3e, 0xd2, 0x98, 0x3a, 0x3d, 0xac, 0x32, 0xac, 0x3d,
  0xd3, 0xd2, 0xde, 0x3d, 0x77, 0x8c, 0x2c, 0x3d, 0x7d, 0x5e, 0x3c, 0x3e,
  0xe3, 0x34, 0x17, 0xbd, 0x16, 0xbe, 0x97, 0x3d, 0x25, 0xbc, 0x1c, 0xbc,
  0xfd, 0x24, 0xa8, 0x3d, 0x4c, 0xc5, 0xcb, 0x3c, 0xfa, 0x7c, 0x1f, 0x3d,
  0xc8, 0xb4, 0x02, 0xbe, 0x3c, 0x75, 0x94, 0xbe, 0xb7, 0x80, 0x19, 0x3e,
  0xf6, 0xe9, 0xa2, 0xbd, 0xcf, 0x2d, 0x1a, 0x3e, 0x67, 0x13, 0x8f, 0xbb,
  0xf6, 0xac, 0x0d, 0x3c, 0xe7, 0x6b, 0x91, 0xbe, 0x59, 0x10, 0x85, 0x3e,
  0x02, 0x43, 0xee, 0x3c, 0xc8, 0x76, 0xe3, 0xbd, 0x19, 0x07, 0x21, 0xbd,
  0x20, 0xc3, 0x43, 0xbd, 0x82, 0xe2, 0xa5, 0xbe, 0x8e, 0xeb, 0x38, 0xbe,
  0x87, 0xad, 0x03, 0x3d, 0x3d, 0xe9, 0x52, 0xbe, 0xa5, 0x70, 0xc6, 0xbe,
  0x9c, 0x0b, 0xe2, 0x3d, 0xb8, 0x5b, 0x4b, 0x3e, 0xc9, 0xb7, 0xaf, 0x3d,
  0x9b, 0x92, 0xdf, 0x3c, 0xaf, 0x7f, 0xfd, 0xbd, 0x01, 0x5a, 0xa8, 0xbd,
  0xd4, 0x48, 0xda, 0x3d, 0x7a, 0x39, 0x38, 0x3e, 0x55, 0xcc, 0x0a, 0x3e,
  0x3d, 0xff, 0xb0, 0xbd, 0x92, 0x13, 0x92, 0xbd, 0xe9, 0xee, 0xd6, 0xbd,
  0xbf, 0x15, 0x67, 0xbe, 0xdb, 0xb0, 0xe1, 0x3a, 0xd7, 0xf5, 0x33, 0xbe,
  0x42, 0x8e, 0xd2, 0xbe, 0x5e, 0x76, 0xc4, 0x3e, 0xc3, 0x8b, 0x07, 0xbe,
  0xb2, 0x60, 0x23, 0x3e, 0xb2, 0x51, 0x71, 0xbc, 0x7a, 0xb1, 0xd8, 0x3d,
  0x0e, 0x37, 0x27, 0xbe, 0x2c, 0xb6, 0x9b, 0x3d, 0xfc, 0x5f, 0x32, 0x3d,
  0x68, 0x71, 0x2b, 0x3d, 0xca, 0xa4, 0xf1, 0xbd, 0x5b, 0x29, 0xfe, 0xbd,
  0xc2, 0xa2, 0x8e, 0xbd, 0xeb, 0x40, 0x23, 0x3e, 0xad, 0xc2, 0x49, 0x3e,
  0xa3, 0x02, 0x99, 0xbe, 0xe8, 0x40, 0x82, 0xbe, 0x5f, 0x63, 0x8c, 0x3e,
  0x43, 0x1d, 0x69, 0xbd, 0xe4, 0xab, 0x10, 0xbd, 0xd0, 0x92, 0x09, 0x3d,
  0x71, 0xb0, 0xd2, 0x3d, 0x41, 0x6a, 0x6f, 0xbe, 0xaa, 0xe1, 0x22, 0x3e,
  0x17, 0x85, 0x92, 0x3e, 0x5a, 0x5c, 0x65, 0xbd, 0x88, 0x98, 0xad, 0xbd,
  0xb1, 0xc2, 0x3e, 0xbd, 0x89, 0xe7, 0x16, 0x3e, 0x9f, 0xfc, 0x38, 0x3e,
  0xbb, 0xfc, 0x4e, 0x3d, 0x81, 0x1d, 0x69, 0x3c, 0x0d, 0xc3, 0xcd, 0xbe,
  0x49, 0x0c, 0xf1, 0x3e, 0x7e, 0xb1, 0x3e, 0xbe, 0x0f, 0x5e, 0xab, 0x3e,
  0xdb, 0x60, 0x20, 0xbe, 0xbc, 0xc4, 0x14, 0x3d, 0x30, 0x31, 0x94, 0x3e,
  0x40, 0xd9, 0x36, 0xbd, 0x30, 0xdd, 0x5a, 0xbc, 0x6e, 0x58, 0x8b, 0xbe,
  0x8e, 0x47, 0xed, 0x3d, 0x5d, 0xe7, 0x78, 0xbd, 0xf6, 0x35, 0xb0, 0x3e,
  0xd3, 0xbf, 0xb6, 0x3d, 0xfb, 0xda, 0x2f, 0xbe, 0xc6, 0xee, 0x7f, 0x3e,
  0x28, 0x11, 0x34, 0xbe, 0x8e, 0x1e, 0x50, 0x3e, 0x82, 0xd8, 0x9d, 0xbe,
  0x14, 0x41, 0x1a, 0x3e, 0x55, 0xa6, 0xc1, 0xbd, 0x27, 0xeb, 0x94, 0x3e,
  0xe3, 0x92, 0x08, 0x3f, 0xce, 0xe7, 0xfe, 0x3d, 0x40, 0x3e, 0x46, 0xbd,
  0x18, 0x24, 0x37, 0xbe, 0x9f, 0x79, 0x92, 0xbd, 0x06, 0xc6, 0x04, 0xbe,
  0x21, 0x39, 0x85, 0x3e, 0x81, 0xa8, 0x38, 0x3e, 0x49, 0xef, 0x3b, 0x3e,
  0xe0, 0x61, 0x0d, 0xbe, 0xff, 0x52, 0x97, 0xbe, 0x16, 0x3a, 0x5e, 0x3e,
  0x89, 0xd3, 0xc2, 0xbd, 0x51, 0x7a, 0x54, 0xbe, 0xef, 0x58, 0x0b, 0x3d,
  0x39, 0xe7, 0xd9, 0x3d, 0x6f, 0x63, 0x70, 0x3e, 0x09, 0xc3, 0x1a, 0xbe,
  0xb5, 0x57, 0xeb, 0x3d, 0x04, 0xfd, 0xcb, 0xbd, 0x3d, 0xd4, 0x71, 0x3e,
  0xbd, 0x81, 0x28, 0x3e, 0xc9, 0x77, 0x61, 0xbe, 0x9c, 0xf7, 0x01, 0x3d,
  0x63, 0x1b, 0x00, 0x3e, 0xc8, 0x50, 0xfb, 0xbd, 0x9d, 0x07, 0xc0, 0x3d,
  0x50, 0x43, 0x2e, 0x3f, 0xc5, 0x43, 0x10, 0x3c, 0xf0, 0x25, 0x71, 0x3e,
  0xf5, 0xec, 0x36, 0x3e, 0x13, 0xcc, 0x91, 0xba, 0x4f, 0x7f, 0x89, 0xbd,
  0x9f, 0x9f, 0x7e, 0x3e, 0x3d, 0xda, 0x99, 0x3b, 0x06, 0x6e, 0x47, 0xbe,
  0xf2, 0x82, 0xc0, 0x3d, 0x8b, 0xce, 0xaf, 0x3e, 0x9b, 0xda, 0xba, 0xbd,
  0xa8, 0xf3, 0x57, 0x3e, 0x91, 0x7a, 0x8e, 0x3d, 0xac, 0x86, 0x1d, 0x3e,
  0x0b, 0x63, 0xbd, 0x3d, 0x72, 0xab, 0x90, 0x3e, 0xab, 0x13, 0x03, 0xbe,
  0xaa, 0xc9, 0xad, 0x3c, 0x2b, 0x10, 0xce, 0xbe, 0x29, 0x7a, 0xfb, 0x3d,
  0x0b, 0x22, 0xeb, 0xbd, 0x40, 0x19, 0x28, 0xbd, 0x97, 0x45, 0x5c, 0x3e,
  0xeb, 0xde, 0x4c, 0xbe, 0xcd, 0x91, 0x8c, 0xbc, 0x62, 0xd9, 0x7e, 0xbe,
  0x28, 0x27, 0x23, 0xbe, 0x81, 0xf0, 0x9d, 0x3d, 0xcf, 0x86, 0x7e, 0x3d,
  0x49, 0x69, 0x9d, 0xbe, 0xec, 0x40, 0x5e, 0xbe, 0x15, 0xd8, 0x6e, 0x3e,
  0xb5, 0xb6, 0x41, 0x3e, 0x89, 0xe2, 0xba, 0x3e, 0x37, 0x30, 0xf3, 0xbb,
  0xf9, 0x11, 0x07, 0xbe, 0x28, 0xd4, 0x4a, 0xbe, 0xc2, 0xd5, 0xad, 0x3d,
  0xd0, 0x39, 0x97, 0x3e, 0x15, 0xaf, 0x80, 0x3e, 0x5d, 0xef, 0x82, 0xbe,
  0xa4, 0x26, 0xe9, 0xbd, 0xc5, 0x52, 0x96, 0x3d, 0xa5, 0x76, 0x8a, 0xbd,
  0xec, 0x1d, 0xe5, 0xbd, 0xc7, 0x8e, 0x20, 0xbe, 0x50, 0x26, 0xdc, 0xbd,
  0xc2, 0x34, 0x87, 0x3c, 0x47, 0xfa, 0x29, 0x3d, 0x11, 0xbc, 0xa6, 0x3e,
  0x3d, 0xe3, 0xe2, 0xbd, 0xc7, 0x0e, 0x69, 0x3c, 0xca, 0x14, 0xc3, 0xbc,
  0x4b, 0x4c, 0x81, 0x3e, 0xf6, 0xdb, 0xa3, 0x3d, 0xff, 0xed, 0x7c, 0xbc,
  0xeb, 0xb9, 0xc9, 0x3d, 0x6f, 0xea, 0xed, 0x3b, 0x3c, 0x72, 0x2a, 0x3b,
  0xfd, 0x81, 0x94, 0xbd, 0xe3, 0x0e, 0x55, 0x3e, 0xb7, 0x84, 0x68, 0xbe,
  0xb1, 0x84, 0xcf, 0xbd, 0x4c, 0x3b, 0xb1, 0x3e, 0x8f, 0xdd, 0x9e, 0xbe,
  0xfb, 0x78, 0xd6, 0x3e, 0x9e, 0xb7, 0xcc, 0x3d, 0xf1, 0x39, 0x0b, 0x3d,
  0x0e, 0x1a, 0x6e, 0xbb, 0x1d, 0x61, 0x3d, 0x3d, 0x1a, 0x21, 0x1b, 0x3e,
  0xdb, 0xe8, 0xe0, 0x3d, 0x0f, 0x84, 0xbc, 0xbd, 0xfa, 0x84, 0x43, 0x3d,
  0xaf, 0x51, 0x2d, 0xbe, 0xc3, 0xca, 0x0b, 0xbd, 0x32, 0x7b, 0x34, 0x3e,
  0xdb, 0x6e, 0xa8, 0xbe, 0x82, 0x8b, 0xac, 0xbc, 0x23, 0xb5, 0x89, 0x3d,
  0xa4, 0x25, 0x45, 0x3d, 0xac, 0x36, 0x18, 0x3d, 0xba, 0xa6, 0x2a, 0x3e,
  0x15, 0xdd, 0x06, 0xbe, 0xff, 0x07, 0x6f, 0xbe, 0xbf, 0x05, 0x97, 0x3e,
  0xa3, 0xe7, 0x3e, 0x3e, 0x48, 0x84, 0x24, 0xbe, 0x3c, 0x8d, 0x93, 0xbe,
  0x6c, 0x16, 0x2a, 0xbe, 0x86, 0x96, 0xfe, 0xbd, 0x1c, 0x9e, 0xbd, 0xbd,
  0xa3, 0x3a, 0x6d, 0x3e, 0xc4, 0xf5, 0xd2, 0x3b, 0x24, 0xe7, 0xb5, 0xbe,
  0x91, 0x42, 0x1b, 0x3e, 0xd2, 0x2b, 0x8e, 0x3d, 0x01, 0x84, 0x39, 0x3e,
  0xf2, 0x70, 0x6a, 0x3e, 0x1e, 0x5d, 0x8e, 0xbe, 0xe8, 0x17, 0x04, 0x3d,
  0xbc, 0xdf, 0xed, 0x3c, 0xf5, 0x06, 0xbe, 0x3d, 0x16, 0x16, 0xc8, 0x3d,
  0x46, 0xe5, 0xff, 0xff, 0x04, 0x00, 0x00, 0x00, 0x00, 0x04, 0x00, 0x00,
  0xcf, 0xd1, 0x43, 0xbe, 0x3e, 0xa7, 0x9f, 0xbe, 0xd9, 0xcd, 0x54, 0xbe,
  0xef, 0x2f, 0xcf, 0xbd, 0x74, 0xcb, 0x49, 0x3e, 0xd4, 0xd4, 0x37, 0x3e,
  0xe1, 0x94, 0xf8, 0xbc, 0x01, 0xd3, 0x66, 0xbe, 0x95, 0xa7, 0xf4, 0x3e,
  0x5a, 0xc6, 0x9d, 0xbc, 0xf7, 0x46, 0xd6, 0x3e, 0x3e, 0x63, 0x7a, 0xbe,
  0x36, 0xc7, 0x68, 0xbe, 0xa7, 0x19, 0x59, 0x3e, 0x59, 0x42, 0x7b, 0xbd,
  0x59, 0x1f, 0x1b, 0x3e, 0xcf, 0x2e, 0x0d, 0xbe, 0x38, 0xa9, 0xb9, 0xbd,
  0xea, 0x99, 0x02, 0xbe, 0x45, 0xb0, 0x1f, 0x3e, 0x24, 0xf0, 0x3e, 0x3e,
  0xfb, 0xc1, 0x48, 0xbd, 0x09, 0x19, 0xe5, 0x3d, 0x12, 0x63, 0xf9, 0xbe,
  0x24, 0xdd, 0xb8, 0x3e, 0x6e, 0x82, 0xfb, 0xbe, 0x47, 0xfb, 0x4d, 0x3d,
  0x21, 0xc7, 0x28, 0xbe, 0x79, 0xa9, 0x0c, 0xbc, 0x57, 0x2e, 0x17, 0x3e,
  0x35, 0xef, 0x90, 0x3d, 0x41, 0xa1, 0xe8, 0x3d, 0xbb, 0xa6, 0x3c, 0xbd,
  0xa3, 0xc1, 0x17, 0xbe, 0xe9, 0xf4, 0x19, 0xbe, 0x4f, 0xd2, 0x7c, 0xbd,
  0x45, 0xdc, 0xc2, 0x3e, 0xa3, 0xfc, 0x73, 0xbd, 0xbb, 0x43, 0x54, 0x3e,
  0x35, 0x7e, 0x0f, 0xbe, 0x07, 0xa1, 0x6e, 0x3e, 0xf2, 0xf0, 0xdb, 0xbd,
  0xcc, 0xa2, 0x12, 0x3e, 0x4e, 0xe9, 0x70, 0xbe, 0x63, 0xfe, 0x85, 0xbe,
  0xd0, 0x48, 0x85, 0x3d, 0x02, 0xda, 0xe6, 0x3b, 0x71, 0xfb, 0xf8, 0xbd,
  0xde, 0x2b, 0xc1, 0xbe, 0xbf, 0xa4, 0xe1, 0xbc, 0x72, 0x14, 0xae, 0xbe,
  0x17, 0x9e, 0xfa, 0xbd, 0xa5, 0xda, 0xb3, 0xbd, 0xe1, 0x0d, 0x7b, 0xbe,
  0x2d, 0x4c, 0x54, 0x3d, 0x1e, 0xca, 0xbb, 0xbd, 0x64, 0x64, 0xb2, 0x3c,
  0x55, 0x57, 0x0e, 0xbd, 0x83, 0xe6, 0xb7, 0x3d, 0xbd, 0x92, 0xbf, 0xbe,
  0xc5, 0xc6, 0x07, 0xbe, 0x54, 0xc0, 0x28, 0x3e, 0x67, 0xe3, 0x53, 0x3e,
  0xc8, 0x88, 0x8b, 0x3e, 0x85, 0xd3, 0x2f, 0x3e, 0x11, 0xfa, 0x03, 0x3e,
  0xda, 0x6f, 0xa7, 0x3d, 0x7f, 0xbe, 0x33, 0x3e, 0x75, 0xae, 0xa6, 0xbe,
  0xa2, 0x67, 0x6a, 0x3e, 0x93, 0xf1, 0x1e, 0xbe, 0xfa, 0xa5, 0xfe, 0x3c,
  0xba, 0xae, 0x0d, 0xbe, 0xa3, 0x65, 0x5b, 0x3e, 0x29, 0x4a, 0x2e, 0x3b,
  0x86, 0xb6, 0x51, 0x3e, 0xff, 0xff, 0x86, 0xbd, 0x82, 0x14, 0x3b, 0x3d,
  0x6f, 0x93, 0xef, 0x3b, 0x57, 0x7e, 0xb9, 0xbc, 0x42, 0x2c, 0x2c, 0x3c,
  0x28, 0x16, 0x17, 0xbe, 0x0b, 0x70, 0x00, 0xbc, 0x24, 0x54, 0x83, 0xbe,
  0xa4, 0x96, 0xb1, 0x3d, 0x9f, 0x4f, 0x64, 0xbd, 0x33, 0x17, 0x2d, 0x3e,
  0xae, 0x37, 0x3c, 0x3d, 0x29, 0x4c, 0xe1, 0x3e, 0x28, 0xdc, 0x31, 0xbe,
  0xb1, 0xf7, 0x30, 0x3e, 0xb7, 0xdb, 0x80, 0xbe, 0x45, 0x8e, 0xf0, 0xbd,
  0xd7, 0xb2, 0x4c, 0x3e, 0xcd, 0xea, 0xd2, 0x3d, 0x6e, 0xf8, 0x7b, 0x3e,
  0xad, 0x72, 0x18, 0xbe, 0x66, 0x1f, 0x40, 0x3e, 0xc7, 0x01, 0x8b, 0xbd,
  0xff, 0xbc, 0xe4, 0x3d, 0xfe, 0x60, 0xef, 0xbd, 0x36, 0x32, 0x87, 0x3e,
  0x74, 0xd2, 0x20, 0xbf, 0xa7, 0x3f, 0x2f, 0x3e, 0x54, 0x9f, 0xea, 0xbd,
  0x16, 0x1a, 0xe9, 0x3c, 0xe5, 0x78, 0x73, 0x3e, 0x4d, 0x2e, 0xd1, 0x3d,
  0xc3, 0xe7, 0x0c, 0x3e, 0xd2, 0x8c, 0x83, 0xbe, 0x59, 0xa7, 0x4a, 0xbe,
  0x5d, 0x5c, 0xdf, 0xbe, 0xbd, 0xed, 0x05, 0x3e, 0x6b, 0x5d, 0x82, 0xbe,
  0xbb, 0xaf, 0xb1, 0x3c, 0x60, 0x4c, 0x46, 0xbe, 0x47, 0xe5, 0x37, 0x3d,
  0x8c, 0x21, 0x66, 0xbe, 0xe0, 0x44, 0x46, 0x3e, 0xac, 0xcf, 0x2a, 0xbf,
  0x8a, 0x0d, 0xc7, 0x3e, 0x9a, 0xaf, 0xeb, 0xbe, 0x75, 0xfe, 0x3f, 0x3e,
  0xb5, 0xea, 0xf1, 0xbd, 0x6a, 0x7e, 0xf9, 0xbd, 0x42, 0x48, 0x08, 0x3d,
  0xe5, 0x90, 0x66, 0xbe, 0x0a, 0xe5, 0xe6, 0xbd, 0x90, 0xc4, 0x41, 0xbd,
  0x78, 0x06, 0x5e, 0x3e, 0x72, 0x23, 0x01, 0x3e, 0x4d, 0xc8, 0x69, 0x3e,
  0x64, 0x62, 0x73, 0xbe, 0xf6, 0xd4, 0x23, 0x3c, 0xce, 0x58, 0x28, 0x3e,
  0x23, 0x72, 0x94, 0x3e, 0x7a, 0x03, 0xa9, 0xbe, 0x4b, 0x5e, 0xac, 0x3e,
  0x5b, 0x51, 0x1a, 0x3c, 0x1c, 0xf2, 0x0c, 0x3e, 0x77, 0xc7, 0x05, 0xbd,
  0xe3, 0x4b, 0x37, 0xbe, 0x5a, 0x00, 0x5b, 0xbd, 0xc1, 0x66, 0xbf, 0x3d,
  0x18, 0x55, 0x32, 0x3e, 0xe7, 0x5b, 0xc1, 0xbe, 0xc2, 0xfc, 0x8c, 0xbd,
  0x2a, 0x98, 0x62, 0x3e, 0xb1, 0xf4, 0x07, 0xbe, 0xaa, 0x56, 0x8f, 0x3c,
  0x5e, 0x6c, 0xa4, 0xbe, 0xb0, 0xb0, 0xc0, 0xbe, 0x18, 0x01, 0x68, 0x3d,
  0xbf, 0xeb, 0x63, 0xbf, 0x32, 0xcc, 0xa8, 0x3e, 0x4b, 0x5a, 0xa1, 0x3d,
  0x35, 0x8d, 0x0e, 0x3e, 0x92, 0xd9, 0xfd, 0x3c, 0xee, 0x55, 0x0f, 0xbe,
  0x3c, 0x3d, 0x2c, 0xbe, 0x71, 0x37, 0xcb, 0x3e, 0x84, 0x43, 0x35, 0x3e,
  0xf7, 0xcb, 0x1b, 0xbd, 0x59, 0xa2, 0x65, 0x3e, 0x58, 0xda, 0x0a, 0xbe,
  0x22, 0x1f, 0x4b, 0x3e, 0xc4, 0x2d, 0x92, 0xbd, 0xbb, 0xc2, 0x9c, 0x3e,
  0xf6, 0x33, 0xfc, 0xbd, 0x96, 0x0c, 0xfa, 0x3d, 0x6d, 0x67, 0x04, 0xbf,
  0x6d, 0x3e, 0xb6, 0x3e, 0xfe, 0x83, 0x8e, 0x3e, 0x06, 0xcd, 0x13, 0xbe,
  0xbf, 0x0a, 0x26, 0xbe, 0x31, 0xbc, 0x43, 0xbe, 0x16, 0xdc, 0x32, 0xbe,
  0x8b, 0x6c, 0x41, 0xbe, 0xdb, 0xbc, 0x44, 0xbd, 0x83, 0xe9, 0x05, 0xbe,
  0xde, 0x3b, 0x46, 0x3d, 0xb9, 0xe9, 0xc7, 0xbb, 0x48, 0xa5, 0x9c, 0x3c,
  0x1e, 0x42, 0x8d, 0xbe, 0x16, 0x99, 0x3b, 0x3e, 0x10, 0xf5, 0xde, 0xbd,
  0x2f, 0xdb, 0x8b, 0x3e, 0xb4, 0x9e, 0x80, 0xbe, 0x1c, 0x69, 0x64, 0xbe,
  0x0d, 0x03, 0xe0, 0x3d, 0xc6, 0xc3, 0x4c, 0xbd, 0x38, 0x83, 0x30, 0x3d,
  0x58, 0x22, 0x7e, 0x3e, 0x47, 0xef, 0x89, 0xbe, 0x54, 0x1b, 0x41, 0xbe,
  0x69, 0x57, 0xda, 0x3d, 0x85, 0xd3, 0x12, 0x3e, 0xbb, 0x56, 0x73, 0xbb,
  0x95, 0x3c, 0x0b, 0x3e, 0x61, 0xb9, 0x94, 0xbe, 0x7e, 0x40, 0x22, 0x3e,
  0x1c, 0x3a, 0xda, 0x3d, 0x11, 0xba, 0x3d, 0x3e, 0x94, 0x6e, 0x22, 0xbe,
  0xf0, 0xb3, 0x7f, 0xbd, 0x46, 0x6e, 0xbd, 0x3b, 0x6d, 0xb3, 0x5d, 0x3d,
  0x5c, 0x81, 0x70, 0x3e, 0xfd, 0xd2, 0x96, 0x3d, 0x74, 0x5e, 0x18, 0x3e,
  0x56, 0xbf, 0x27, 0x3e, 0x07, 0x71, 0x26, 0x3e, 0x12, 0x02, 0xaf, 0xbd,
  0x0e, 0x30, 0x80, 0x3d, 0x3f, 0xcf, 0x14, 0x3e, 0x40, 0xaa, 0x97, 0x3d,
  0x0c, 0x8d, 0x62, 0x3d, 0xfe, 0x6d, 0x77, 0x3d, 0x4d, 0xec, 0x4c, 0xbd,
  0xb6, 0xc1, 0x26, 0x3c, 0xf2, 0x4b, 0xb8, 0x3c, 0x76, 0x0d, 0x65, 0xbe,
  0xe5, 0x44, 0x54, 0xbe, 0xbb, 0xe4, 0xe5, 0xbd, 0x07, 0xd8, 0xc2, 0x3c,
  0x1e, 0x99, 0xe6, 0x3d, 0x14, 0xac, 0xc7, 0x3d, 0x84, 0x7f, 0x90, 0x3e,
  0x8f, 0x20, 0xad, 0xbe, 0x6d, 0xb5, 0x19, 0x3e, 0x7b, 0xd9, 0xae, 0xbd,
  0x88, 0x02, 0xb9, 0x3d, 0xf5, 0x37, 0x1a, 0x3e, 0xe6, 0xbf, 0xcd, 0xbd,
  0x6a, 0x93, 0xab, 0xbc, 0x50, 0xed, 0xc4, 0x3d, 0x83, 0x74, 0x03, 0x3e,
  0xf5, 0xcd, 0x38, 0xbe, 0x21, 0x56, 0xf4, 0x3d, 0xdc, 0x27, 0x99, 0xbe,
  0x53, 0xd6, 0x0c, 0x3e, 0x88, 0x38, 0xc6, 0x3e, 0xbe, 0x5c, 0x73, 0x3e,
  0xc6, 0x81, 0x50, 0x3d, 0xc3, 0x17, 0xee, 0xbd, 0xdc, 0x2e, 0xa4, 0x3a,
  0x96, 0x88, 0xce, 0xbd, 0x3e, 0x32, 0x9d, 0x3e, 0x3c, 0xa2, 0xa0, 0xbe,
  0x96, 0xbf, 0xe4, 0xbd, 0x71, 0xa0, 0x17, 0xbe, 0xd1, 0x47, 0x12, 0x3e,
  0x21, 0xaa, 0xa3, 0x3e, 0xac, 0xb7, 0xe7, 0xbd, 0xbf, 0x00, 0xf4, 0xbd,
  0xe9, 0x59, 0x87, 0xbe, 0x52, 0xe9, 0xff, 0xff, 0x04, 0x00, 0x00, 0x00,
  0x00, 0x04, 0x00, 0x00, 0x57, 0x4c, 0x06, 0xbd, 0x33, 0xc9, 0x39, 0xbe,
  0x67, 0xb8, 0x07, 0x3d, 0x9e, 0xed, 0x2a, 0xbd, 0x0f, 0x2e, 0x8a, 0xbe,
  0xfb, 0xf1, 0x84, 0x3e, 0xc6, 0xef, 0x02, 0x3e, 0xad, 0x55, 0x34, 0xbe,
  0x71, 0x60, 0x8e, 0x3d, 0x5e, 0x3a, 0x50, 0x3d, 0x62, 0x17, 0xfa, 0x3d,
  0x1a, 0xd7, 0x90, 0x3d, 0xa1, 0x99, 0x1a, 0x3e, 0x88, 0x4b, 0x3d, 0xbe,
  0xb5, 0x04, 0xa2, 0xbe, 0xa9, 0x29, 0xd5, 0x3d, 0xbe, 0xc2, 0x32, 0x3e,
  0x17, 0xc8, 0x08, 0xbe, 0xdd, 0x0f, 0x46, 0xbe, 0x02, 0xb6, 0x17, 0x3e,
  0x28, 0xf2, 0x05, 0x3e, 0x51, 0xca, 0xd8, 0xbb, 0xa4, 0x5d, 0x5c, 0x3e,
  0xda, 0x13, 0x59, 0xbe, 0xf2, 0x6d, 0xb7, 0x3c, 0x4c, 0xe9, 0x5c, 0xbd,
  0xae, 0x71, 0x40, 0x3c, 0x3e, 0xb8, 0x02, 0x3d, 0xf0, 0x91, 0x85, 0x3e,
  0xd1, 0x1b, 0x4a, 0x3e, 0x62, 0x74, 0x79, 0xbe, 0xf8, 0x95, 0x1e, 0xbe,
  0x0e, 0x00, 0x91, 0x3e, 0x60, 0xde, 0x18, 0x3d, 0xc1, 0xd9, 0x9a, 0x3b,
  0xc4, 0xe5, 0xc4, 0xbc, 0x46, 0x34, 0x5a, 0x3c, 0x2a, 0xbc, 0xa6, 0xbc,
  0x33, 0x27, 0x2c, 0xbe, 0xe4, 0x7f, 0xa7, 0xbd, 0xac, 0x72, 0x90, 0xba,
  0x4f, 0x92, 0x87, 0xbe, 0x19, 0xcb, 0x7e, 0x3e, 0xff, 0x59, 0x21, 0xbe,
  0xff, 0x96, 0x9a, 0x3d, 0x84, 0x89, 0x9e, 0xbd, 0x01, 0x86, 0x3d, 0x3e,
  0xcd, 0x9e, 0x1b, 0xbd, 0x72, 0xc6, 0x29, 0x3e, 0x0a, 0xc0, 0xe3, 0xbd,
  0x29, 0x58, 0xef, 0x3a, 0x58, 0xea, 0x1d, 0x3d, 0x20, 0x55, 0x87, 0xbe,
  0x21, 0x50, 0xf7, 0x3d, 0x7a, 0xaa, 0x9f, 0xbc, 0xd0, 0x1a, 0xd0, 0xbd,
  0x6f, 0x64, 0x1c, 0xbe, 0xf1, 0x6d, 0xa1, 0xbc, 0x73, 0x1a, 0xf1, 0x3d,
  0x04, 0xfa, 0x50, 0xbc, 0x54, 0x1e, 0x62, 0x3b, 0x0a, 0x8b, 0xd6, 0xbd,
  0xd9, 0x01, 0x21, 0x3e, 0x37, 0x9e, 0x18, 0xbe, 0x12, 0xb2, 0x28, 0x3e,
  0xce, 0xd6, 0xd6, 0xbc, 0xa3, 0xe4, 0x06, 0x3c, 0x5f, 0xfe, 0x6f, 0xbd,
  0xf5, 0xee, 0x01, 0xbe, 0x20, 0x21, 0x0c, 0xbd, 0xd8, 0x0f, 0x2a, 0x3e,
  0x56, 0x77, 0x58, 0x3d, 0xee, 0x6c, 0xc9, 0x3c, 0x0d, 0x59, 0x11, 0xbd,
  0x16, 0x29, 0xeb, 0xbd, 0xc9, 0x2f, 0x91, 0xbd, 0xeb, 0x28, 0xf9, 0x3c,
  0x7b, 0x76, 0xbe, 0xbc, 0x2e, 0x85, 0x39, 0x3e, 0xca, 0x73, 0x9e, 0xbe,
  0xc1, 0x53, 0x8f, 0x3d, 0x40, 0xc8, 0x28, 0x3e, 0xc1, 0xb2, 0xd5, 0xbd,
  0x58, 0xa3, 0x1e, 0xbd, 0x2f, 0x59, 0x0a, 0x3d, 0x46, 0xd7, 0xe4, 0xbd,
  0x57, 0x34, 0x95, 0xbe, 0x38, 0xd2, 0x01, 0xbe, 0x90, 0x59, 0x4d, 0x3e,
  0xae, 0x6f, 0x2a, 0xbc, 0x48, 0x66, 0xa0, 0x3d, 0x60, 0x09, 0xa2, 0x3e,
  0xcf, 0x11, 0x92, 0x3c, 0x7e, 0xf0, 0xd7, 0x3d, 0x24, 0x2e, 0x8d, 0x3d,
  0x95, 0xa2, 0x11, 0xbe, 0x08, 0xf0, 0x6a, 0x3e, 0xf0, 0xc3, 0x16, 0xbc,
  0x86, 0xb2, 0xa9, 0xbd, 0xe5, 0xfb, 0xbd, 0x3d, 0x54, 0xbf, 0xd1, 0x3b,
  0x77, 0xa5, 0x36, 0xbe, 0xc1, 0xce, 0x11, 0xbe, 0x65, 0xf3, 0xc7, 0x3d,
  0xb9, 0x4a, 0xa8, 0xbe, 0xdc, 0xa3, 0x4f, 0xbd, 0xf4, 0xb7, 0xb4, 0x3e,
  0xb7, 0xc0, 0x96, 0xbe, 0x08, 0xf7, 0x00, 0xbe, 0x5e, 0x82, 0x3c, 0x3e,
  0x0e, 0xb8, 0xf2, 0xbc, 0xcf, 0x51, 0x30, 0xbe, 0x05, 0xe7, 0xef, 0x3d,
  0x65, 0x8f, 0xb3, 0xbd, 0xe3, 0x78, 0x73, 0x3d, 0xc9, 0x08, 0x2f, 0x3e,
  0x7c, 0x52, 0xf7, 0x3d, 0x04, 0xbc, 0xb3, 0x3d, 0x5f, 0xff, 0x66, 0x3e,
  0x89, 0x71, 0x10, 0x3e, 0x39, 0xbf, 0xd2, 0x3d, 0xba, 0xad, 0xa0, 0x3e,
  0x75, 0x14, 0xf2, 0xbd, 0xbd, 0xa5, 0x7c, 0x3d, 0xe5, 0xa2, 0xcf, 0x3d,
  0x53, 0x52, 0x94, 0x3e, 0xbc, 0xe2, 0x26, 0x3e, 0xdd, 0x6c, 0xb2, 0xbc,
  0x78, 0x80, 0x34, 0xba, 0x4d, 0x21, 0x72, 0xbe, 0x51, 0xde, 0x6e, 0xbd,
  0x49, 0xa7, 0xb6, 0x3d, 0xc3, 0xf6, 0x4a, 0x3e, 0x6b, 0xa8, 0x9f, 0x3d,
  0x3c, 0xb9, 0x11, 0x3e, 0xd2, 0xe3, 0xc0, 0xbd, 0x53, 0x6d, 0x46, 0x3e,
  0xbe, 0xb3, 0x80, 0xbd, 0x70, 0xe2, 0x5d, 0x3e, 0x1c, 0x64, 0x5d, 0x3e,
  0xb1, 0xe4, 0x51, 0x3c, 0x84, 0xaf, 0x9c, 0xbe, 0xa5, 0x86, 0x7e, 0x3d,
  0x40, 0xf0, 0x03, 0xbe, 0x28, 0x4e, 0xe9, 0xbd, 0x24, 0xba, 0xec, 0xbd,
  0x46, 0xc0, 0x45, 0x3d, 0x45, 0x4d, 0x8d, 0x3d, 0xe6, 0x38, 0xad, 0x3d,
  0x97, 0x54, 0x93, 0x3e, 0x97, 0xd7, 0x5c, 0x3e, 0xc2, 0x91, 0x13, 0x3e,
  0x84, 0xd4, 0x7b, 0xbe, 0x6b, 0x63, 0x75, 0x3c, 0x19, 0x15, 0x57, 0x3e,
  0x37, 0x63, 0x67, 0xbe, 0x7e, 0xe3, 0x41, 0xbd, 0x7d, 0xa3, 0x80, 0xbd,
  0x11, 0x4a, 0x07, 0xbe, 0x55, 0xb1, 0x9c, 0xbd, 0xae, 0x65, 0xb8, 0x3e,
  0xe2, 0xce, 0x5c, 0xbe, 0xa4, 0x13, 0xa8, 0x3d, 0xac, 0xc7, 0x0f, 0xbe,
  0x6d, 0xba, 0x11, 0x3e, 0xf8, 0xdd, 0xcf, 0xbd, 0x7e, 0x24, 0x84, 0x3e,
  0x47, 0x06, 0xf0, 0xbe, 0x27, 0x2a, 0x43, 0x3e, 0xb9, 0x02, 0xa2, 0xbe,
  0x81, 0xee, 0x57, 0x3e, 0x25, 0xc2, 0x07, 0xbd, 0x95, 0xf9, 0x1a, 0xbe,
  0x37, 0x26, 0xf1, 0xbc, 0x0f, 0x50, 0xf7, 0xbd, 0x46, 0x30, 0xcb, 0x3d,
  0x61, 0xa9, 0x4a, 0x3d, 0xa9, 0xd2, 0xd0, 0xbd, 0xb4, 0x46, 0xaa, 0xbc,
  0x33, 0x0e, 0x47, 0xbd, 0xa3, 0x5e, 0x05, 0xbe, 0x66, 0x25, 0x3a, 0xbc,
  0x14, 0x74, 0x9a, 0x3d, 0xb1, 0x2e, 0x40, 0xbe, 0x34, 0x80, 0xb0, 0x3c,
  0x65, 0x6a, 0x94, 0xbd, 0x0f, 0x8b, 0x18, 0x3e, 0x4e, 0xfa, 0x4c, 0xbd,
  0xe5, 0xf9, 0x40, 0x3c, 0x97, 0xc5, 0xf8, 0xbd, 0xa1, 0xae, 0xb6, 0x3d,
  0xc2, 0x76, 0xa9, 0x3e, 0x16, 0xa3, 0x91, 0xbd, 0xb3, 0x07, 0x59, 0xbd,
  0xd9, 0xa8, 0x14, 0xbc, 0x57, 0x62, 0x56, 0x3e, 0xfe, 0xdd, 0x59, 0x3d,
  0xce, 0x11, 0x1b, 0xbe, 0x20, 0xa8, 0xf2, 0xbb, 0x22, 0xd3, 0x67, 0xbe,
  0x92, 0x7a, 0xd8, 0x3d, 0x15, 0xc6, 0x0e, 0x3e, 0x85, 0x66, 0xbb, 0xbc,
  0x6e, 0x2d, 0x5a, 0xbe, 0x6c, 0xc4, 0x57, 0x3d, 0xf7, 0xec, 0x2a, 0xbe,
  0x96, 0x9f, 0xe5, 0xbd, 0x28, 0xc9, 0xee, 0xbc, 0x1b, 0x6b, 0xac, 0x3d,
  0x31, 0xc6, 0x69, 0x3e, 0xb6, 0x80, 0xfe, 0x3c, 0xe1, 0x69, 0x59, 0xbe,
  0xf7, 0x08, 0x21, 0x3e, 0xe1, 0x03, 0xb7, 0x3d, 0x17, 0x12, 0x2a, 0xbe,
  0x0c, 0xb3, 0xc0, 0xbd, 0x6c, 0x2e, 0x01, 0xbe, 0xb8, 0x91, 0x69, 0x3d,
  0xe8, 0x68, 0xc6, 0x3c, 0xee, 0x87, 0x29, 0x3e, 0x3d, 0x28, 0x67, 0xbd,
  0x4c, 0x9e, 0xc6, 0xbd, 0x9c, 0x6a, 0x11, 0x3e, 0x3c, 0x35, 0xc1, 0xbc,
  0x70, 0x81, 0x1f, 0xbe, 0xf3, 0xdd, 0x36, 0x3d, 0xb1, 0x71, 0x2c, 0xbc,
  0xa0, 0x66, 0xe9, 0x3d, 0x52, 0x82, 0xf8, 0x3d, 0xf2, 0x5a, 0x58, 0xbe,
  0xd3, 0x7d, 0x3a, 0x3d, 0x5e, 0xc1, 0x54, 0x3e, 0xed, 0x33, 0x14, 0x3d,
  0x73, 0x11, 0x54, 0xbe, 0xc5, 0x09, 0x39, 0x3e, 0x2d, 0xc0, 0x78, 0xbd,
  0x0a, 0xfc, 0x94, 0xbd, 0x5d, 0xc3, 0x29, 0x3e, 0xde, 0x91, 0x88, 0xbd,
  0xbc, 0x44, 0xd1, 0x3d, 0xf6, 0x02, 0xea, 0x3c, 0x5b, 0xd7, 0x58, 0xbd,
  0x00, 0x69, 0x93, 0xbd, 0x0e, 0x31, 0xc8, 0x3c, 0x9c, 0x18, 0xc2, 0xbd,
  0x61, 0xde, 0x08, 0xbe, 0x3a, 0x0b, 0x11, 0xbe, 0x98, 0xe5, 0xd0, 0xbd,
  0x0f, 0x9b, 0x15, 0xbd, 0x05, 0xeb, 0x0d, 0xbc, 0xeb, 0x3f, 0x0e, 0x3e,
  0xd2, 0xb6, 0xb4, 0x3d, 0x2f, 0xfe, 0x57, 0x3d, 0xe7, 0xda, 0x80, 0xbe,
  0x80, 0xdf, 0x19, 0xbe, 0xbb, 0xf5, 0x54, 0xbe, 0x5e, 0xed, 0xff, 0xff,
  0x04, 0x00, 0x00, 0x00, 0x40, 0x00, 0x00, 0x00, 0x9c, 0x0d, 0xae, 0xbd,
  0x29, 0x9e, 0x73, 0xbf, 0xac, 0x78, 0x4e, 0x3e, 0xd8, 0xba, 0x8c, 0x3e,
  0x1e, 0x1e, 0x60, 0x3e, 0xba, 0x1c, 0x02, 0xbe, 0x2a, 0x5e, 0x18, 0x3e,
  0x2e, 0xa6, 0x0a, 0x3e, 0xe4, 0x37, 0x09, 0x3e, 0x35, 0x55, 0x62, 0x3e,
  0x66, 0xb5, 0x0d, 0x3e, 0x4c, 0x22, 0xde, 0xbe, 0x40, 0x5b, 0x1d, 0x3e,
  0x1b, 0x5b, 0xf9, 0x3d, 0x97, 0x68, 0x68, 0x3e, 0xbc, 0xab, 0xbd, 0xbe,
  0xaa, 0xed, 0xff, 0xff, 0x04, 0x00, 0x00, 0x00, 0x40, 0x00, 0x00, 0x00,
  0xef, 0xf5, 0x4c, 0x3e, 0x20, 0xa0, 0x52, 0x3e, 0xe4, 0x0c, 0x5e, 0xbd,
  0xf4, 0xda, 0x42, 0xbf, 0x47, 0xff, 0x83, 0xbf, 0xb9, 0x01, 0x0b, 0x3c,
  0x5a, 0xd3, 0xd6, 0x3d, 0x07, 0x11, 0xcf, 0x3b, 0xd6, 0x55, 0xbe, 0x3d,
  0xa9, 0x89, 0x13, 0xbd, 0x20, 0x0b, 0x2d, 0xbe, 0xce, 0xea, 0x90, 0x3d,
  0x53, 0x44, 0xa7, 0x3d, 0x34, 0x82, 0xf3, 0x3d, 0x85, 0x17, 0x79, 0x3d,
  0x97, 0x2b, 0xb8, 0xbe, 0xf6, 0xed, 0xff, 0xff, 0x04, 0x00, 0x00, 0x00,
  0x40, 0x00, 0x00, 0x00, 0x73, 0x55, 0xc7, 0x3e, 0x45, 0x39, 0x42, 0xbe,
  0x2b, 0xc5, 0xd2, 0xbe, 0xc1, 0x24, 0xea, 0xbd, 0x2f, 0x3a, 0xe7, 0xbd,
  0xee, 0x82, 0xbc, 0xbe, 0x9e, 0x07, 0x33, 0x3e, 0xd0, 0x7c, 0x65, 0x3e,
  0xee, 0x5a, 0x3e, 0x3e, 0x06, 0x6c, 0x29, 0x3e, 0x67, 0x8c, 0xbf, 0x3e,
  0xd6, 0x89, 0xb7, 0xbe, 0x59, 0x32, 0x46, 0xbe, 0x74, 0x40, 0x79, 0xbe,
  0x22, 0xec, 0x12, 0x3e, 0xa9, 0xa3, 0xa9, 0x3e, 0x42, 0xee, 0xff, 0xff,
  0x04, 0x00, 0x00, 0x00, 0x40, 0x00, 0x00, 0x00, 0x03, 0x23, 0xbc, 0x3c,
  0xb3, 0x08, 0x45, 0xbf, 0x60, 0xeb, 0x42, 0x3e, 0xaa, 0xc3, 0x9a, 0x3e,
  0x61, 0x12, 0x86, 0x3e, 0xcb, 0xac, 0x70, 0x3c, 0xbc, 0xa5, 0x36, 0x3e,
  0x5a, 0xe3, 0x2c, 0x3e, 0x9c, 0x5d, 0x3b, 0x3e, 0x7c, 0x5d, 0x82, 0x3e,
  0x65, 0x1c, 0x0b, 0x3e, 0x13, 0xae, 0xa8, 0xbe, 0x17, 0x16, 0x6d, 0x3e,
  0xeb, 0xe3, 0x85, 0x3e, 0x3e, 0x94, 0x6a, 0x3e, 0xd8, 0xd5, 0xbf, 0xbe,
  0x8e, 0xee, 0xff, 0xff, 0x04, 0x00, 0x00, 0x00, 0x40, 0x00, 0x00, 0x00,
  0x05, 0xe6, 0x95, 0x3e, 0x4b, 0xce, 0xb1, 0xbf, 0x88, 0x70, 0x26, 0x3e,
  0x04, 0x1b, 0x88, 0xbf, 0x99, 0xc4, 0x48, 0xbf, 0x75, 0x1a, 0xae, 0x3e,
  0x34, 0x41, 0x23, 0xbe, 0x70, 0xe5, 0x2e, 0xbe, 0x0d, 0x0c, 0x51, 0xbe,
  0x16, 0x14, 0x5a, 0xbf, 0x3d, 0xc4, 0x41, 0x3d, 0x0b, 0x8d, 0xa5, 0x3d,
  0x42, 0xee, 0x5f, 0xbe, 0x02, 0xde, 0x55, 0xbe, 0xd7, 0x0d, 0x20, 0xbf,
  0xaa, 0xe7, 0x21, 0x3e, 0xda, 0xee, 0xff, 0xff, 0x04, 0x00, 0x00, 0x00,
  0x40, 0x00, 0x00, 0x00, 0x9a, 0x72, 0x0c, 0x3f, 0x06, 0x8b, 0xe0, 0x3c,
  0xe2, 0xb9, 0x33, 0x3f, 0x12, 0xd1, 0x41, 0xbd, 0x24, 0xff, 0x9c, 0x3c,
  0x5c, 0xcf, 0x27, 0x3f, 0x1e, 0x8d, 0x4c, 0x3f, 0xbc, 0x93, 0x4a, 0x3f,
  0x23, 0xa7, 0x50, 0x3f, 0x90, 0xb6, 0x27, 0x3f, 0xc5, 0x3f, 0x39, 0x3f,
  0x9e, 0xf3, 0xf1, 0x3e, 0xf7, 0xb8, 0x44, 0x3f, 0x2b, 0x9f, 0x24, 0x3f,
  0x51, 0x41, 0x35, 0x3f, 0x9f, 0x03, 0xe9, 0x3e, 0x26, 0xef, 0xff, 0xff,
  0x04, 0x00, 0x00, 0x00, 0x40, 0x00, 0x00, 0x00, 0x24, 0x88, 0x22, 0x3d,
  0x95, 0x06, 0x68, 0xbd, 0xf2, 0x82, 0x3f, 0x3d, 0xd7, 0x15, 0x8e, 0x3d,
  0x6d, 0x51, 0xaa, 0x3d, 0x6b, 0x18, 0x87, 0xbd, 0xca, 0x59, 0x7d, 0xbb,
  0x1a, 0x4a, 0xb4, 0xbc, 0x0b, 0xa4, 0x17, 0xbd, 0x78, 0x0f, 0x3b, 0xbd,
  0xcb, 0xec, 0x98, 0x3b, 0x65, 0x03, 0x85, 0xbd, 0xc3, 0xd4, 0x0f, 0x3d,
  0x25, 0x93, 0x51, 0x3d, 0x1c, 0xda, 0x54, 0xbd, 0x01, 0xf1, 0x39, 0x3b,
  0x72, 0xef, 0xff, 0xff, 0x04, 0x00, 0x00, 0x00, 0x40, 0x00, 0x00, 0x00,
  0xb2, 0xbf, 0xce, 0x3e, 0xb7, 0x41, 0xa8, 0xbf, 0x1e, 0x1b, 0x64, 0x3e,
  0x9c, 0x02, 0x7c, 0xbf, 0x5b, 0x6b, 0x5e, 0xbf, 0x2e, 0xab, 0x0b, 0x3f,
  0x47, 0xfb, 0x12, 0x3c, 0x78, 0x71, 0x19, 0x3b, 0x31, 0xa2, 0xbd, 0xbc,
  0x19, 0xfc, 0x13, 0xbf, 0x1a, 0x6a, 0xc0, 0xbc, 0x70, 0xee, 0x8a, 0x3e,
  0xac, 0xb6, 0xce, 0xbd, 0xd0, 0x34, 0x1a, 0xbe, 0xda, 0xa9, 0xcf, 0xbe,
  0x6f, 0x09, 0xfb, 0x3d, 0xbe, 0xef, 0xff, 0xff, 0x04, 0x00, 0x00, 0x00,
  0x00, 0x04, 0x00, 0x00, 0x85, 0x52, 0x67, 0x3d, 0xac, 0x2d, 0x68, 0xbd,
  0x44, 0x0d, 0x25, 0xbe, 0x54, 0xd4, 0xa8, 0xbe, 0x6b, 0xcd, 0xa0, 0xbe,
  0xdb, 0x49, 0x62, 0x3d, 0xdb, 0x41, 0x41, 0x3e, 0xe2, 0x0e, 0x78, 0x3d,
  0x5c, 0x3d, 0xdb, 0x3d, 0x0e, 0x3d, 0xd8, 0x3e, 0xd4, 0x22, 0x21, 0xbd,
  0x9d, 0xdc, 0x9d, 0xbd, 0xd2, 0x18, 0x5b, 0xbe, 0x51, 0x77, 0x54, 0xbe,
  0x84, 0x3d, 0xef, 0x3d, 0xf0, 0x5a, 0x0f, 0xbd, 0x49, 0x0b, 0x3d, 0xbd,
  0xec, 0xc1, 0xf3, 0xbd, 0x27, 0xc7, 0xab, 0xbd, 0x0c, 0x31, 0xaa, 0x3e,
  0x7a, 0x0c, 0x83, 0xbd, 0x3f, 0x94, 0x4d, 0xbe, 0x4f, 0x0f, 0x37, 0x3e,
  0x8c, 0xf0, 0xb0, 0xbd, 0x1d, 0xbe, 0xde, 0x3c, 0x5e, 0x84, 0x09, 0xbe,
  0x87, 0x83, 0xdc, 0x3d, 0x00, 0x5c, 0x38, 0xbe, 0xa7, 0xb3, 0xe7, 0xbc,
  0xe6, 0xcc, 0x29, 0x3e, 0x81, 0xdb, 0x93, 0x3d, 0x30, 0xfd, 0x39, 0xbb,
  0x5d, 0xad, 0x79, 0xbd, 0xf5, 0x41, 0xdf, 0xbd, 0x92, 0x3e, 0x4e, 0x3e,
  0x25, 0xc9, 0x01, 0x3e, 0x50, 0x18, 0x28, 0xbe, 0x48, 0x6a, 0xc3, 0x3d,
  0xf3, 0x7a, 0x81, 0xbe, 0x8e, 0x94, 0xd3, 0x3d, 0xff, 0x69, 0x29, 0xbd,
  0x2d, 0x4a, 0xbc, 0xbc, 0x82, 0x2e, 0xfd, 0xbd, 0x71, 0x6a, 0x87, 0x3d,
  0x14, 0xa8, 0x85, 0x3e, 0xdc, 0x3f, 0x50, 0xbd, 0x57, 0x20, 0xe6, 0xbd,
  0x17, 0x9d, 0xba, 0xbd, 0x4d, 0x71, 0x84, 0xbd, 0xde, 0xbb, 0x00, 0x3f,
  0xbc, 0xc8, 0x98, 0x3e, 0x0e, 0x55, 0x70, 0x3d, 0xee, 0x84, 0x97, 0x3e,
  0xc9, 0xe4, 0xad, 0x3e, 0x55, 0xd9, 0x6f, 0xbd, 0x41, 0x86, 0x57, 0xbe,
  0x2f, 0x45, 0x48, 0xbe, 0x8d, 0x5e, 0x4e, 0x3e, 0x58, 0xda, 0x1c, 0xbe,
  0x38, 0xa4, 0x08, 0x3f, 0xfc, 0x79, 0xd9, 0xbd, 0xcd, 0x0e, 0x88, 0xbd,
  0x74, 0x5a, 0x04, 0xbd, 0xb1, 0x6f, 0x65, 0xbf, 0xf7, 0x63, 0xab, 0xbe,
  0xbb, 0x21, 0xf4, 0x3e, 0x1a, 0x1e, 0x06, 0x3f, 0x9c, 0xe1, 0x31, 0x3f,
  0xef, 0x71, 0x5c, 0x3f, 0x24, 0x3b, 0xb2, 0x3e, 0xfe, 0xba, 0x6a, 0xbf,
  0x9a, 0x05, 0x16, 0xbf, 0xc7, 0xb5, 0x30, 0xbf, 0x7a, 0x2d, 0xf9, 0xbe,
  0x4a, 0x8b, 0x95, 0xbd, 0x37, 0x29, 0x0f, 0x3e, 0xb2, 0xae, 0x07, 0x3f,
  0x6d, 0x90, 0xd8, 0x3e, 0xd5, 0xf8, 0x54, 0xbf, 0x8c, 0x7f, 0xfb, 0xbe,
  0x75, 0x47, 0xa2, 0x3e, 0xea, 0x7a, 0xbe, 0x3d, 0xfa, 0x2c, 0xf1, 0xbe,
  0x21, 0xa6, 0x95, 0xbe, 0x6b, 0x8d, 0xb8, 0xbe, 0x17, 0xef, 0xac, 0xbe,
  0x82, 0x92, 0x91, 0x3e, 0x79, 0x52, 0x87, 0x3d, 0x56, 0xb2, 0xe7, 0x3c,
  0xa3, 0x8a, 0xae, 0x3e, 0x15, 0x8d, 0x34, 0x3e, 0x7e, 0xaf, 0xa7, 0xbe,
  0x38, 0xa3, 0xcf, 0xbd, 0xd5, 0x13, 0x47, 0xbe, 0x28, 0x33, 0x8e, 0x3e,
  0xa1, 0x98, 0x3f, 0xbd, 0x9c, 0x74, 0xb6, 0xbe, 0xc6, 0xb6, 0xcc, 0x3d,
  0xf4, 0x7a, 0x58, 0x3e, 0xe3, 0x50, 0x20, 0x3e, 0xe2, 0xc7, 0x61, 0x3e,
  0xf2, 0x48, 0x80, 0x3e, 0x0a, 0x01, 0xdc, 0xbe, 0xf9, 0x1b, 0xb1, 0xbe,
  0xe3, 0x94, 0x75, 0xbe, 0xef, 0xc5, 0x27, 0xbc, 0x1a, 0xae, 0x2e, 0xbf,
  0x30, 0xe8, 0xb5, 0x3d, 0x12, 0xb1, 0xaa, 0x3e, 0x25, 0x0a, 0xcd, 0x3d,
  0x9d, 0x5b, 0xb7, 0xbd, 0x00, 0xd0, 0x25, 0xbf, 0x05, 0xe4, 0xd6, 0x3c,
  0x42, 0x78, 0xdb, 0x3d, 0x7f, 0xd1, 0x9c, 0x3e, 0xce, 0x9e, 0xdb, 0xbd,
  0x62, 0x6a, 0xf9, 0x3e, 0x17, 0x78, 0x49, 0x3d, 0x06, 0xda, 0x24, 0xbe,
  0x46, 0x18, 0x3e, 0xbe, 0x0c, 0x8c, 0xaf, 0xbd, 0xfb, 0x7f, 0xed, 0xbc,
  0x11, 0xa8, 0x90, 0xbe, 0x74, 0x33, 0x32, 0xbe, 0xac, 0xa5, 0x95, 0x3d,
  0x92, 0xc1, 0x3e, 0x3d, 0x0e, 0xc5, 0x37, 0xbe, 0x53, 0xb1, 0x02, 0xbf,
  0x60, 0x60, 0x1a, 0x3d, 0x59, 0x28, 0x79, 0x3d, 0x39, 0x35, 0x1f, 0x3d,
  0x53, 0x1d, 0x9f, 0x3e, 0x69, 0xf5, 0x9b, 0x3e, 0xf5, 0x7c, 0x17, 0x3e,
  0xf6, 0x14, 0xb4, 0xbe, 0x73, 0x99, 0x4d, 0xbe, 0xfe, 0xbb, 0x97, 0xbe,
  0xaa, 0x3a, 0x25, 0x3e, 0xdc, 0xe5, 0x40, 0xbe, 0xb2, 0xaa, 0xb2, 0xbc,
  0x6e, 0x64, 0x6a, 0x3b, 0x37, 0x18, 0x0a, 0x3e, 0x07, 0xf1, 0xdc, 0xbd,
  0xbd, 0x34, 0x5e, 0xbf, 0x4a, 0x6a, 0x03, 0x3e, 0xf8, 0x7b, 0xf9, 0xbb,
  0x88, 0x93, 0x03, 0x3d, 0xa7, 0x8a, 0x31, 0x3d, 0xb1, 0x5b, 0xf7, 0x3e,
  0x73, 0x43, 0xeb, 0x3d, 0x94, 0xa5, 0x4b, 0xbe, 0xd0, 0xa7, 0x98, 0x3d,
  0x28, 0x11, 0x82, 0xbd, 0x74, 0xcc, 0x3a, 0xbe, 0xb6, 0x48, 0xe3, 0x3d,
  0x3e, 0xee, 0xcb, 0x3c, 0x74, 0xfd, 0xb7, 0x3e, 0x56, 0xf2, 0xe4, 0x3d,
  0xe2, 0x6f, 0xdc, 0xbe, 0x86, 0xe6, 0x46, 0xbf, 0x90, 0xaf, 0x8c, 0xbd,
  0xbf, 0xa2, 0xba, 0x3b, 0x00, 0xc4, 0x28, 0x3e, 0x49, 0x3f, 0x2b, 0xbe,
  0x04, 0x6a, 0x00, 0x3c, 0x7a, 0x10, 0x1f, 0x3d, 0x80, 0x36, 0x6b, 0xbd,
  0x78, 0x35, 0x95, 0x3e, 0x47, 0x91, 0x55, 0xbe, 0x6c, 0x3c, 0xf4, 0xbc,
  0xaa, 0x53, 0x03, 0xbc, 0x11, 0xeb, 0xe0, 0xbd, 0xd5, 0x9c, 0xb4, 0x3d,
  0x71, 0xcd, 0xe6, 0x3d, 0x25, 0x42, 0xe5, 0x3c, 0x91, 0x0c, 0x98, 0xbe,
  0x80, 0xf3, 0x19, 0x3e, 0x10, 0xe7, 0x20, 0xbe, 0xfe, 0x9f, 0xba, 0xbe,
  0x03, 0xe8, 0xbf, 0xbe, 0xed, 0x4e, 0x29, 0xbf, 0x88, 0x2e, 0xdf, 0xbd,
  0x5d, 0x56, 0x81, 0x3e, 0x35, 0x02, 0x7a, 0x3e, 0x12, 0xbb, 0x0a, 0x3f,
  0x63, 0xf1, 0xde, 0x3e, 0x10, 0xc6, 0x8c, 0x3e, 0x51, 0x79, 0x4b, 0xbf,
  0x2b, 0xd7, 0x50, 0xbe, 0xb1, 0xc6, 0x25, 0xbf, 0x46, 0xa7, 0x0a, 0x3f,
  0xf8, 0x01, 0x97, 0x3e, 0xd5, 0x83, 0x98, 0xbe, 0x06, 0x92, 0xb0, 0xbd,
  0x79, 0x89, 0x90, 0x3e, 0x7d, 0xb0, 0xa1, 0x3d, 0xc4, 0x06, 0xf7, 0x3e,
  0x7a, 0x80, 0x89, 0x3e, 0x41, 0x82, 0x84, 0xbe, 0x76, 0xf0, 0xb8, 0x3b,
  0x16, 0x9f, 0x39, 0xbe, 0x9a, 0xb4, 0xac, 0xbe, 0x1b, 0xe0, 0x1c, 0x3d,
  0x00, 0xad, 0x18, 0x3d, 0x3e, 0x3c, 0x39, 0x3d, 0xae, 0x2f, 0x95, 0x3e,
  0xe5, 0xbe, 0x2d, 0xbe, 0x2b, 0x41, 0x16, 0xbf, 0x7d, 0xf0, 0x52, 0x3d,
  0x20, 0x67, 0xfa, 0xbe, 0x0f, 0x74, 0xc6, 0xbd, 0xba, 0x4a, 0x6c, 0x3e,
  0x5c, 0xa6, 0x44, 0x3f, 0x80, 0x99, 0xaa, 0xbd, 0x49, 0x1e, 0x4c, 0xbe,
  0xfc, 0x6a, 0xde, 0x3c, 0x0b, 0x81, 0x93, 0xbe, 0xbd, 0x41, 0x99, 0x3d,
  0xb0, 0x97, 0x20, 0x3d, 0x9b, 0x41, 0xcd, 0xbd, 0x10, 0xbb, 0x59, 0x3d,
  0x28, 0x4e, 0x4f, 0x3c, 0xf8, 0x8e, 0x32, 0xbe, 0xf5, 0x9f, 0x8f, 0xbe,
  0x36, 0x7b, 0x9c, 0xbe, 0xac, 0x37, 0x27, 0x3e, 0x0b, 0xb5, 0xb8, 0x3e,
  0xc7, 0xe6, 0x27, 0x3d, 0xc2, 0x67, 0xde, 0x3e, 0x6a, 0xdf, 0x1b, 0x3e,
  0x35, 0x8f, 0xb3, 0xbe, 0x60, 0xa7, 0x3a, 0xbe, 0x30, 0xe2, 0x67, 0xbe,
  0x30, 0x62, 0x49, 0xbe, 0x9e, 0xca, 0xc5, 0xbe, 0x43, 0xf0, 0x9b, 0x3e,
  0x65, 0xa9, 0x87, 0x3e, 0xd6, 0x35, 0x0d, 0x3e, 0xab, 0x7a, 0xa5, 0xbe,
  0xfb, 0xb3, 0x2b, 0xbf, 0x20, 0xff, 0x28, 0x3e, 0x99, 0x11, 0x8e, 0x3e,
  0xb3, 0xaf, 0x87, 0xbd, 0x3e, 0x90, 0x03, 0x3e, 0x83, 0x95, 0x03, 0xbe,
  0x7f, 0x08, 0x8e, 0xbd, 0x7a, 0x1b, 0x3f, 0xbe, 0xdd, 0xa7, 0xf5, 0xbc,
  0xa9, 0xb5, 0xde, 0x3d, 0xa5, 0x7d, 0x88, 0xbc, 0xf3, 0x2a, 0x91, 0xbe,
  0xef, 0x1a, 0xf9, 0xbe, 0x34, 0xb8, 0x8b, 0x3e, 0x9d, 0x9d, 0x3a, 0x3e,
  0x54, 0x23, 0x0f, 0x3e, 0x61, 0xb7, 0x64, 0x3e, 0xca, 0xf3, 0xff, 0xff,
  0x04, 0x00, 0x00, 0x00, 0x00, 0x04, 0x00, 0x00, 0x95, 0x0b, 0xb4, 0xbe,
  0xbe, 0x55, 0x3b, 0x3e, 0x15, 0xd5, 0xa1, 0x3e, 0x3a, 0x34, 0x8f, 0xbd,
  0x57, 0xf2, 0x55, 0xbe, 0x26, 0x48, 0xf6, 0x3e, 0xa5, 0x93, 0x8d, 0xbe,
  0x58, 0x68, 0xa9, 0xbe, 0x25, 0x0d, 0x06, 0xbd, 0x2b, 0x07, 0x99, 0xbb,
  0xf9, 0x90, 0xb1, 0xbe, 0xe6, 0x50, 0xf4, 0x3e, 0x80, 0xd6, 0xc9, 0x3e,
  0x18, 0xe7, 0xda, 0x3d, 0xf7, 0xaa, 0xcb, 0xbd, 0x25, 0xe1, 0xd6, 0xbd,
  0x3a, 0x6f, 0xb7, 0xbe, 0xd1, 0x65, 0xb8, 0x3e, 0x50, 0xda, 0xd2, 0x3d,
  0xdb, 0xd6, 0x5b, 0x3d, 0xf1, 0x21, 0x06, 0xbd, 0x6f, 0x26, 0x84, 0x3e,
  0x42, 0x7b, 0x0e, 0xbf, 0x60, 0x7a, 0xbb, 0xbd, 0x43, 0x75, 0x30, 0xbd,
  0x27, 0x37, 0x83, 0x3e, 0xc5, 0x12, 0x93, 0xbe, 0x4e, 0x01, 0x62, 0x3d,
  0x7f, 0xa7, 0x2a, 0x3e, 0x6f, 0x9b, 0x8f, 0xbe, 0x2a, 0xb4, 0xa4, 0xbd,
  0x37, 0xd8, 0xf0, 0xbe, 0x5b, 0xff, 0x28, 0xbd, 0xed, 0x5b, 0xa8, 0xbd,
  0xc2, 0xe9, 0x7f, 0x3e, 0xdb, 0x54, 0x0e, 0xbe, 0xc9, 0x16, 0x5c, 0xbf,
  0x9d, 0xa0, 0xcd, 0x3d, 0x61, 0x85, 0xda, 0xbd, 0x7d, 0x61, 0xda, 0x3d,
  0xf9, 0x5e, 0x87, 0xbc, 0xda, 0x83, 0xa5, 0x3d, 0xd2, 0x4d, 0xa6, 0xbd,
  0x47, 0x32, 0x6f, 0x3e, 0x28, 0x17, 0x92, 0xbd, 0x7e, 0x2a, 0x2c, 0x3e,
  0xe4, 0xc9, 0x3f, 0x3e, 0x01, 0xef, 0x9f, 0xbd, 0x51, 0x0f, 0x2d, 0x3e,
  0x6d, 0xcf, 0x00, 0x3f, 0xf8, 0x9b, 0x0b, 0xbe, 0xae, 0x85, 0x40, 0xbe,
  0x24, 0xdb, 0xa4, 0xbe, 0x76, 0x7b, 0x15, 0x3e, 0xfa, 0x40, 0x47, 0xbd,
  0xc5, 0xa0, 0xa7, 0xbd, 0x8f, 0xd7, 0x24, 0x3e, 0x12, 0xf1, 0xf5, 0x3d,
  0xda, 0xb4, 0xe8, 0xbc, 0xd6, 0x8c, 0xa7, 0x3d, 0x62, 0x64, 0x56, 0x3e,
  0x50, 0xbe, 0xc7, 0x3d, 0xa9, 0x98, 0xc9, 0xbd, 0xe6, 0xc9, 0x79, 0x3e,
  0xe3, 0x48, 0x21, 0xbe, 0xfe, 0x2a, 0xd1, 0xbe, 0x50, 0x7a, 0x89, 0x3c,
  0x68, 0x10, 0x83, 0xbf, 0x81, 0x7d, 0xc6, 0xbe, 0xbd, 0x34, 0xe2, 0x3e,
  0x7b, 0x07, 0xb0, 0xbe, 0xdc, 0x7c, 0x09, 0x3e, 0x83, 0xa0, 0xcd, 0x3e,
  0x72, 0x11, 0x5c, 0x3f, 0x44, 0xad, 0x45, 0xbe, 0x2a, 0xd4, 0x39, 0x3f,
  0x79, 0x6f, 0x2a, 0xbe, 0x68, 0x54, 0x19, 0xbf, 0xc5, 0x4d, 0x1c, 0x3e,
  0x33, 0x31, 0x60, 0x3d, 0xdc, 0xe7, 0x62, 0xbe, 0xa9, 0xa5, 0x20, 0x3e,
  0xf4, 0x57, 0x0a, 0x3d, 0x6f, 0x93, 0xf7, 0xbd, 0xbc, 0x27, 0x6a, 0xbe,
  0xb6, 0xd2, 0x9d, 0x3e, 0x06, 0xba, 0x36, 0xbe, 0x9d, 0x21, 0x5b, 0xbe,
  0x57, 0x04, 0xa0, 0xbd, 0x10, 0xe1, 0xd6, 0xbd, 0x9f, 0x8a, 0x9f, 0xbe,
  0x8a, 0xbd, 0x90, 0x3e, 0x1f, 0x6a, 0xa5, 0x3e, 0x86, 0x6d, 0xf8, 0x3d,
  0x05, 0xf6, 0x2c, 0x3e, 0xab, 0x96, 0x2a, 0xbc, 0x6a, 0xa0, 0x41, 0x3e,
  0xe1, 0xc8, 0x16, 0x3e, 0xd1, 0xc0, 0x40, 0xbe, 0x89, 0x8e, 0x9d, 0xbe,
  0xbb, 0x0b, 0x01, 0xbf, 0x0a, 0x4b, 0x3b, 0xbe, 0xf1, 0xd5, 0xae, 0xbd,
  0x2a, 0xd5, 0x2e, 0x3e, 0xfa, 0x3d, 0xe4, 0x3d, 0xe1, 0x0a, 0xa0, 0x3d,
  0xcc, 0x3d, 0xf8, 0x3c, 0x68, 0xc7, 0x25, 0x3e, 0x5e, 0xce, 0x08, 0xbe,
  0x99, 0x9d, 0x90, 0xbe, 0x88, 0x23, 0xfb, 0x3d, 0x73, 0xb2, 0xc3, 0xbd,
  0x21, 0xac, 0x01, 0xbe, 0x5e, 0xd8, 0xdb, 0x3c, 0x3a, 0x98, 0xd0, 0xbd,
  0xca, 0x24, 0xab, 0xbe, 0x5e, 0xe8, 0x26, 0xbf, 0x51, 0x84, 0xd5, 0x3d,
  0xe1, 0x8a, 0x05, 0x3e, 0x86, 0xfb, 0x94, 0x3d, 0x22, 0x46, 0x24, 0x3d,
  0x38, 0x97, 0xeb, 0x3d, 0x71, 0xac, 0x7b, 0xbe, 0x08, 0xfb, 0xdf, 0x3d,
  0x40, 0x83, 0x1f, 0x3c, 0x1f, 0xaa, 0xc5, 0x3d, 0xe1, 0xbb, 0xa0, 0xbd,
  0xdd, 0xe3, 0x60, 0xbe, 0x5c, 0x7b, 0x43, 0xbe, 0x5e, 0xd8, 0x74, 0x3e,
  0xad, 0xf0, 0x24, 0xbe, 0x2a, 0xc8, 0x7b, 0xbe, 0xb2, 0x6e, 0x22, 0xbf,
  0x16, 0xa5, 0xc9, 0x3d, 0xc0, 0x17, 0x6c, 0x3d, 0x31, 0x58, 0x90, 0xbb,
  0xfd, 0x6e, 0xcd, 0xbe, 0x8e, 0xd2, 0xef, 0xbd, 0xd9, 0x65, 0x3f, 0xbe,
  0x09, 0xa3, 0xef, 0x3d, 0xa5, 0xc6, 0x62, 0x3c, 0xf5, 0xd3, 0xed, 0xbd,
  0x3d, 0xa8, 0x65, 0x3d, 0x54, 0x49, 0x20, 0xbb, 0xad, 0x8b, 0xab, 0xbe,
  0xc8, 0xe1, 0x33, 0x3e, 0xeb, 0xc7, 0x46, 0x3d, 0x52, 0xda, 0x46, 0xbe,
  0xb2, 0x84, 0x57, 0xbf, 0xe8, 0x9b, 0x8b, 0x3e, 0x05, 0x32, 0x01, 0x3e,
  0x78, 0xde, 0x62, 0xbe, 0x5f, 0xa1, 0x3d, 0x3d, 0xab, 0xbf, 0x58, 0x3d,
  0x37, 0xa4, 0xaf, 0x3d, 0xef, 0x62, 0x90, 0x3e, 0x31, 0xed, 0xff, 0x3a,
  0x03, 0xf1, 0x77, 0x3d, 0xac, 0x65, 0x45, 0xbe, 0x0c, 0xa8, 0x09, 0xbe,
  0xb3, 0xb8, 0x75, 0xbe, 0xd1, 0x65, 0x63, 0x3e, 0x66, 0x93, 0x21, 0xbd,
  0x94, 0x09, 0x1a, 0xbf, 0xb1, 0x73, 0xaa, 0xbe, 0xe1, 0x6c, 0x15, 0xbe,
  0xa1, 0x2b, 0x03, 0x3e, 0xa6, 0x08, 0xd9, 0x3c, 0x63, 0xb1, 0x9d, 0x3d,
  0xc9, 0x01, 0xb1, 0x3e, 0x56, 0xe1, 0xc3, 0x3d, 0xcf, 0xaf, 0xcc, 0x3d,
  0x28, 0x59, 0x28, 0xbe, 0x63, 0xd2, 0xae, 0xbe, 0xfa, 0xcf, 0xa5, 0x3c,
  0x66, 0x04, 0xc6, 0x3d, 0x0c, 0xcb, 0xbb, 0xbe, 0xce, 0x80, 0xed, 0x3e,
  0xc2, 0x9c, 0x0c, 0x3e, 0xf4, 0xdb, 0xc2, 0xbd, 0xac, 0xbe, 0x9d, 0xbe,
  0x62, 0xb0, 0x09, 0x3f, 0x47, 0x30, 0xca, 0xbe, 0x52, 0x0d, 0x08, 0xbe,
  0xe8, 0x50, 0x47, 0xbe, 0xff, 0x3a, 0x13, 0xbe, 0x6a, 0xe8, 0xc6, 0xbe,
  0x82, 0x43, 0x18, 0x3f, 0x86, 0xf4, 0x4d, 0xbd, 0x8d, 0xe7, 0x2e, 0x3d,
  0xba, 0x66, 0xf8, 0xbc, 0x1f, 0x7a, 0xbc, 0xbd, 0xe7, 0xfa, 0xf5, 0xba,
  0xa3, 0x51, 0x88, 0x3d, 0xb7, 0xf9, 0x9a, 0xbe, 0x00, 0xdd, 0x99, 0xbe,
  0xfe, 0xc0, 0xf3, 0xbe, 0xf9, 0x42, 0x44, 0x3e, 0xad, 0x7a, 0x25, 0xbe,
  0xc1, 0xf9, 0x81, 0x3d, 0x36, 0xf9, 0x80, 0x3e, 0x73, 0x8c, 0x44, 0xbd,
  0x51, 0xbc, 0x69, 0xbe, 0x85, 0x88, 0x06, 0x3d, 0xa4, 0x24, 0x14, 0xbd,
  0x4c, 0x65, 0x5d, 0xbe, 0x13, 0x90, 0x6b, 0xbe, 0xd6, 0x55, 0x0e, 0x3d,
  0xe4, 0xb6, 0xdc, 0xbc, 0x55, 0x49, 0x24, 0x3e, 0x47, 0xed, 0x90, 0x3e,
  0x05, 0x24, 0xb1, 0xbd, 0x3c, 0x2d, 0x2f, 0xbf, 0x00, 0x55, 0x68, 0x3e,
  0x80, 0x79, 0x55, 0xbe, 0x34, 0xb3, 0x5c, 0x3d, 0x55, 0x3f, 0x9b, 0xbe,
  0x22, 0x9a, 0x8b, 0xbe, 0x80, 0xa8, 0x73, 0xbd, 0x68, 0xca, 0x1a, 0x3c,
  0x4f, 0x4f, 0xf1, 0x3d, 0x1d, 0x54, 0x21, 0xbe, 0xa0, 0x06, 0x7b, 0xbe,
  0xc8, 0x99, 0x96, 0xbe, 0xeb, 0xeb, 0x07, 0xbe, 0xb7, 0xf1, 0x99, 0x3d,
  0xe4, 0xde, 0x2b, 0xbe, 0x2a, 0x48, 0xa6, 0xbe, 0x9e, 0x15, 0x0d, 0xbf,
  0x09, 0x15, 0x71, 0x3c, 0x74, 0x64, 0x45, 0x3e, 0x18, 0x2d, 0x56, 0x3e,
  0x46, 0x1a, 0x96, 0x3c, 0xb4, 0xd7, 0x90, 0x3e, 0xba, 0x47, 0x80, 0xbc,
  0xf1, 0xbb, 0xc3, 0x3e, 0x91, 0x93, 0x4f, 0xbe, 0x6d, 0x6f, 0x55, 0xbe,
  0x5a, 0xcc, 0x5f, 0x3e, 0xab, 0xc0, 0xb9, 0xbd, 0xca, 0x23, 0x8a, 0xbd,
  0xf2, 0x8e, 0x39, 0xbd, 0x8c, 0x73, 0x26, 0xbc, 0x12, 0x3e, 0x81, 0xbe,
  0x31, 0xe5, 0x00, 0xbe, 0xa0, 0x0a, 0x17, 0x3e, 0x64, 0xeb, 0xb4, 0x3d,
  0x1c, 0x5b, 0x8b, 0x3e, 0x3e, 0xac, 0x22, 0x3e, 0xd2, 0xe5, 0xdc, 0x3e,
  0xb7, 0xbb, 0x23, 0xbe, 0x5b, 0xf8, 0xfb, 0x3c, 0x90, 0x4d, 0x90, 0xbe,
  0x6a, 0xe2, 0x45, 0xbe, 0x50, 0xdd, 0x7a, 0xbc, 0x04, 0x49, 0x92, 0x3c,
  0xd6, 0xf7, 0xff, 0xff, 0x04, 0x00, 0x00, 0x00, 0x00, 0x04, 0x00, 0x00,
  0x82, 0x46, 0xc3, 0xbe, 0x87, 0xd3, 0x77, 0x3e, 0x9e, 0x11, 0xe0, 0x3d,
  0x54, 0x21, 0x1e, 0x3e, 0x37, 0xf5, 0xdf, 0xbd, 0xd7, 0xeb, 0xd8, 0x3e,
  0x7d, 0x78, 0x7f, 0xbe, 0x56, 0xb3, 0x6f, 0xbe, 0x5d, 0xcb, 0x74, 0xbd,
  0x38, 0x14, 0xa6, 0xbd, 0x9d, 0x28, 0xa1, 0xbe, 0x2d, 0x1f, 0x81, 0x3e,
  0xbf, 0x8d, 0x89, 0x3e, 0x6a, 0x3d, 0x48, 0xbd, 0xcf, 0x2b, 0xad, 0xbd,
  0x1a, 0xf3, 0x9a, 0xbe, 0x70, 0x14, 0xfd, 0x3d, 0x49, 0xb7, 0x48, 0xbf,
  0x13, 0xd3, 0x15, 0xbe, 0x2a, 0x44, 0xbd, 0x3e, 0x93, 0x61, 0x80, 0x3e,
  0x3d, 0xf0, 0x06, 0x3d, 0xfe, 0x2a, 0xfa, 0x3e, 0x82, 0x64, 0x6c, 0xbe,
  0x15, 0x8f, 0xe3, 0x3c, 0x7b, 0x85, 0x65, 0xbe, 0xeb, 0x24, 0x85, 0x3e,
  0x10, 0x3a, 0x2f, 0xbe, 0xb3, 0x01, 0x6f, 0xbe, 0xb7, 0x60, 0x3e, 0x3e,
  0x09, 0x5b, 0x18, 0xbe, 0x06, 0xd8, 0x8e, 0x3e, 0x36, 0x28, 0xc7, 0x3e,
  0x5a, 0xe2, 0x01, 0xbe, 0xaa, 0xb4, 0xbd, 0xbe, 0x88, 0xe8, 0xff, 0xbc,
  0x08, 0x9d, 0x1e, 0x3e, 0xfe, 0xc0, 0xc7, 0xbe, 0xe2, 0x68, 0xa4, 0x3e,
  0x71, 0xff, 0x07, 0x3e, 0x18, 0x04, 0x6e, 0x3e, 0xbf, 0xef, 0x19, 0xbc,
  0x02, 0x94, 0x98, 0x3e, 0x1f, 0x6e, 0x91, 0xbe, 0xa5, 0x1a, 0xd7, 0xbe,
  0xe7, 0xc4, 0x8d, 0xbe, 0xd2, 0x28, 0x47, 0x3e, 0xef, 0x48, 0x65, 0x3e,
  0x61, 0x4d, 0xab, 0x3d, 0x3d, 0x15, 0x50, 0xbd, 0xbc, 0x2a, 0xa1, 0xbe,
  0xcb, 0xf9, 0x6f, 0xbe, 0x0e, 0x79, 0x11, 0x3e, 0x97, 0x49, 0xbb, 0x3d,
  0xfa, 0x49, 0x84, 0xbc, 0xaa, 0x6b, 0xf7, 0x3c, 0x76, 0xd3, 0x94, 0x3d,
  0x1a, 0xef, 0x8f, 0xbd, 0x12, 0xfb, 0x6a, 0x3e, 0x2e, 0x40, 0x1d, 0x3e,
  0x9e, 0x5f, 0xea, 0x3d, 0x8d, 0x25, 0xca, 0x3d, 0x47, 0x2f, 0x34, 0x3e,
  0x46, 0x75, 0x4d, 0x3e, 0x85, 0x49, 0x14, 0xbe, 0x1c, 0x7d, 0xb1, 0x3e,
  0x8b, 0x1b, 0x85, 0xbe, 0x6a, 0xc4, 0x34, 0xbf, 0x47, 0x98, 0x99, 0xbf,
  0x06, 0x91, 0x99, 0xbd, 0xee, 0x0b, 0x23, 0x3e, 0x12, 0x9c, 0xa4, 0x3e,
  0x9f, 0xc5, 0xf0, 0x3e, 0xb2, 0x86, 0xf6, 0x3e, 0xea, 0x4e, 0x0f, 0x3e,
  0x24, 0x71, 0x8f, 0xbd, 0x46, 0x5e, 0x8d, 0xbe, 0x48, 0xc2, 0xba, 0xbe,
  0x16, 0xbe, 0x25, 0x3f, 0x55, 0xd4, 0xfa, 0x3d, 0xa4, 0xb7, 0x7e, 0x3e,
  0x39, 0x2f, 0xc4, 0xbe, 0x4e, 0xd4, 0x6d, 0xbc, 0x4d, 0x60, 0xa1, 0xbd,
  0xa2, 0xb3, 0x03, 0x3e, 0xdd, 0x8e, 0x02, 0xbf, 0x9b, 0x5c, 0x81, 0x3e,
  0xaf, 0xa5, 0x91, 0x3e, 0xa3, 0x47, 0x8b, 0x3d, 0x2f, 0x98, 0xf0, 0xbc,
  0xe0, 0x4b, 0xc6, 0x3e, 0xc1, 0x7e, 0xd9, 0xbe, 0xab, 0x64, 0x1a, 0xbe,
  0x25, 0x02, 0x41, 0xbe, 0x69, 0xf7, 0x3e, 0xbe, 0x4e, 0x22, 0xe1, 0x3d,
  0xd1, 0x13, 0x24, 0xbe, 0xf1, 0x35, 0x4a, 0x3d, 0xa2, 0xc2, 0xc4, 0x3d,
  0x44, 0x00, 0x27, 0x3e, 0xf4, 0x86, 0x01, 0xbc, 0x9d, 0x75, 0x59, 0x3e,
  0xe4, 0x49, 0xc2, 0xbe, 0xd5, 0x39, 0x81, 0xbd, 0x4b, 0x0b, 0x87, 0xbd,
  0x5a, 0x17, 0x1e, 0xbd, 0x18, 0x6c, 0x93, 0xbe, 0x17, 0x9c, 0x17, 0x3d,
  0x84, 0x8f, 0xb6, 0xbc, 0x2c, 0x2f, 0x0b, 0x3e, 0x4e, 0x7e, 0x3b, 0xbe,
  0xf4, 0x7a, 0xe0, 0xbd, 0x70, 0x2e, 0x13, 0xbe, 0x74, 0xa8, 0x27, 0x3e,
  0xbc, 0x98, 0x9b, 0x3e, 0x72, 0xc1, 0x49, 0xba, 0x5b, 0x69, 0xc9, 0xbc,
  0xf6, 0x5e, 0xaa, 0x3e, 0x5a, 0xed, 0x88, 0xbe, 0x88, 0x75, 0x03, 0xbe,
  0xbe, 0x63, 0xd6, 0xbe, 0x0b, 0xcd, 0x2b, 0x3d, 0xf7, 0x0a, 0x8c, 0xbd,
  0xbd, 0x75, 0x5e, 0xbd, 0x9f, 0xac, 0x96, 0x3e, 0x38, 0x10, 0x2d, 0x3e,
  0xd2, 0x6b, 0x9a, 0xbe, 0x5b, 0x25, 0xef, 0xbd, 0xeb, 0x28, 0x37, 0xbe,
  0x9e, 0xf4, 0x8a, 0x3d, 0xce, 0x6b, 0x22, 0x3e, 0x4d, 0x1c, 0x8e, 0x3e,
  0xaf, 0x16, 0x63, 0x3d, 0xc6, 0x39, 0x84, 0x3e, 0xbf, 0xd6, 0x32, 0xbe,
  0x40, 0x3f, 0xc7, 0xbd, 0xd1, 0x5a, 0x76, 0xbe, 0x24, 0x3c, 0x1c, 0x3d,
  0x79, 0x19, 0x59, 0xbd, 0xb5, 0x6c, 0x2f, 0x3d, 0xbd, 0x1e, 0xcd, 0x3e,
  0xe1, 0x80, 0x91, 0x3d, 0x1c, 0x3f, 0x22, 0xbe, 0x46, 0xad, 0x5f, 0x3c,
  0x6c, 0xd7, 0x90, 0xbe, 0x24, 0x83, 0x4c, 0xbd, 0x94, 0x95, 0x9a, 0x3d,
  0x69, 0xf3, 0x04, 0x3d, 0x54, 0x95, 0xa4, 0x3e, 0xf9, 0x8d, 0x42, 0x3e,
  0xbb, 0x44, 0x13, 0xbd, 0x6b, 0xae, 0x53, 0xbe, 0x64, 0x5f, 0xa9, 0xbd,
  0xd9, 0x75, 0xf1, 0xbd, 0xe4, 0x62, 0x23, 0xbe, 0xe0, 0x46, 0xb6, 0xbd,
  0x4c, 0x47, 0x2c, 0x3e, 0x35, 0x6c, 0x0c, 0x3e, 0xa2, 0xf1, 0x7b, 0xbe,
  0xa3, 0x48, 0x4d, 0xbd, 0x05, 0x20, 0xb7, 0xbe, 0x35, 0x56, 0xa9, 0x3d,
  0xb9, 0x9d, 0x56, 0x3d, 0xd2, 0xb2, 0xa4, 0xbb, 0x17, 0x30, 0x67, 0x3d,
  0x38, 0x12, 0xb5, 0x3e, 0x7e, 0xd3, 0x80, 0xbe, 0xd6, 0x88, 0x99, 0xbe,
  0xc8, 0x33, 0xb0, 0xbe, 0x47, 0x28, 0xed, 0xbd, 0x65, 0x03, 0x2a, 0xbe,
  0xd3, 0x1c, 0x88, 0x3d, 0x26, 0x4e, 0x6d, 0x3e, 0xa5, 0x9a, 0x52, 0x3e,
  0xed, 0x45, 0x42, 0xbd, 0x92, 0xd4, 0xbd, 0xbe, 0x58, 0xab, 0xb2, 0x3e,
  0xd9, 0x4c, 0x9a, 0xbe, 0x66, 0x88, 0x5b, 0xbe, 0x24, 0x7a, 0x96, 0xbd,
  0x80, 0x82, 0x92, 0xbb, 0xba, 0xfd, 0x1e, 0xbf, 0x84, 0x55, 0xf2, 0x3d,
  0x7e, 0xab, 0x98, 0x3d, 0x2c, 0x50, 0xa7, 0x3e, 0x8a, 0x05, 0xf4, 0xbc,
  0x80, 0xda, 0xb0, 0x3e, 0x25, 0x54, 0x02, 0xbf, 0x86, 0x61, 0x60, 0xbe,
  0x54, 0x1b, 0x1e, 0x3d, 0x54, 0x17, 0x67, 0x3e, 0xf0, 0x32, 0x5f, 0x3e,
  0x7d, 0x6b, 0x70, 0x3d, 0xbb, 0x83, 0x94, 0x3d, 0x46, 0x99, 0x15, 0xbe,
  0xce, 0x1b, 0x94, 0xbd, 0x69, 0x27, 0xb8, 0xb9, 0xb9, 0xc7, 0x9c, 0xbd,
  0x56, 0x85, 0x94, 0x3e, 0xac, 0xb9, 0x4f, 0x3e, 0x85, 0x5d, 0xd7, 0x3d,
  0x80, 0xaf, 0x6c, 0x3e, 0xf6, 0x1c, 0x20, 0x3e, 0x90, 0x4e, 0x90, 0xbe,
  0xcb, 0x87, 0x85, 0xbe, 0xd9, 0xaf, 0x22, 0xbe, 0x81, 0xbf, 0x23, 0x3e,
  0x34, 0xcb, 0x15, 0x3e, 0x7b, 0xf3, 0x91, 0x3e, 0x0a, 0x20, 0xcf, 0xbb,
  0x91, 0xf6, 0xc4, 0xbd, 0xd7, 0x5f, 0x8b, 0xbc, 0xd2, 0xe9, 0x62, 0xbd,
  0xf7, 0x09, 0xb1, 0x3d, 0x5d, 0x56, 0xd8, 0x3e, 0x3f, 0x91, 0x00, 0x3f,
  0x42, 0x5c, 0xf0, 0x3e, 0xa4, 0xa5, 0x98, 0x3d, 0xd8, 0xfb, 0x1b, 0x3e,
  0x95, 0x62, 0x5e, 0xbe, 0x29, 0x36, 0x7b, 0xbe, 0x32, 0xa8, 0xd5, 0xbe,
  0xc1, 0x10, 0xd5, 0x3e, 0xe5, 0x60, 0xd7, 0x3e, 0x28, 0x12, 0x83, 0xbd,
  0x12, 0xce, 0x0d, 0x3d, 0xf7, 0xd5, 0xa6, 0x3e, 0xb4, 0xef, 0x48, 0x3e,
  0xce, 0x83, 0xfc, 0x3d, 0x9d, 0xb7, 0x0b, 0xbd, 0x94, 0x6c, 0xe4, 0xbd,
  0x14, 0xeb, 0x95, 0xbe, 0x71, 0xe2, 0x8b, 0xbe, 0x99, 0x0f, 0x0f, 0xbd,
  0xdb, 0x16, 0x32, 0xbe, 0x71, 0xf5, 0x67, 0x3d, 0x7f, 0x16, 0x4f, 0x3d,
  0x47, 0x36, 0x27, 0xbd, 0x0a, 0xa9, 0x9c, 0xbc, 0x12, 0x41, 0x39, 0xbe,
  0xc4, 0x1c, 0x43, 0xbd, 0xcc, 0x23, 0x14, 0x3a, 0x35, 0xd5, 0x82, 0x3e,
  0x57, 0x56, 0xfc, 0x3c, 0x15, 0x90, 0xd4, 0x3c, 0x28, 0x9f, 0xe6, 0x3e,
  0x3f, 0x02, 0xf8, 0xbd, 0xf8, 0x98, 0x7c, 0xbe, 0xbe, 0x93, 0xf0, 0xbd,
  0x13, 0x1a, 0x73, 0xbd, 0x88, 0x68, 0x82, 0xbb, 0x60, 0x80, 0x7f, 0x3e,
  0x9a, 0x0c, 0x79, 0xbe, 0x0d, 0x69, 0xa7, 0xbd, 0xba, 0x6c, 0x46, 0x3e,
  0xda, 0xed, 0x0d, 0xbf, 0xe2, 0xfb, 0xff, 0xff, 0x04, 0x00, 0x00, 0x00,
  0x00, 0x04, 0x00, 0x00, 0x79, 0x51, 0x04, 0x3e, 0x79, 0x16, 0xb5, 0x3e,
  0x12, 0x59, 0x63, 0xbe, 0xd3, 0xee, 0x81, 0xbd, 0x3e, 0x40, 0x50, 0x3e,
  0x1a, 0x35, 0x98, 0x3d, 0x41, 0x2f, 0x28, 0x3e, 0x23, 0x4a, 0x1a, 0x3e,
  0x78, 0x72, 0x11, 0x3d, 0x42, 0x29, 0x20, 0x3d, 0x25, 0x46, 0x0b, 0x3e,
  0xdf, 0x68, 0x8b, 0x3d, 0x32, 0x14, 0x79, 0xbe, 0xa2, 0x87, 0x36, 0x3d,
  0xf1, 0x01, 0x10, 0x3e, 0x14, 0x36, 0x4b, 0xbe, 0x60, 0xc0, 0xe3, 0xbb,
  0x9b, 0x7b, 0xa3, 0x3d, 0x12, 0x05, 0xae, 0x3e, 0xa5, 0x8c, 0x0d, 0x3e,
  0xb6, 0x2c, 0xff, 0x3e, 0xc9, 0xb9, 0xd8, 0x3d, 0x52, 0xc8, 0x22, 0xbd,
  0x75, 0xed, 0x35, 0xbe, 0x21, 0x09, 0x1a, 0x3e, 0xfe, 0x2d, 0x5e, 0xbd,
  0x9f, 0x5b, 0x1a, 0x3d, 0xd3, 0xab, 0xec, 0x3d, 0x9c, 0x02, 0x9e, 0xbe,
  0x3f, 0x83, 0x6f, 0x3d, 0xdf, 0xd5, 0x4c, 0x3e, 0x02, 0xef, 0xa4, 0xbd,
  0x9f, 0x3d, 0x43, 0xbe, 0x06, 0x4f, 0x06, 0x3e, 0x94, 0xec, 0x7b, 0x3d,
  0x00, 0xed, 0x47, 0xbb, 0xbe, 0x52, 0x58, 0xbe, 0x73, 0xc2, 0xfc, 0x3d,
  0x12, 0x48, 0xa5, 0x3d, 0xa1, 0x63, 0x78, 0xbd, 0xd3, 0xbf, 0x51, 0xbc,
  0x9c, 0x82, 0x12, 0xbe, 0x53, 0xc6, 0xb9, 0xbc, 0xec, 0x9e, 0xef, 0x3c,
  0x8e, 0xc7, 0xfe, 0x3d, 0xb6, 0x35, 0x2a, 0xbd, 0x4e, 0x66, 0xff, 0x3d,
  0x42, 0x7d, 0xab, 0xbe, 0xb8, 0x00, 0x89, 0xbe, 0x0e, 0xec, 0xeb, 0x3e,
  0x37, 0xb1, 0xa3, 0x3e, 0x02, 0x33, 0x2e, 0x3e, 0x7a, 0xce, 0xd0, 0x3e,
  0xe6, 0x25, 0xa3, 0x3e, 0xe4, 0x3b, 0x5d, 0x3d, 0x18, 0x58, 0x08, 0xbe,
  0x06, 0xa6, 0x4c, 0xbe, 0xfb, 0x0f, 0xe6, 0x3d, 0x26, 0xc0, 0x97, 0xbe,
  0x6e, 0xe5, 0xfb, 0x3e, 0xef, 0x25, 0x07, 0x3e, 0x0a, 0x19, 0xc6, 0xbd,
  0x12, 0x4d, 0xfc, 0x3d, 0x16, 0x45, 0x65, 0xbf, 0x52, 0x17, 0xc0, 0xbe,
  0x57, 0x5d, 0xe7, 0x3e, 0xbe, 0x05, 0x1c, 0x3f, 0x36, 0xda, 0x5b, 0x3f,
  0xac, 0xe8, 0x89, 0x3f, 0x23, 0xa1, 0xd3, 0x3e, 0xfb, 0xc2, 0x43, 0xbf,
  0xc1, 0xea, 0x30, 0xbf, 0xae, 0xe4, 0x11, 0xbf, 0x81, 0xa7, 0x21, 0xbf,
  0x3c, 0x0a, 0x20, 0xbf, 0x17, 0x26, 0xbc, 0x3e, 0xa5, 0xe6, 0x22, 0x3f,
  0xf7, 0x1d, 0x0a, 0x3f, 0x90, 0x68, 0x59, 0xbf, 0xde, 0x60, 0x76, 0xbf,
  0xfa, 0xee, 0x10, 0x3e, 0xf5, 0x95, 0xce, 0x3e, 0xa2, 0x98, 0x13, 0xbd,
  0x1a, 0xe6, 0x3e, 0x3d, 0x62, 0x21, 0xa0, 0x3d, 0xa3, 0x49, 0x35, 0xbe,
  0x2e, 0x9b, 0x83, 0x3e, 0x29, 0xd0, 0x32, 0x3d, 0xba, 0x65, 0xec, 0x3d,
  0xf2, 0xfd, 0x8a, 0xbc, 0x17, 0x1a, 0x68, 0x3c, 0x73, 0xf2, 0xa1, 0xbe,
  0x7c, 0x77, 0xf7, 0xbd, 0xbc, 0xc8, 0xc2, 0x3e, 0x44, 0x19, 0x87, 0x3d,
  0xc7, 0x08, 0xdc, 0xbe, 0x0f, 0x7f, 0x10, 0xbd, 0xe0, 0x27, 0xd7, 0x3e,
  0x74, 0xab, 0x5c, 0xbd, 0xaa, 0x69, 0x56, 0xbe, 0x8f, 0xf2, 0x41, 0xbc,
  0xd3, 0xfe, 0x43, 0x3e, 0xc8, 0x01, 0xc6, 0xbe, 0x36, 0x63, 0x98, 0xbd,
  0xa8, 0x70, 0xcf, 0xbc, 0x5d, 0xfc, 0x68, 0x3e, 0x7c, 0x86, 0x03, 0xbe,
  0xa9, 0x8f, 0xd9, 0xbd, 0x17, 0xdd, 0x29, 0x3a, 0x92, 0x28, 0x25, 0xbe,
  0x39, 0x6c, 0x67, 0x3b, 0xb8, 0x8a, 0x63, 0xbe, 0xa2, 0x46, 0xae, 0x3d,
  0xa2, 0xdb, 0x99, 0x3e, 0x6f, 0x99, 0x90, 0x3e, 0x39, 0xea, 0x90, 0xbd,
  0xe8, 0x42, 0x8d, 0x3d, 0x94, 0x9b, 0x67, 0x3d, 0x2f, 0xa9, 0x5e, 0x3d,
  0x49, 0x65, 0xe0, 0x3d, 0x2d, 0xa1, 0x1f, 0xbc, 0x8d, 0x0f, 0x03, 0x3e,
  0xb8, 0xd1, 0x38, 0xbe, 0xc7, 0xe8, 0xc8, 0x3d, 0x38, 0x70, 0x0b, 0xbd,
  0x8c, 0xb2, 0xed, 0xbd, 0xdc, 0xdc, 0xf9, 0xbd, 0xdf, 0xac, 0xa3, 0xbe,
  0x5e, 0xd2, 0x38, 0xbe, 0x8e, 0x96, 0xc6, 0x3d, 0xfb, 0xf6, 0x2b, 0xbe,
  0xda, 0x8b, 0x85, 0xbe, 0xce, 0x4d, 0x7e, 0xbe, 0x7c, 0x10, 0x07, 0x3e,
  0x36, 0x6f, 0xd2, 0x3d, 0x39, 0xa6, 0x22, 0x3c, 0xba, 0xa5, 0xb4, 0xbe,
  0x0e, 0x2c, 0x6e, 0xbb, 0x9d, 0x60, 0x20, 0xbe, 0x7e, 0x18, 0x34, 0x3c,
  0x12, 0x81, 0xcf, 0x3d, 0x67, 0x26, 0x41, 0xbe, 0xda, 0x15, 0x8f, 0xbd,
  0x6b, 0xf8, 0x23, 0xbf, 0xdf, 0xde, 0x91, 0x3d, 0x3e, 0xbf, 0x94, 0x3e,
  0xab, 0x93, 0xd6, 0x3d, 0x11, 0x15, 0x26, 0xbe, 0x45, 0x49, 0x78, 0xbd,
  0x2f, 0x5c, 0xd6, 0x3e, 0xb6, 0x80, 0x0d, 0x3c, 0xe2, 0x38, 0x8b, 0xbd,
  0xc2, 0xa4, 0xda, 0xbd, 0x5b, 0xd9, 0xb2, 0x3d, 0x60, 0xb6, 0xd6, 0xbd,
  0x8d, 0x49, 0x94, 0x3e, 0x76, 0xdf, 0xfd, 0x3d, 0xb0, 0x77, 0x1e, 0x3e,
  0x91, 0x10, 0x67, 0xbe, 0x4b, 0xf8, 0x02, 0xbf, 0x97, 0x7e, 0x24, 0x3e,
  0x7d, 0x90, 0xcf, 0x3e, 0xd1, 0x94, 0x22, 0x3e, 0xed, 0x05, 0xa4, 0x3c,
  0xaf, 0x2e, 0x9d, 0x3e, 0xeb, 0xaa, 0x02, 0x3d, 0xdd, 0x24, 0x3b, 0x3e,
  0x13, 0xcc, 0x09, 0xbe, 0xd3, 0xb4, 0x4c, 0x3c, 0x32, 0x1b, 0x7f, 0xbd,
  0x95, 0x4d, 0x08, 0xbe, 0x53, 0x87, 0xfe, 0xbc, 0xf6, 0xc0, 0x74, 0x3d,
  0x09, 0x79, 0xe6, 0xbd, 0x35, 0xdf, 0xb7, 0x3d, 0x3a, 0xfc, 0xbb, 0xbe,
  0xe7, 0xc2, 0x5c, 0x3e, 0x93, 0x5a, 0x81, 0x3d, 0x8c, 0xd8, 0x96, 0xbe,
  0x54, 0x15, 0x90, 0x3e, 0xe1, 0x4a, 0xfb, 0x3e, 0x4c, 0xb6, 0x5d, 0xbe,
  0xdf, 0x2e, 0x80, 0x3e, 0x09, 0x19, 0x9e, 0x3e, 0x86, 0x56, 0x70, 0x3e,
  0x11, 0x37, 0xf9, 0x3d, 0x79, 0x03, 0xb1, 0x3d, 0xb4, 0xbb, 0xb8, 0x3d,
  0xd8, 0x9b, 0x07, 0xbf, 0xcb, 0x33, 0xca, 0xbd, 0xb4, 0xd2, 0xab, 0x3e,
  0x0e, 0x9d, 0x91, 0xbd, 0x86, 0x68, 0xb6, 0xbd, 0xa8, 0xd0, 0x42, 0x3d,
  0xcd, 0xe9, 0x9d, 0x3d, 0x19, 0x26, 0x29, 0xbe, 0x2e, 0x29, 0xed, 0x3d,
  0xf2, 0x0d, 0x2d, 0x3e, 0x8c, 0x64, 0x39, 0xbd, 0x15, 0xee, 0xea, 0xbd,
  0x24, 0x87, 0x4b, 0xbe, 0x3b, 0xbc, 0x98, 0xbe, 0xb2, 0xaf, 0x35, 0xbd,
  0x21, 0x1c, 0xf3, 0xbd, 0x9a, 0xec, 0x02, 0x3e, 0x03, 0x6f, 0xf4, 0x3d,
  0x56, 0x46, 0xa7, 0x3c, 0xeb, 0x9e, 0x07, 0xbe, 0x8a, 0x24, 0x55, 0xbe,
  0x42, 0xc8, 0xba, 0xbd, 0xe7, 0x50, 0x40, 0x3e, 0x97, 0x43, 0x38, 0x3c,
  0x3d, 0x35, 0x65, 0xbe, 0xf3, 0xe4, 0xb3, 0x3e, 0xa3, 0xd4, 0xe3, 0xbd,
  0x4a, 0xe8, 0xa0, 0x3c, 0x5b, 0xbd, 0x7d, 0xbe, 0x6a, 0x04, 0x25, 0x3d,
  0x88, 0xd3, 0x60, 0xbe, 0x05, 0xe7, 0x9c, 0x3e, 0x81, 0x6f, 0x21, 0x3e,
  0x43, 0x25, 0x50, 0x3e, 0x93, 0x0a, 0x10, 0xbd, 0xc9, 0x9d, 0x1e, 0xbf,
  0x6d, 0x0a, 0xcf, 0xbe, 0x25, 0x09, 0xee, 0x3e, 0x47, 0x7b, 0xee, 0xbc,
  0x9d, 0xea, 0xfe, 0xbd, 0x27, 0x63, 0x8f, 0xbd, 0x44, 0xaf, 0xc3, 0x3e,
  0x03, 0xb6, 0x00, 0xbe, 0xca, 0x02, 0x4c, 0x3d, 0xb0, 0xf0, 0x0c, 0x3e,
  0x71, 0xfa, 0x19, 0x3e, 0x6f, 0x83, 0x33, 0xbe, 0x89, 0x2e, 0xb5, 0x3e,
  0xb6, 0x83, 0x29, 0xbe, 0x50, 0xf0, 0x08, 0x3e, 0x07, 0x6a, 0x1f, 0xbe,
  0x2d, 0x8b, 0xd4, 0xbe, 0xe4, 0x26, 0x97, 0x3c, 0xfc, 0xe0, 0xbb, 0x3d,
  0x56, 0xee, 0x4b, 0xbb, 0xbc, 0xb9, 0xee, 0x3d, 0xb5, 0x71, 0xf0, 0x3e,
  0x15, 0x10, 0x31, 0xbd, 0xf2, 0x42, 0xfd, 0x3b, 0xa8, 0x59, 0x82, 0x3d,
  0xa6, 0xe0, 0x57, 0x3e, 0xc6, 0x7e, 0x92, 0x3e, 0xea, 0x0f, 0x7a, 0x3d,
  0x59, 0x53, 0x87, 0xbe, 0x1f, 0xf7, 0x50, 0xbd, 0xb0, 0x64, 0x20, 0x3d,
  0x08, 0xc2, 0x58, 0x3e, 0xaf, 0xb4, 0xc3, 0x3c, 0xee, 0xff, 0xff, 0xff,
  0x04, 0x00, 0x00, 0x00, 0x04, 0x00, 0x00, 0x00, 0x33, 0x91, 0x1b, 0xb9,
  0x00, 0x00, 0x06, 0x00, 0x08, 0x00, 0x04, 0x00, 0x06, 0x00, 0x00, 0x00,
  0x04, 0x00, 0x00, 0x00, 0x40, 0x00, 0x00, 0x00, 0x00, 0x00, 0x00, 0x00,
  0x00, 0x00, 0x00, 0x00, 0x00, 0x00, 0x00, 0x00, 0x00, 0x00, 0x00, 0x00,
  0x00, 0x00, 0x00, 0x00, 0x00, 0x00, 0x00, 0x00, 0x00, 0x00, 0x00, 0x00,
  0x00, 0x00, 0x00, 0x00, 0x00, 0x00, 0x00, 0x00, 0x00, 0x00, 0x00, 0x00,
  0x00, 0x00, 0x00, 0x00, 0x00, 0x00, 0x00, 0x00, 0x00, 0x00, 0x00, 0x00,
  0x00, 0x00, 0x00, 0x00, 0x00, 0x00, 0x00, 0x00, 0x00, 0x00, 0x00, 0x00,
  0xcc, 0xf4, 0xff, 0xff, 0xd0, 0xf4, 0xff, 0xff, 0x0f, 0x00, 0x00, 0x00,
  0x4d, 0x4c, 0x49, 0x52, 0x20, 0x43, 0x6f, 0x6e, 0x76, 0x65, 0x72, 0x74,
  0x65, 0x64, 0x2e, 0x00, 0x01, 0x00, 0x00, 0x00, 0x14, 0x00, 0x00, 0x00,
  0x00, 0x00, 0x0e, 0x00, 0x18, 0x00, 0x14, 0x00, 0x10, 0x00, 0x0c, 0x00,
  0x08, 0x00, 0x04, 0x00, 0x0e, 0x00, 0x00, 0x00, 0x14, 0x00, 0x00, 0x00,
  0x1c, 0x00, 0x00, 0x00, 0xc4, 0x01, 0x00, 0x00, 0xc8, 0x01, 0x00, 0x00,
  0xcc, 0x01, 0x00, 0x00, 0x04, 0x00, 0x00, 0x00, 0x6d, 0x61, 0x69, 0x6e,
  0x00, 0x00, 0x00, 0x00, 0x03, 0x00, 0x00, 0x00, 0x0c, 0x01, 0x00, 0x00,
  0x5c, 0x00, 0x00, 0x00, 0x14, 0x00, 0x00, 0x00, 0x00, 0x00, 0x0e, 0x00,
  0x1a, 0x00, 0x14, 0x00, 0x10, 0x00, 0x0c, 0x00, 0x0b, 0x00, 0x04, 0x00,
  0x0e, 0x00, 0x00, 0x00, 0x20, 0x00, 0x00, 0x00, 0x00, 0x00, 0x00, 0x08,
  0x20, 0x00, 0x00, 0x00, 0x24, 0x00, 0x00, 0x00, 0x01, 0x00, 0x00, 0x00,
  0x00, 0x00, 0x0a, 0x00, 0x08, 0x00, 0x00, 0x00, 0x00, 0x00, 0x07, 0x00,
  0x0a, 0x00, 0x00, 0x00, 0x00, 0x00, 0x00, 0x01, 0x01, 0x00, 0x00, 0x00,
  0x21, 0x00, 0x00, 0x00, 0x03, 0x00, 0x00, 0x00, 0x20, 0x00, 0x00, 0x00,
  0x1b, 0x00, 0x00, 0x00, 0x02, 0x00, 0x00, 0x00, 0x6a, 0xff, 0xff, 0xff,
  0x14, 0x00, 0x00, 0x00, 0x14, 0x00, 0x00, 0x00, 0x00, 0x00, 0x00, 0x47,
  0x18, 0x00, 0x00, 0x00, 0x1c, 0x00, 0x00, 0x00, 0x00, 0x00, 0x00, 0x00,
  0x54, 0xff, 0xff, 0xff, 0x00, 0x00, 0x20, 0x41, 0x00, 0x00, 0x00, 0x04,
  0x01, 0x00, 0x00, 0x00, 0x20, 0x00, 0x00, 0x00, 0x18, 0x00, 0x00, 0x00,
  0x1d, 0x00, 0x00, 0x00, 0x1a, 0x00, 0x00, 0x00, 0x19, 0x00, 0x00, 0x00,
  0x18, 0x00, 0x00, 0x00, 0x17, 0x00, 0x00, 0x00, 0x12, 0x00, 0x00, 0x00,
  0x11, 0x00, 0x00, 0x00, 0x10, 0x00, 0x00, 0x00, 0x0f, 0x00, 0x00, 0x00,
  0xff, 0xff, 0xff, 0xff, 0xff, 0xff, 0xff, 0xff, 0xff, 0xff, 0xff, 0xff,
  0x16, 0x00, 0x00, 0x00, 0x15, 0x00, 0x00, 0x00, 0x14, 0x00, 0x00, 0x00,
  0x13, 0x00, 0x00, 0x00, 0xff, 0xff, 0xff, 0xff, 0xff, 0xff, 0xff, 0xff,
  0x1e, 0x00, 0x00, 0x00, 0x1f, 0x00, 0x00, 0x00, 0xff, 0xff, 0xff, 0xff,
  0xff, 0xff, 0xff, 0xff, 0xff, 0xff, 0xff, 0xff, 0xff, 0xff, 0xff, 0xff,
  0x00, 0x00, 0x16, 0x00, 0x18, 0x00, 0x00, 0x00, 0x14, 0x00, 0x10, 0x00,
  0x0f, 0x00, 0x08, 0x00, 0x00, 0x00, 0x00, 0x00, 0x00, 0x00, 0x04, 0x00,
  0x16, 0x00, 0x00, 0x00, 0x14, 0x00, 0x00, 0x00, 0x1c, 0x00, 0x00, 0x00,
  0x00, 0x00, 0x00, 0x47, 0x20, 0x00, 0x00, 0x00, 0x24, 0x00, 0x00, 0x00,
  0x00, 0x00, 0x00, 0x00, 0x08, 0x00, 0x0c, 0x00, 0x0b, 0x00, 0x04, 0x00,
  0x08, 0x00, 0x00, 0x00, 0x00, 0x00, 0x20, 0x41, 0x00, 0x00, 0x00, 0x04,
  0x01, 0x00, 0x00, 0x00, 0x1d, 0x00, 0x00, 0x00, 0x18, 0x00, 0x00, 0x00,
  0x00, 0x00, 0x00, 0x00, 0x0e, 0x00, 0x00, 0x00, 0x0d, 0x00, 0x00, 0x00,
  0x0c, 0x00, 0x00, 0x00, 0x0b, 0x00, 0x00, 0x00, 0x06, 0x00, 0x00, 0x00,
  0x05, 0x00, 0x00, 0x00, 0x04, 0x00, 0x00, 0x00, 0x03, 0x00, 0x00, 0x00,
  0xff, 0xff, 0xff, 0xff, 0xff, 0xff, 0xff, 0xff, 0xff, 0xff, 0xff, 0xff,
  0x0a, 0x00, 0x00, 0x00, 0x09, 0x00, 0x00, 0x00, 0x08, 0x00, 0x00, 0x00,
  0x07, 0x00, 0x00, 0x00, 0xff, 0xff, 0xff, 0xff, 0xff, 0xff, 0xff, 0xff,
  0x01, 0x00, 0x00, 0x00, 0x1c, 0x00, 0x00, 0x00, 0xff, 0xff, 0xff, 0xff,
  0xff, 0xff, 0xff, 0xff, 0xff, 0xff, 0xff, 0xff, 0xff, 0xff, 0xff, 0xff,
  0x01, 0x00, 0x00, 0x00, 0x21, 0x00, 0x00, 0x00, 0x01, 0x00, 0x00, 0x00,
  0x00, 0x00, 0x00, 0x00, 0x22, 0x00, 0x00, 0x00, 0x04, 0x09, 0x00, 0x00,
  0xa8, 0x08, 0x00, 0x00, 0x3c, 0x08, 0x00, 0x00, 0xfc, 0x07, 0x00, 0x00,
  0xbc, 0x07, 0x00, 0x00, 0x7c, 0x07, 0x00, 0x00, 0x3c, 0x07, 0x00, 0x00,
  0x00, 0x07, 0x00, 0x00, 0xc4, 0x06, 0x00, 0x00, 0x88, 0x06, 0x00, 0x00,
  0x4c, 0x06, 0x00, 0x00, 0x0c, 0x06, 0x00, 0x00, 0xcc, 0x05, 0x00, 0x00,
  0x88, 0x05, 0x00, 0x00, 0x44, 0x05, 0x00, 0x00, 0x00, 0x05, 0x00, 0x00,
  0xbc, 0x04, 0x00, 0x00, 0x78, 0x04, 0x00, 0x00, 0x34, 0x04, 0x00, 0x00,
  0xf4, 0x03, 0x00, 0x00, 0xb4, 0x03, 0x00, 0x00, 0x74, 0x03, 0x00, 0x00,
  0x34, 0x03, 0x00, 0x00, 0xf0, 0x02, 0x00, 0x00, 0xac, 0x02, 0x00, 0x00,
  0x68, 0x02, 0x00, 0x00, 0x24, 0x02, 0x00, 0x00, 0xd0, 0x01, 0x00, 0x00,
  0x8c, 0x01, 0x00, 0x00, 0x34, 0x01, 0x00, 0x00, 0xf0, 0x00, 0x00, 0x00,
  0xac, 0x00, 0x00, 0x00, 0x54, 0x00, 0x00, 0x00, 0x04, 0x00, 0x00, 0x00,
  0x9a, 0xf7, 0xff, 0xff, 0x00, 0x00, 0x00, 0x01, 0x10, 0x00, 0x00, 0x00,
  0x10, 0x00, 0x00, 0x00, 0x22, 0x00, 0x00, 0x00, 0x28, 0x00, 0x00, 0x00,
  0x84, 0xf7, 0xff, 0xff, 0x19, 0x00, 0x00, 0x00, 0x53, 0x74, 0x61, 0x74,
  0x65, 0x66, 0x75, 0x6c, 0x50, 0x61, 0x72, 0x74, 0x69, 0x74, 0x69, 0x6f,
  0x6e, 0x65, 0x64, 0x43, 0x61, 0x6c, 0x6c, 0x3a, 0x30, 0x00, 0x00, 0x00,
  0x03, 0x00, 0x00, 0x00, 0x01, 0x00, 0x00, 0x00, 0x0a, 0x00, 0x00, 0x00,
  0x01, 0x00, 0x00, 0x00, 0xe6, 0xf7, 0xff, 0xff, 0x00, 0x00, 0x00, 0x01,
  0x10, 0x00, 0x00, 0x00, 0x10, 0x00, 0x00, 0x00, 0x21, 0x00, 0x00, 0x00,
  0x30, 0x00, 0x00, 0x00, 0xd0, 0xf7, 0xff, 0xff, 0x21, 0x00, 0x00, 0x00,
  0x74, 0x66, 0x6c, 0x2e, 0x75, 0x6e, 0x69, 0x64, 0x69, 0x72, 0x65, 0x63,
  0x74, 0x69, 0x6f, 0x6e, 0x61, 0x6c, 0x5f, 0x73, 0x65, 0x71, 0x75, 0x65,
  0x6e, 0x63, 0x65, 0x5f, 0x6c, 0x73, 0x74, 0x6d, 0x31, 0x00, 0x00, 0x00,
  0x03, 0x00, 0x00, 0x00, 0x01, 0x00, 0x00, 0x00, 0x0a, 0x00, 0x00, 0x00,
  0x10, 0x00, 0x00, 0x00, 0x92, 0xf8, 0xff, 0xff, 0x00, 0x00, 0x01, 0x01,
  0x0c, 0x00, 0x00, 0x00, 0x0c, 0x00, 0x00, 0x00, 0x24, 0x00, 0x00, 0x00,
  0x20, 0xf8, 0xff, 0xff, 0x15, 0x00, 0x00, 0x00, 0x6d, 0x6f, 0x64, 0x65,
  0x6c, 0x5f, 0x32, 0x2f, 0x6c, 0x73, 0x74, 0x6d, 0x5f, 0x34, 0x2f, 0x7a,
  0x65, 0x72, 0x6f, 0x73, 0x33, 0x00, 0x00, 0x00, 0x02, 0x00, 0x00, 0x00,
  0x01, 0x00, 0x00, 0x00, 0x10, 0x00, 0x00, 0x00, 0xd2, 0xf8, 0xff, 0xff,
  0x00, 0x00, 0x01, 0x01, 0x0c, 0x00, 0x00, 0x00, 0x0c, 0x00, 0x00, 0x00,
  0x24, 0x00, 0x00, 0x00, 0x60, 0xf8, 0xff, 0xff, 0x15, 0x00, 0x00, 0x00,
  0x6d, 0x6f, 0x64, 0x65, 0x6c, 0x5f, 0x32, 0x2f, 0x6c, 0x73, 0x74, 0x6d,
  0x5f, 0x34, 0x2f, 0x7a, 0x65, 0x72, 0x6f, 0x73, 0x32, 0x00, 0x00, 0x00,
  0x02, 0x00, 0x00, 0x00, 0x01, 0x00, 0x00, 0x00, 0x10, 0x00, 0x00, 0x00,
  0xba, 0xf8, 0xff, 0xff, 0x00, 0x00, 0x00, 0x01, 0x10, 0x00, 0x00, 0x00,
  0x10, 0x00, 0x00, 0x00, 0x1e, 0x00, 0x00, 0x00, 0x30, 0x00, 0x00, 0x00,
  0xa4, 0xf8, 0xff, 0xff, 0x20, 0x00, 0x00, 0x00, 0x74, 0x66, 0x6c, 0x2e,
  0x75, 0x6e, 0x69, 0x64, 0x69, 0x72, 0x65, 0x63, 0x74, 0x69, 0x6f, 0x6e,
  0x61, 0x6c, 0x5f, 0x73, 0x65, 0x71, 0x75, 0x65, 0x6e, 0x63, 0x65, 0x5f,
  0x6c, 0x73, 0x74, 0x6d, 0x00, 0x00, 0x00, 0x00, 0x03, 0x00, 0x00, 0x00,
  0x01, 0x00, 0x00, 0x00, 0x0a, 0x00, 0x00, 0x00, 0x10, 0x00, 0x00, 0x00,
  0x66, 0xf9, 0xff, 0xff, 0x00, 0x00, 0x01, 0x01, 0x0c, 0x00, 0x00, 0x00,
  0x0c, 0x00, 0x00, 0x00, 0x24, 0x00, 0x00, 0x00, 0xf4, 0xf8, 0xff, 0xff,
  0x15, 0x00, 0x00, 0x00, 0x6d, 0x6f, 0x64, 0x65, 0x6c, 0x5f, 0x32, 0x2f,
  0x6c, 0x73, 0x74, 0x6d, 0x5f, 0x34, 0x2f, 0x7a, 0x65, 0x72, 0x6f, 0x73,
  0x31, 0x00, 0x00, 0x00, 0x02, 0x00, 0x00, 0x00, 0x01, 0x00, 0x00, 0x00,
  0x10, 0x00, 0x00, 0x00, 0x4e, 0xf9, 0xff, 0xff, 0x00, 0x00, 0x00, 0x01,
  0x10, 0x00, 0x00, 0x00, 0x10, 0x00, 0x00, 0x00, 0x1c, 0x00, 0x00, 0x00,
  0x30, 0x00, 0x00, 0x00, 0x38, 0xf9, 0xff, 0xff, 0x20, 0x00, 0x00, 0x00,
  0x6d, 0x6f, 0x64, 0x65, 0x6c, 0x5f, 0x32, 0x2f, 0x64, 0x65, 0x6e, 0x73,
  0x65, 0x5f, 0x31, 0x2f, 0x54, 0x65, 0x6e, 0x73, 0x6f, 0x72, 0x64, 0x6f,
  0x74, 0x2f, 0x4d, 0x61, 0x74, 0x4d, 0x75, 0x6c, 0x00, 0x00, 0x00, 0x00,
  0x02, 0x00, 0x00, 0x00, 0x01, 0x00, 0x00, 0x00, 0x10, 0x00, 0x00, 0x00,
  0x9e, 0xf9, 0xff, 0xff, 0x00, 0x00, 0x00, 0x01, 0x10, 0x00, 0x00, 0x00,
  0x10, 0x00, 0x00, 0x00, 0x1b, 0x00, 0x00, 0x00, 0x20, 0x00, 0x00, 0x00,
  0x88, 0xf9, 0xff, 0xff, 0x10, 0x00, 0x00, 0x00, 0x61, 0x72, 0x69, 0x74,
  0x68, 0x2e, 0x63, 0x6f, 0x6e, 0x73, 0x74, 0x61, 0x6e, 0x74, 0x32, 0x33,
  0x00, 0x00, 0x00, 0x00, 0x02, 0x00, 0x00, 0x00, 0x10, 0x00, 0x00, 0x00,
  0x10, 0x00, 0x00, 0x00, 0xde, 0xf9, 0xff, 0xff, 0x00, 0x00, 0x00, 0x01,
  0x10, 0x00, 0x00, 0x00, 0x10, 0x00, 0x00, 0x00, 0x1a, 0x00, 0x00, 0x00,
  0x20, 0x00, 0x00, 0x00, 0xc8, 0xf9, 0xff, 0xff, 0x10, 0x00, 0x00, 0x00,
  0x61, 0x72, 0x69, 0x74, 0x68, 0x2e, 0x63, 0x6f, 0x6e, 0x73, 0x74, 0x61,
  0x6e, 0x74, 0x32, 0x32, 0x00, 0x00, 0x00, 0x00, 0x02, 0x00, 0x00, 0x00,
  0x10, 0x00, 0x00, 0x00, 0x10, 0x00, 0x00, 0x00, 0x1e, 0xfa, 0xff, 0xff,
  0x00, 0x00, 0x00, 0x01, 0x10, 0x00, 0x00, 0x00, 0x10, 0x00, 0x00, 0x00,
  0x19, 0x00, 0x00, 0x00, 0x20, 0x00, 0x00, 0x00, 0x08, 0xfa, 0xff, 0xff,
  0x10, 0x00, 0x00, 0x00, 0x61, 0x72, 0x69, 0x74, 0x68, 0x2e, 0x63, 0x6f,
  0x6e, 0x73, 0x74, 0x61, 0x6e, 0x74, 0x32, 0x31, 0x00, 0x00, 0x00, 0x00,
  0x02, 0x00, 0x00, 0x00, 0x10, 0x00, 0x00, 0x00, 0x10, 0x00, 0x00, 0x00,
  0x5e, 0xfa, 0xff, 0xff, 0x00, 0x00, 0x00, 0x01, 0x10, 0x00, 0x00, 0x00,
  0x10, 0x00, 0x00, 0x00, 0x18, 0x00, 0x00, 0x00, 0x20, 0x00, 0x00, 0x00,
  0x48, 0xfa, 0xff, 0xff, 0x10, 0x00, 0x00, 0x00, 0x61, 0x72, 0x69, 0x74,
  0x68, 0x2e, 0x63, 0x6f, 0x6e, 0x73, 0x74, 0x61, 0x6e, 0x74, 0x32, 0x30,
  0x00, 0x00, 0x00, 0x00, 0x02, 0x00, 0x00, 0x00, 0x10, 0x00, 0x00, 0x00,
  0x10, 0x00, 0x00, 0x00, 0x9e, 0xfa, 0xff, 0xff, 0x00, 0x00, 0x00, 0x01,
  0x10, 0x00, 0x00, 0x00, 0x10, 0x00, 0x00, 0x00, 0x17, 0x00, 0x00, 0x00,
  0x20, 0x00, 0x00, 0x00, 0x88, 0xfa, 0xff, 0xff, 0x10, 0x00, 0x00, 0x00,
  0x61, 0x72, 0x69, 0x74, 0x68, 0x2e, 0x63, 0x6f, 0x6e, 0x73, 0x74, 0x61,
  0x6e, 0x74, 0x31, 0x39, 0x00, 0x00, 0x00, 0x00, 0x01, 0x00, 0x00, 0x00,
  0x10, 0x00, 0x00, 0x00, 0xda, 0xfa, 0xff, 0xff, 0x00, 0x00, 0x00, 0x01,
  0x10, 0x00, 0x00, 0x00, 0x10, 0x00, 0x00, 0x00, 0x16, 0x00, 0x00, 0x00,
  0x20, 0x00, 0x00, 0x00, 0xc4, 0xfa, 0xff, 0xff, 0x10, 0x00, 0x00, 0x00,
  0x61, 0x72, 0x69, 0x74, 0x68, 0x2e, 0x63, 0x6f, 0x6e, 0x73, 0x74, 0x61,
  0x6e, 0x74, 0x31, 0x38, 0x00, 0x00, 0x00, 0x00, 0x01, 0x00, 0x00, 0x00,
  0x10, 0x00, 0x00, 0x00, 0x16, 0xfb, 0xff, 0xff, 0x00, 0x00, 0x00, 0x01,
  0x10, 0x00, 0x00, 0x00, 0x10, 0x00, 0x00, 0x00, 0x15, 0x00, 0x00, 0x00,
  0x20, 0x00, 0x00, 0x00, 0x00, 0xfb, 0xff, 0xff, 0x10, 0x00, 0x00, 0x00,
  0x61, 0x72, 0x69, 0x74, 0x68, 0x2e, 0x63, 0x6f, 0x6e, 0x73, 0x74, 0x61,
  0x6e, 0x74, 0x31, 0x37, 0x00, 0x00, 0x00, 0x00, 0x01, 0x00, 0x00, 0x00,
  0x10, 0x00, 0x00, 0x00, 0x52, 0xfb, 0xff, 0xff, 0x00, 0x00, 0x00, 0x01,
  0x10, 0x00, 0x00, 0x00, 0x10, 0x00, 0x00, 0x00, 0x14, 0x00, 0x00, 0x00,
  0x20, 0x00, 0x00, 0x00, 0x3c, 0xfb, 0xff, 0xff, 0x10, 0x00, 0x00, 0x00,
  0x61, 0x72, 0x69, 0x74, 0x68, 0x2e, 0x63, 0x6f, 0x6e, 0x73, 0x74, 0x61,
  0x6e, 0x74, 0x31, 0x36, 0x00, 0x00, 0x00, 0x00, 0x01, 0x00, 0x00, 0x00,
  0x10, 0x00, 0x00, 0x00, 0x8e, 0xfb, 0xff, 0xff, 0x00, 0x00, 0x00, 0x01,
  0x10, 0x00, 0x00, 0x00, 0x10, 0x00, 0x00, 0x00, 0x13, 0x00, 0x00, 0x00,
  0x20, 0x00, 0x00, 0x00, 0x78, 0xfb, 0xff, 0xff, 0x10, 0x00, 0x00, 0x00,
  0x61, 0x72, 0x69, 0x74, 0x68, 0x2e, 0x63, 0x6f, 0x6e, 0x73, 0x74, 0x61,
  0x6e, 0x74, 0x31, 0x35, 0x00, 0x00, 0x00, 0x00, 0x02, 0x00, 0x00, 0x00,
  0x10, 0x00, 0x00, 0x00, 0x10, 0x00, 0x00, 0x00, 0xce, 0xfb, 0xff, 0xff,
  0x00, 0x00, 0x00, 0x01, 0x10, 0x00, 0x00, 0x00, 0x10, 0x00, 0x00, 0x00,
  0x12, 0x00, 0x00, 0x00, 0x20, 0x00, 0x00, 0x00, 0xb8, 0xfb, 0xff, 0xff,
  0x10, 0x00, 0x00, 0x00, 0x61, 0x72, 0x69, 0x74, 0x68, 0x2e, 0x63, 0x6f,
  0x6e, 0x73, 0x74, 0x61, 0x6e, 0x74, 0x31, 0x34, 0x00, 0x00, 0x00, 0x00,
  0x02, 0x00, 0x00, 0x00, 0x10, 0x00, 0x00, 0x00, 0x10, 0x00, 0x00, 0x00,
  0x0e, 0xfc, 0xff, 0xff, 0x00, 0x00, 0x00, 0x01, 0x10, 0x00, 0x00, 0x00,
  0x10, 0x00, 0x00, 0x00, 0x11, 0x00, 0x00, 0x00, 0x20, 0x00, 0x00, 0x00,
  0xf8, 0xfb, 0xff, 0xff, 0x10, 0x00, 0x00, 0x00, 0x61, 0x72, 0x69, 0x74,
  0x68, 0x2e, 0x63, 0x6f, 0x6e, 0x73, 0x74, 0x61, 0x6e, 0x74, 0x31, 0x33,
  0x00, 0x00, 0x00, 0x00, 0x02, 0x00, 0x00, 0x00, 0x10, 0x00, 0x00, 0x00,
  0x10, 0x00, 0x00, 0x00, 0x4e, 0xfc, 0xff, 0xff, 0x00, 0x00, 0x00, 0x01,
  0x10, 0x00, 0x00, 0x00, 0x10, 0x00, 0x00, 0x00, 0x10, 0x00, 0x00, 0x00,
