unsigned char model_autoencoder_tflite[] = {
  0x1c, 0x00, 0x00, 0x00, 0x54, 0x46, 0x4c, 0x33, 0x14, 0x00, 0x20, 0x00,
  0x1c, 0x00, 0x18, 0x00, 0x14, 0x00, 0x10, 0x00, 0x0c, 0x00, 0x00, 0x00,
  0x08, 0x00, 0x04, 0x00, 0x14, 0x00, 0x00, 0x00, 0x1c, 0x00, 0x00, 0x00,
  0x8c, 0x00, 0x00, 0x00, 0xe4, 0x00, 0x00, 0x00, 0xbc, 0x37, 0x00, 0x00,
  0xcc, 0x37, 0x00, 0x00, 0x04, 0x43, 0x00, 0x00, 0x03, 0x00, 0x00, 0x00,
  0x01, 0x00, 0x00, 0x00, 0x10, 0x00, 0x00, 0x00, 0x00, 0x00, 0x0a, 0x00,
  0x10, 0x00, 0x0c, 0x00, 0x08, 0x00, 0x04, 0x00, 0x0a, 0x00, 0x00, 0x00,
  0x0c, 0x00, 0x00, 0x00, 0x1c, 0x00, 0x00, 0x00, 0x38, 0x00, 0x00, 0x00,
  0x0f, 0x00, 0x00, 0x00, 0x73, 0x65, 0x72, 0x76, 0x69, 0x6e, 0x67, 0x5f,
  0x64, 0x65, 0x66, 0x61, 0x75, 0x6c, 0x74, 0x00, 0x01, 0x00, 0x00, 0x00,
  0x04, 0x00, 0x00, 0x00, 0x9c, 0xff, 0xff, 0xff, 0x21, 0x00, 0x00, 0x00,
  0x04, 0x00, 0x00, 0x00, 0x07, 0x00, 0x00, 0x00, 0x64, 0x65, 0x6e, 0x73,
  0x65, 0x5f, 0x31, 0x00, 0x01, 0x00, 0x00, 0x00, 0x04, 0x00, 0x00, 0x00,
  0x0e, 0xc9, 0xff, 0xff, 0x04, 0x00, 0x00, 0x00, 0x07, 0x00, 0x00, 0x00,
  0x69, 0x6e, 0x70, 0x75, 0x74, 0x5f, 0x32, 0x00, 0x02, 0x00, 0x00, 0x00,
  0x34, 0x00, 0x00, 0x00, 0x04, 0x00, 0x00, 0x00, 0xdc, 0xff, 0xff, 0xff,
  0x24, 0x00, 0x00, 0x00, 0x04, 0x00, 0x00, 0x00, 0x13, 0x00, 0x00, 0x00,
  0x43, 0x4f, 0x4e, 0x56, 0x45, 0x52, 0x53, 0x49, 0x4f, 0x4e, 0x5f, 0x4d,
  0x45, 0x54, 0x41, 0x44, 0x41, 0x54, 0x41, 0x00, 0x08, 0x00, 0x0c, 0x00,
  0x08, 0x00, 0x04, 0x00, 0x08, 0x00, 0x00, 0x00, 0x23, 0x00, 0x00, 0x00,
  0x04, 0x00, 0x00, 0x00, 0x13, 0x00, 0x00, 0x00, 0x6d, 0x69, 0x6e, 0x5f,
  0x72, 0x75, 0x6e, 0x74, 0x69, 0x6d, 0x65, 0x5f, 0x76, 0x65, 0x72, 0x73,
  0x69, 0x6f, 0x6e, 0x00, 0x25, 0x00, 0x00, 0x00, 0xd4, 0x36, 0x00, 0x00,
  0xcc, 0x36, 0x00, 0x00, 0x7c, 0x36, 0x00, 0x00, 0x60, 0x36, 0x00, 0x00,
  0x50, 0x32, 0x00, 0x00, 0x40, 0x2e, 0x00, 0x00, 0x30, 0x2a, 0x00, 0x00,
  0x20, 0x26, 0x00, 0x00, 0xd0, 0x25, 0x00, 0x00, 0x80, 0x25, 0x00, 0x00,
  0x30, 0x25, 0x00, 0x00, 0xe0, 0x24, 0x00, 0x00, 0x90, 0x24, 0x00, 0x00,
  0x40, 0x24, 0x00, 0x00, 0xf0, 0x23, 0x00, 0x00, 0xa0, 0x23, 0x00, 0x00,
  0x90, 0x1f, 0x00, 0x00, 0x80, 0x1b, 0x00, 0x00, 0x70, 0x17, 0x00, 0x00,
  0x60, 0x13, 0x00, 0x00, 0x10, 0x13, 0x00, 0x00, 0xc0, 0x12, 0x00, 0x00,
  0x70, 0x12, 0x00, 0x00, 0x20, 0x12, 0x00, 0x00, 0x10, 0x0e, 0x00, 0x00,
  0x00, 0x0a, 0x00, 0x00, 0xf0, 0x05, 0x00, 0x00, 0xe0, 0x01, 0x00, 0x00,
  0x90, 0x01, 0x00, 0x00, 0x40, 0x01, 0x00, 0x00, 0x38, 0x01, 0x00, 0x00,
  0xe8, 0x00, 0x00, 0x00, 0x98, 0x00, 0x00, 0x00, 0x90, 0x00, 0x00, 0x00,
  0x88, 0x00, 0x00, 0x00, 0x68, 0x00, 0x00, 0x00, 0x04, 0x00, 0x00, 0x00,
  0x16, 0xca, 0xff, 0xff, 0x04, 0x00, 0x00, 0x00, 0x54, 0x00, 0x00, 0x00,
  0x0c, 0x00, 0x00, 0x00, 0x08, 0x00, 0x0e, 0x00, 0x08, 0x00, 0x04, 0x00,
  0x08, 0x00, 0x00, 0x00, 0x10, 0x00, 0x00, 0x00, 0x24, 0x00, 0x00, 0x00,
  0x00, 0x00, 0x06, 0x00, 0x08, 0x00, 0x04, 0x00, 0x06, 0x00, 0x00, 0x00,
  0x04, 0x00, 0x00, 0x00, 0x00, 0x00, 0x00, 0x00, 0x00, 0x00, 0x0a, 0x00,
  0x10, 0x00, 0x0c, 0x00, 0x08, 0x00, 0x04, 0x00, 0x0a, 0x00, 0x00, 0x00,
  0x02, 0x00, 0x00, 0x00, 0x02, 0x00, 0x00, 0x00, 0x04, 0x00, 0x00, 0x00,
  0x06, 0x00, 0x00, 0x00, 0x32, 0x2e, 0x31, 0x31, 0x2e, 0x30, 0x00, 0x00,
  0x76, 0xca, 0xff, 0xff, 0x04, 0x00, 0x00, 0x00, 0x10, 0x00, 0x00, 0x00,
  0x32, 0x2e, 0x30, 0x2e, 0x30, 0x00, 0x00, 0x00, 0x00, 0x00, 0x00, 0x00,
  0x00, 0x00, 0x00, 0x00, 0x20, 0xbf, 0xff, 0xff, 0x24, 0xbf, 0xff, 0xff,
  0x9a, 0xca, 0xff, 0xff, 0x04, 0x00, 0x00, 0x00, 0x40, 0x00, 0x00, 0x00,
  0x00, 0x00, 0x00, 0x00, 0x00, 0x00, 0x00, 0x00, 0x00, 0x00, 0x00, 0x00,
  0x00, 0x00, 0x00, 0x00, 0x00, 0x00, 0x00, 0x00, 0x00, 0x00, 0x00, 0x00,
  0x00, 0x00, 0x00, 0x00, 0x00, 0x00, 0x00, 0x00, 0x00, 0x00, 0x00, 0x00,
  0x00, 0x00, 0x00, 0x00, 0x00, 0x00, 0x00, 0x00, 0x00, 0x00, 0x00, 0x00,
  0x00, 0x00, 0x00, 0x00, 0x00, 0x00, 0x00, 0x00, 0x00, 0x00, 0x00, 0x00,
  0x00, 0x00, 0x00, 0x00, 0xe6, 0xca, 0xff, 0xff, 0x04, 0x00, 0x00, 0x00,
  0x40, 0x00, 0x00, 0x00, 0x00, 0x00, 0x00, 0x00, 0x00, 0x00, 0x00, 0x00,
  0x00, 0x00, 0x00, 0x00, 0x00, 0x00, 0x00, 0x00, 0x00, 0x00, 0x00, 0x00,
  0x00, 0x00, 0x00, 0x00, 0x00, 0x00, 0x00, 0x00, 0x00, 0x00, 0x00, 0x00,
  0x00, 0x00, 0x00, 0x00, 0x00, 0x00, 0x00, 0x00, 0x00, 0x00, 0x00, 0x00,
  0x00, 0x00, 0x00, 0x00, 0x00, 0x00, 0x00, 0x00, 0x00, 0x00, 0x00, 0x00,
  0x00, 0x00, 0x00, 0x00, 0x00, 0x00, 0x00, 0x00, 0xc0, 0xbf, 0xff, 0xff,
  0x36, 0xcb, 0xff, 0xff, 0x04, 0x00, 0x00, 0x00, 0x40, 0x00, 0x00, 0x00,
  0x00, 0x00, 0x00, 0x00, 0x00, 0x00, 0x00, 0x00, 0x00, 0x00, 0x00, 0x00,
  0x00, 0x00, 0x00, 0x00, 0x00, 0x00, 0x00, 0x00, 0x00, 0x00, 0x00, 0x00,
  0x00, 0x00, 0x00, 0x00, 0x00, 0x00, 0x00, 0x00, 0x00, 0x00, 0x00, 0x00,
  0x00, 0x00, 0x00, 0x00, 0x00, 0x00, 0x00, 0x00, 0x00, 0x00, 0x00, 0x00,
  0x00, 0x00, 0x00, 0x00, 0x00, 0x00, 0x00, 0x00, 0x00, 0x00, 0x00, 0x00,
  0x00, 0x00, 0x00, 0x00, 0x82, 0xcb, 0xff, 0xff, 0x04, 0x00, 0x00, 0x00,
  0x40, 0x00, 0x00, 0x00, 0x85, 0xab, 0x0a, 0xbf, 0xb0, 0x91, 0x24, 0xbf,
  0x65, 0x1e, 0xf1, 0x3e, 0xc2, 0xdc, 0x24, 0x3f, 0x59, 0x1f, 0x47, 0x3f,
  0x40, 0xd7, 0x84, 0x3d, 0x55, 0x9e, 0x4f, 0x3f, 0xd4, 0x4e, 0x19, 0x3f,
  0x35, 0x53, 0x14, 0x3f, 0x66, 0x1a, 0x0e, 0xbf, 0x6b, 0xff, 0xd8, 0x3e,
  0x9c, 0x0a, 0x33, 0xbf, 0x41, 0xed, 0x3a, 0xbf, 0x2a, 0x09, 0xef, 0xbe,
  0x14, 0xff, 0x3a, 0x3f, 0x38, 0x15, 0x11, 0xbf, 0xce, 0xcb, 0xff, 0xff,
  0x04, 0x00, 0x00, 0x00, 0x00, 0x04, 0x00, 0x00, 0x81, 0xc8, 0x16, 0x3f,
  0xba, 0x0c, 0xe4, 0xbf, 0x9b, 0x3f, 0x8b, 0x3d, 0xed, 0x44, 0x65, 0x3f,
  0xdd, 0x81, 0xbd, 0xbe, 0x2e, 0xae, 0x01, 0xbf, 0x76, 0x59, 0xb3, 0x3e,
  0xed, 0xfb, 0x8c, 0xbe, 0xa7, 0xa2, 0x52, 0x3f, 0x92, 0x7d, 0x77, 0xbf,
  0x02, 0x00, 0x6e, 0x3e, 0x2f, 0x65, 0x96, 0x3f, 0x09, 0x5a, 0x00, 0x3f,
  0xf5, 0x19, 0x9c, 0x3e, 0x19, 0xbd, 0x8c, 0x3f, 0x15, 0x31, 0x42, 0xbf,
  0x3a, 0x85, 0xb8, 0x3e, 0x48, 0x2c, 0x09, 0xbf, 0x2a, 0x80, 0xa2, 0x3d,
  0x0c, 0x7b, 0xc2, 0x3e, 0xf7, 0x2c, 0x4a, 0x3e, 0xc2, 0xa3, 0x2f, 0xbe,
  0xb8, 0x6e, 0xf7, 0x3e, 0xa2, 0x1c, 0x51, 0xbe, 0xe9, 0x11, 0xc6, 0x3e,
  0x49, 0x6d, 0xb8, 0xbe, 0x71, 0x2d, 0x7b, 0x3d, 0xbe, 0x65, 0x1b, 0x3f,
  0xda, 0x81, 0xe1, 0x3e, 0x6c, 0x28, 0x9d, 0x3e, 0xdc, 0x5a, 0x16, 0x3f,
  0xa1, 0x3c, 0xde, 0xbe, 0x9b, 0xb7, 0xd7, 0x3e, 0xb2, 0xc0, 0x89, 0xbf,
  0x05, 0xcb, 0x0b, 0xbe, 0xe6, 0xc9, 0x1e, 0x3f, 0x63, 0xb2, 0xc0, 0xbd,
  0x73, 0x00, 0xaf, 0x3d, 0x50, 0xa2, 0x0c, 0x3f, 0xed, 0x4a, 0x80, 0xbe,
  0x38, 0x06, 0x2f, 0x3f, 0x21, 0x04, 0x98, 0xbe, 0x58, 0x8a, 0x5b, 0xbe,
  0xbf, 0xd6, 0x80, 0x3f, 0xaa, 0x82, 0x83, 0xbb, 0x8b, 0xcf, 0x8b, 0x3e,
  0xe2, 0xc3, 0x44, 0x3f, 0x8d, 0xbf, 0x2d, 0xbf, 0x41, 0x76, 0x44, 0x3e,
  0x48, 0xed, 0xe0, 0xbe, 0x37, 0xb7, 0x63, 0x3e, 0x5e, 0xaa, 0x20, 0x3d,
  0xcc, 0x29, 0x43, 0xbe, 0xea, 0x33, 0xef, 0xbe, 0x9f, 0xf7, 0xe3, 0x3e,
  0xe2, 0xc3, 0x02, 0xbf, 0x0e, 0x66, 0x77, 0x3d, 0xed, 0x1c, 0x26, 0xbe,
  0x09, 0xfc, 0x84, 0x3e, 0xfd, 0xd0, 0x87, 0x3e, 0xe6, 0x17, 0x05, 0x3e,
  0x99, 0x66, 0xdc, 0x3e, 0xe9, 0xf2, 0xb2, 0x3e, 0x8c, 0xd5, 0x12, 0xbf,
  0x66, 0xfc, 0xa8, 0x3e, 0x98, 0x11, 0x1a, 0xbf, 0x55, 0xdb, 0xe8, 0xbe,
  0x8b, 0xd4, 0xf0, 0x3e, 0x3a, 0xb0, 0x11, 0xbe, 0x2c, 0x37, 0x15, 0xbd,
  0x72, 0xf3, 0x7b, 0x3e, 0xa3, 0xab, 0x6f, 0xbe, 0x8d, 0xb1, 0x0e, 0xbd,
  0xe7, 0x9f, 0x9e, 0xbd, 0xd5, 0x97, 0xe0, 0x3b, 0xd4, 0x44, 0x93, 0x3e,
  0x67, 0x0e, 0x95, 0x3e, 0xff, 0x77, 0x0d, 0x3f, 0x28, 0xac, 0xc7, 0x3e,
  0x52, 0xdd, 0x3c, 0xbf, 0xcb, 0x84, 0xdc, 0xbe, 0x90, 0x24, 0x77, 0xbf,
  0x1a, 0x96, 0x7d, 0x3e, 0x7b, 0x02, 0xcc, 0xbd, 0x2a, 0x56, 0x05, 0xbf,
  0x58, 0x06, 0xc6, 0x3e, 0x0a, 0xe7, 0x12, 0xbf, 0x6c, 0x5e, 0x46, 0x3e,
  0xba, 0xcc, 0xc4, 0xbe, 0x2d, 0x1c, 0x66, 0x3e, 0x34, 0xbb, 0xac, 0x3d,
  0x9d, 0x4c, 0x65, 0x3e, 0x87, 0x5a, 0xbf, 0xbe, 0x4f, 0xdf, 0x38, 0xbf,
  0x6c, 0x21, 0x11, 0x3f, 0x0b, 0x0a, 0x00, 0x3f, 0xb3, 0x03, 0xdb, 0x3e,
  0xbd, 0xdb, 0x0b, 0xbf, 0x7e, 0xcd, 0x7b, 0xbe, 0x11, 0x89, 0xb7, 0x3e,
  0x0e, 0x19, 0xb1, 0xbd, 0x4e, 0xd7, 0x8f, 0xbd, 0x5a, 0xe0, 0x1b, 0x3f,
  0x36, 0x91, 0xab, 0xbe, 0x19, 0x2e, 0x8f, 0x3e, 0x87, 0x27, 0x00, 0xbf,
  0x71, 0x31, 0x68, 0xbe, 0x93, 0x13, 0xd8, 0x3e, 0xb3, 0xc9, 0xa1, 0x3e,
  0xd2, 0x0f, 0xc7, 0x3e, 0xfa, 0x1b, 0x00, 0x3f, 0x11, 0xf2, 0x14, 0xbf,
  0xec, 0x8b, 0xe7, 0x3e, 0xc3, 0x2e, 0x4f, 0x3d, 0x35, 0x08, 0x84, 0xbc,
  0x70, 0xb5, 0xcc, 0x3c, 0x82, 0x6a, 0x8d, 0x3e, 0x77, 0xa1, 0xd1, 0xbe,
  0x5a, 0x89, 0x38, 0x3f, 0x84, 0x60, 0xaa, 0xbe, 0x28, 0xd4, 0x05, 0x3c,
  0xa5, 0x8f, 0x13, 0x3e, 0xbd, 0x22, 0x0c, 0x3e, 0x73, 0x50, 0x07, 0x3e,
  0xea, 0x96, 0xca, 0x3e, 0x7d, 0x15, 0xa6, 0x3e, 0xf7, 0x0a, 0x16, 0x3e,
  0x9a, 0xb5, 0x04, 0xbf, 0xc3, 0xc6, 0xe9, 0x3e, 0x36, 0xbb, 0xb4, 0xbf,
  0x2f, 0xdd, 0x42, 0x3e, 0x7d, 0x28, 0x89, 0x3f, 0xad, 0x27, 0xea, 0xbd,
  0x07, 0xf5, 0x67, 0xbe, 0x19, 0xb9, 0xa2, 0x3e, 0x06, 0xaf, 0x2e, 0xbf,
  0x0e, 0xab, 0x1e, 0x3f, 0xb3, 0x38, 0x5b, 0xbf, 0x05, 0xe8, 0xd9, 0xbd,
  0x10, 0x4a, 0x99, 0x3f, 0x33, 0x9c, 0x21, 0x3f, 0xda, 0x16, 0xcc, 0x3d,
  0xad, 0x85, 0x85, 0x3f, 0x23, 0x4f, 0x3f, 0xbf, 0x78, 0x3f, 0x9b, 0x3e,
  0xb2, 0xa0, 0xb6, 0xbf, 0x16, 0xe1, 0x19, 0xbe, 0x64, 0x72, 0x13, 0x3f,
  0x64, 0x81, 0x76, 0xbe, 0xfb, 0x61, 0x96, 0xbe, 0x63, 0x82, 0x50, 0x3e,
  0x87, 0x91, 0x0f, 0xbf, 0x83, 0xe8, 0x07, 0x3f, 0x8e, 0xc3, 0x0e, 0xbf,
  0xeb, 0xa4, 0x94, 0x3d, 0x74, 0x58, 0x45, 0x3f, 0xb9, 0x0e, 0xe0, 0x3e,
  0x50, 0xb2, 0x17, 0x3e, 0x72, 0xdc, 0x3a, 0x3f, 0x58, 0x8f, 0x15, 0xbf,
  0x9e, 0x12, 0x82, 0x3e, 0xe3, 0xaa, 0xba, 0xbf, 0xd0, 0xa2, 0x29, 0xbe,
  0xda, 0x86, 0xa9, 0x3f, 0x2c, 0xe4, 0x87, 0xbd, 0xcb, 0x2b, 0x1a, 0xbf,
  0xd0, 0x88, 0x28, 0x3f, 0x08, 0x9d, 0x23, 0xbe, 0x35, 0xf0, 0x51, 0x3f,
  0xab, 0x5d, 0x1b, 0xbf, 0x76, 0x02, 0xbb, 0xbe, 0x4b, 0x3e, 0x72, 0x3f,
  0x09, 0x71, 0x92, 0x3e, 0x25, 0xae, 0x25, 0x3e, 0xf1, 0xcd, 0x5c, 0x3f,
  0x9c, 0x56, 0x3e, 0xbf, 0xe5, 0x85, 0xfb, 0x3e, 0x68, 0x03, 0x72, 0xbf,
  0x0c, 0x25, 0x28, 0x3e, 0x27, 0xf4, 0x30, 0x3f, 0x10, 0xaf, 0x4d, 0xbc,
  0x72, 0xdd, 0xe1, 0xbe, 0x6b, 0xde, 0x1b, 0x3f, 0x88, 0x26, 0xdb, 0xbe,
  0x15, 0x18, 0xd2, 0x3e, 0x11, 0x67, 0x39, 0xbf, 0x34, 0xca, 0x73, 0xbd,
  0x31, 0x51, 0xc8, 0x3e, 0x20, 0xec, 0x00, 0x3f, 0x10, 0xc9, 0x0b, 0xbd,
  0xca, 0x02, 0x37, 0x3f, 0xe2, 0xc7, 0xf6, 0xbe, 0xd5, 0x41, 0x87, 0x3e,
  0x4b, 0x86, 0x83, 0xbe, 0x33, 0x9e, 0x67, 0xbe, 0xd5, 0xe7, 0x10, 0xbe,
  0xfd, 0xc4, 0x20, 0xbd, 0x4a, 0x30, 0x0a, 0xbf, 0x3c, 0xb9, 0xf3, 0x3e,
  0x90, 0x8c, 0x32, 0xbe, 0x31, 0xd4, 0x75, 0xbe, 0xb7, 0x8f, 0x07, 0xbe,
  0xec, 0xd4, 0x3d, 0x3e, 0x9d, 0xfd, 0x23, 0x3d, 0xe8, 0x12, 0xdc, 0x3e,
  0xa0, 0x74, 0x11, 0x3f, 0xae, 0xfc, 0xd1, 0x3e, 0x48, 0x71, 0x29, 0xbf,
  0x37, 0x14, 0xce, 0x3e, 0xf8, 0x85, 0xaa, 0xbf, 0xed, 0x68, 0x37, 0xbe,
  0x6f, 0x30, 0x5f, 0x3f, 0xfc, 0x96, 0xfb, 0xbe, 0x2b, 0xc8, 0xdc, 0xbe,
  0x83, 0x26, 0xbc, 0x3e, 0x64, 0xeb, 0x74, 0xbe, 0x52, 0x9b, 0x47, 0x3f,
  0x7a, 0x1f, 0x48, 0xbf, 0x20, 0x41, 0x9e, 0x3c, 0xe7, 0xe6, 0x45, 0x3f,
  0xc0, 0x97, 0x08, 0x3f, 0x72, 0xce, 0xf6, 0x3e, 0xf4, 0x53, 0x4c, 0x3f,
  0x37, 0xf7, 0xca, 0xbe, 0x73, 0xb1, 0xa2, 0x3e, 0x74, 0xec, 0x10, 0xbf,
  0xe9, 0x85, 0x14, 0xbe, 0x8b, 0xb7, 0x6e, 0x3e, 0xc9, 0x26, 0x86, 0x3d,
  0xc6, 0x8c, 0x19, 0xbe, 0xed, 0x3f, 0xbc, 0x3e, 0x76, 0xd4, 0x67, 0xbe,
  0xeb, 0x93, 0x16, 0x3f, 0x4f, 0x04, 0x41, 0xbf, 0x72, 0x39, 0xae, 0x3d,
  0xe3, 0xcc, 0x52, 0x3f, 0x8b, 0x87, 0xe2, 0x3e, 0x76, 0x67, 0xde, 0x3e,
  0xb8, 0x58, 0x54, 0x3f, 0x42, 0x8b, 0x1e, 0xbf, 0x28, 0x39, 0xc5, 0x3e,
  0xcf, 0xc8, 0x4b, 0xbf, 0x6a, 0x01, 0x08, 0xbc, 0xad, 0x10, 0x1a, 0x3f,
  0x27, 0x21, 0x3b, 0xbe, 0xe0, 0xa2, 0xdb, 0xbe, 0xbc, 0x08, 0xaf, 0x3e,
  0xf8, 0x59, 0xb4, 0xbe, 0x67, 0x16, 0xcf, 0x3d, 0x16, 0xf9, 0x1b, 0xbf,
  0x17, 0xf1, 0x86, 0xbe, 0xed, 0x15, 0x31, 0x3f, 0xf7, 0x67, 0x37, 0x3e,
  0xb7, 0x33, 0x8f, 0x3e, 0x1f, 0x96, 0x19, 0x3f, 0x06, 0x2e, 0xb3, 0xbe,
  0xda, 0xcf, 0xff, 0xff, 0x04, 0x00, 0x00, 0x00, 0x00, 0x04, 0x00, 0x00,
  0x89, 0xdf, 0x60, 0x3e, 0x70, 0xd0, 0xba, 0x3c, 0x88, 0xd5, 0x47, 0xbe,
  0xff, 0xce, 0x4c, 0x3e, 0xd0, 0x3f, 0x36, 0x3e, 0x59, 0xa8, 0xb9, 0xbd,
  0x37, 0x6d, 0x7e, 0x3e, 0xfa, 0x8b, 0xf8, 0x3e, 0xfe, 0x80, 0xce, 0xbb,
  0x1b, 0x77, 0x85, 0x3e, 0x9e, 0xc6, 0x4d, 0xbe, 0xbf, 0xd1, 0x9a, 0x3d,
  0x18, 0x00, 0x80, 0xbd, 0xcd, 0xd9, 0x18, 0x3c, 0xf7, 0x59, 0x13, 0xbe,
  0x51, 0x44, 0xc8, 0x3d, 0x60, 0x68, 0x97, 0x3e, 0xa4, 0x0a, 0xa6, 0xbd,
  0xee, 0x63, 0xa6, 0x3c, 0x39, 0x5c, 0xb5, 0x3d, 0x98, 0x28, 0xac, 0x3e,
  0xe8, 0x4d, 0xea, 0xbe, 0xa2, 0x27, 0xf7, 0x3d, 0xef, 0x9f, 0x90, 0x3e,
  0xb9, 0x68, 0xaa, 0x3d, 0x72, 0xaa, 0x1c, 0x3f, 0xa2, 0x3d, 0x15, 0x3e,
  0x9c, 0x39, 0x55, 0xbd, 0xee, 0x59, 0x98, 0x3e, 0x09, 0x2d, 0x98, 0x3e,
  0xd9, 0x7d, 0xa1, 0xbe, 0x1c, 0x7b, 0xa2, 0xbc, 0x78, 0x5d, 0xec, 0x3e,
  0xe4, 0x04, 0x57, 0xba, 0xb2, 0xa0, 0x35, 0x3d, 0xf8, 0x43, 0xe0, 0x3d,
  0xe5, 0xa5, 0x87, 0x3e, 0xa2, 0xf2, 0xa5, 0xbe, 0x53, 0x53, 0x62, 0xbd,
  0x70, 0x10, 0x1b, 0x3f, 0x90, 0xa5, 0x17, 0x3e, 0xc4, 0x7b, 0xfd, 0x3d,
  0x53, 0xc0, 0x24, 0x3d, 0x60, 0x1e, 0x17, 0x3e, 0xd4, 0x87, 0xa7, 0x3d,
  0x40, 0xb6, 0xdf, 0x3e, 0xc8, 0x8c, 0xcb, 0xbe, 0xf2, 0xca, 0xb1, 0xbd,
  0x1c, 0xdc, 0x87, 0xbe, 0x59, 0xd2, 0xd0, 0xbc, 0x9a, 0x52, 0xa6, 0x3d,
  0xbb, 0xbf, 0x25, 0x3f, 0xe4, 0x3b, 0xa4, 0xbe, 0xde, 0x25, 0x36, 0x3e,
  0x62, 0x83, 0x9c, 0xbe, 0xd1, 0x60, 0xd2, 0x3e, 0xe2, 0x41, 0xe9, 0x3d,
  0xec, 0x36, 0x86, 0xbc, 0xd0, 0xc1, 0x74, 0x3d, 0x79, 0x93, 0xc5, 0x3d,
  0x3d, 0x02, 0x2b, 0xbe, 0x74, 0x12, 0x80, 0x3d, 0xb9, 0x07, 0xc0, 0x3e,
  0xa4, 0x08, 0x82, 0xbc, 0x55, 0x08, 0x2b, 0x3e, 0x4e, 0x54, 0xf7, 0xbc,
  0x67, 0xa4, 0x82, 0xbe, 0x29, 0x37, 0xe4, 0xbd, 0x00, 0x7d, 0x56, 0xbe,
  0x54, 0x6a, 0x8e, 0xbc, 0x9d, 0x62, 0x0f, 0xbe, 0x6d, 0xc6, 0x91, 0x3e,
  0xb8, 0x2e, 0x0c, 0xbe, 0xd7, 0x53, 0x37, 0xbe, 0x68, 0x96, 0x38, 0xbe,
  0x9a, 0xfa, 0x73, 0x3e, 0x96, 0x2e, 0x52, 0x3d, 0x64, 0x22, 0x4f, 0xbe,
  0x71, 0x0c, 0x51, 0x3e, 0x49, 0xd7, 0x30, 0xbe, 0xd7, 0x44, 0x93, 0x3e,
  0xfe, 0xa2, 0x05, 0x3e, 0xc2, 0x4b, 0x19, 0xbf, 0xf7, 0x26, 0xdd, 0xbe,
  0x38, 0x42, 0x97, 0x3e, 0xc5, 0x4f, 0x81, 0xbe, 0x59, 0x97, 0xba, 0xbe,
  0xd5, 0x85, 0xfc, 0xbd, 0xb8, 0xd2, 0x86, 0xbf, 0x0b, 0xdd, 0xdf, 0x3c,
  0x00, 0x1c, 0xd1, 0x3e, 0x66, 0x2f, 0x18, 0xbf, 0x6e, 0x99, 0x25, 0x3e,
  0x83, 0x48, 0x5d, 0xbe, 0x03, 0x38, 0x33, 0xbf, 0xb4, 0xa6, 0xc7, 0x3e,
  0x57, 0x03, 0xfc, 0x3d, 0x4b, 0x01, 0xae, 0x3c, 0xe6, 0x29, 0x6c, 0xbe,
  0xc9, 0x1e, 0x6b, 0xbc, 0xa2, 0x42, 0xd6, 0x3e, 0x74, 0x38, 0xc9, 0xbe,
  0x74, 0xf0, 0x05, 0x3e, 0x87, 0x4b, 0x29, 0xbe, 0xc5, 0x4e, 0x46, 0xbe,
  0x6a, 0xcd, 0x32, 0x3f, 0x38, 0x50, 0xa8, 0x3e, 0xca, 0x06, 0x20, 0xbe,
  0xc3, 0xe2, 0x3b, 0x3e, 0xb2, 0x06, 0x4e, 0x3e, 0xd6, 0x06, 0xc0, 0xbd,
  0x41, 0xcb, 0x56, 0x3c, 0xcb, 0x0b, 0x1a, 0x3e, 0x5b, 0x3b, 0xf8, 0xbd,
  0x1b, 0xf2, 0x26, 0x3d, 0xb6, 0x32, 0xc3, 0xbd, 0x74, 0x14, 0x98, 0xbd,
  0x05, 0x73, 0xdf, 0xbc, 0x9e, 0x25, 0x7a, 0xbc, 0xaf, 0xdf, 0x90, 0x3e,
  0xcd, 0x12, 0x4b, 0xbd, 0xba, 0xde, 0x22, 0x3e, 0x36, 0x62, 0x03, 0xbf,
  0xa1, 0x55, 0xe4, 0xbd, 0x04, 0x13, 0x83, 0x3e, 0x3a, 0x67, 0x04, 0x3e,
  0x3f, 0x0b, 0x0b, 0xbe, 0xed, 0x09, 0x87, 0xbd, 0xe5, 0x13, 0xaf, 0x3e,
  0x6e, 0xa7, 0x5b, 0x3d, 0x02, 0xdf, 0xbb, 0xbe, 0x39, 0xf7, 0x46, 0x3d,
  0x29, 0xd6, 0x8b, 0x3e, 0x32, 0x90, 0xd9, 0xbe, 0x5b, 0xb6, 0xfa, 0x3d,
  0x03, 0xa8, 0x8c, 0x3e, 0x4f, 0x30, 0x93, 0x3d, 0xe3, 0xa6, 0x9d, 0x3e,
  0x7f, 0xc6, 0xaa, 0x3e, 0x86, 0xc3, 0x81, 0xbe, 0x31, 0x64, 0x2e, 0x3e,
  0xa7, 0xb6, 0xd4, 0x3e, 0x88, 0xa8, 0x22, 0xbc, 0x6f, 0x56, 0xbc, 0xbe,
  0x2c, 0xff, 0x05, 0x3f, 0xd4, 0x34, 0x04, 0xbd, 0xba, 0x35, 0x0d, 0xbe,
  0xb6, 0x3b, 0x4d, 0x3e, 0x80, 0xd9, 0xc2, 0x3e, 0xd2, 0xc4, 0x25, 0xbe,
  0xc5, 0xa4, 0xb7, 0x3e, 0x80, 0x25, 0x5d, 0x3e, 0xd1, 0x8b, 0x0d, 0xbc,
  0xc3, 0xc2, 0xbd, 0x3e, 0x26, 0xbd, 0x19, 0x3d, 0x00, 0xff, 0x45, 0x3d,
  0xe6, 0x66, 0xaf, 0x3e, 0xd9, 0x60, 0x03, 0x3e, 0xb1, 0x7f, 0x34, 0xbd,
  0x4a, 0x3c, 0x30, 0xbe, 0x02, 0xee, 0xda, 0x3e, 0xb3, 0xe2, 0xbc, 0x3d,
  0x0e, 0xb1, 0x15, 0xbe, 0x74, 0x28, 0x14, 0x3e, 0x06, 0x6a, 0xca, 0xbd,
  0x46, 0x5d, 0x86, 0x3d, 0x02, 0xc1, 0x7e, 0x3e, 0x6b, 0xcb, 0xe3, 0x3e,
  0x39, 0x9a, 0xef, 0x3d, 0xdd, 0xe4, 0xb5, 0xbd, 0x98, 0x1b, 0x01, 0xbf,
  0x8e, 0x0a, 0x06, 0xbe, 0x7c, 0x89, 0x29, 0x3e, 0x24, 0x79, 0xe7, 0x3e,
  0x57, 0xbb, 0x3e, 0xbe, 0x52, 0xb3, 0xba, 0xbe, 0x8c, 0x2a, 0xbc, 0x3e,
  0x68, 0x34, 0xa3, 0xbc, 0x2a, 0x16, 0xdc, 0xbd, 0x85, 0x85, 0xed, 0x3c,
  0xf9, 0x1c, 0x8c, 0xbd, 0x3a, 0x5f, 0xf6, 0xbd, 0x88, 0xb6, 0xc9, 0x3e,
  0x51, 0xf7, 0x1a, 0xbe, 0x56, 0x62, 0x79, 0x3d, 0xdc, 0x26, 0xbf, 0x3e,
  0x9d, 0x70, 0x83, 0x3b, 0xec, 0x73, 0xbb, 0xbd, 0x98, 0x73, 0x6b, 0x3e,
  0xbb, 0x6a, 0xa2, 0x3e, 0x88, 0x66, 0xdf, 0xbe, 0x0f, 0x51, 0x2d, 0xbe,
  0xda, 0x1a, 0x44, 0x3e, 0x64, 0x1f, 0x89, 0x3e, 0x84, 0x5e, 0x05, 0xbe,
  0xdb, 0x64, 0x0c, 0x3e, 0x24, 0xf9, 0x1c, 0xbd, 0x4b, 0xa3, 0xd0, 0xbe,
  0xdc, 0x11, 0xfe, 0x3d, 0xd0, 0xad, 0x9c, 0xbe, 0xd3, 0xca, 0x82, 0xbe,
  0x7d, 0x78, 0x38, 0x3e, 0xf2, 0x8c, 0x98, 0x3e, 0xe3, 0x90, 0x99, 0xbd,
  0x85, 0xfe, 0x7b, 0x3d, 0xa7, 0x3d, 0x40, 0x3e, 0xd9, 0xf1, 0x84, 0xbd,
  0xc6, 0xe1, 0x97, 0x3d, 0xd0, 0xbd, 0x6a, 0x3e, 0xab, 0xce, 0xcb, 0xbc,
  0xb3, 0xca, 0x84, 0xbe, 0xc5, 0x3a, 0xd5, 0x3e, 0x81, 0x2d, 0x81, 0x3e,
  0xcd, 0xff, 0x1f, 0xbe, 0xc9, 0x1f, 0x81, 0x3e, 0xec, 0xec, 0x18, 0x3f,
  0x96, 0x11, 0xeb, 0x3d, 0x9c, 0x0f, 0xa4, 0xbd, 0xd6, 0x1f, 0xe9, 0xbe,
  0x6a, 0xc2, 0xeb, 0xbc, 0x41, 0xee, 0x22, 0x3e, 0x38, 0x5a, 0x34, 0x3e,
  0xe1, 0x29, 0x77, 0x3e, 0x39, 0x0b, 0x5c, 0xbe, 0xd2, 0x35, 0x3e, 0x3e,
  0x53, 0x0a, 0xa4, 0x3c, 0x6b, 0x97, 0xc8, 0xbe, 0x95, 0x1f, 0x46, 0x3d,
  0xd1, 0xc0, 0xa2, 0x3d, 0x8e, 0x20, 0x25, 0xbe, 0x1f, 0x0d, 0xb2, 0x3d,
  0x58, 0x78, 0xaf, 0x3e, 0x74, 0x0b, 0x71, 0xbe, 0x90, 0xe6, 0xd0, 0x3e,
  0xa4, 0xb5, 0x9d, 0xbd, 0x07, 0xe2, 0x27, 0xbd, 0xbe, 0x00, 0x02, 0x3e,
  0x24, 0xf0, 0x27, 0x3e, 0xb1, 0x0c, 0x83, 0xbe, 0xf6, 0xfc, 0x9f, 0xbe,
  0xc8, 0x26, 0xf2, 0xbb, 0x4a, 0x33, 0x2d, 0x3d, 0xe8, 0xb1, 0x4c, 0xbe,
  0xa7, 0x48, 0x09, 0x3e, 0x36, 0xf9, 0x0a, 0x3e, 0x3c, 0x31, 0xc8, 0xbe,
  0xb7, 0xdc, 0x80, 0x3e, 0x6c, 0xd4, 0x0f, 0x3e, 0xae, 0x39, 0x10, 0x3e,
  0xe4, 0xdf, 0x00, 0x3f, 0x31, 0x4e, 0x08, 0xbd, 0x5e, 0xbf, 0xae, 0xbe,
  0x6b, 0xde, 0x8c, 0x3e, 0x06, 0x8d, 0xd5, 0xbc, 0x1a, 0x3d, 0x5f, 0x3d,
  0x0f, 0xd5, 0xad, 0xbe, 0xe6, 0xd3, 0xff, 0xff, 0x04, 0x00, 0x00, 0x00,
  0x00, 0x04, 0x00, 0x00, 0x82, 0xc7, 0xaa, 0xbe, 0xcb, 0x1d, 0xe1, 0xbe,
  0xa9, 0xee, 0x4b, 0x3e, 0xce, 0x51, 0x0b, 0x3e, 0x91, 0xd4, 0x10, 0xbf,
  0xf2, 0xe0, 0x8c, 0x3d, 0x85, 0x9b, 0xc1, 0xbe, 0xb5, 0xca, 0x19, 0x3e,
  0x1b, 0xe0, 0x68, 0x3e, 0x4d, 0x6e, 0x2d, 0x3c, 0xa2, 0xa1, 0xe4, 0xbc,
  0xf8, 0x3f, 0xa5, 0x3e, 0xa5, 0xfa, 0xa6, 0xbe, 0x06, 0x53, 0xf3, 0xbd,
  0x3d, 0xff, 0xb5, 0x3e, 0x51, 0x27, 0x97, 0x3e, 0xc6, 0x38, 0x22, 0xbf,
  0xb1, 0x9e, 0x60, 0xbe, 0x7d, 0x58, 0x9c, 0x3e, 0x2a, 0x2e, 0xa0, 0x3e,
  0xf9, 0x6b, 0x5d, 0xbe, 0x96, 0x64, 0x1f, 0x3c, 0xc4, 0x63, 0x7e, 0xbd,
  0xeb, 0xb2, 0x68, 0x3e, 0xb7, 0xdf, 0xfa, 0x3e, 0x08, 0xbb, 0x22, 0xbd,
  0x22, 0x2d, 0x78, 0xbd, 0x80, 0x3f, 0xe8, 0x3e, 0x3c, 0xd6, 0x08, 0xbf,
  0xab, 0xff, 0xae, 0xbe, 0xa2, 0xb8, 0xa1, 0x3e, 0x0c, 0x99, 0x4d, 0x3e,
  0x49, 0xc1, 0x12, 0x3e, 0x96, 0x90, 0x0d, 0x3e, 0x2b, 0x83, 0x1e, 0xbe,
  0xde, 0x07, 0x33, 0x3d, 0x49, 0x33, 0x08, 0x3f, 0x28, 0x8a, 0x5f, 0xbc,
  0x86, 0x5a, 0x8f, 0x3e, 0x0a, 0x22, 0x98, 0x3d, 0x7c, 0x99, 0x9b, 0x3b,
  0x51, 0x5a, 0x3b, 0x3e, 0x36, 0xa5, 0x36, 0xbe, 0x82, 0x84, 0x3a, 0xbe,
  0x98, 0xe1, 0xf9, 0x3d, 0x5f, 0xfc, 0x91, 0x3e, 0xaa, 0x31, 0xb7, 0xbe,
  0x7a, 0x83, 0xd0, 0xbe, 0xbf, 0xaa, 0x14, 0x3f, 0x60, 0xb1, 0xa6, 0x3e,
  0x0c, 0x2d, 0x1f, 0xbf, 0x83, 0xd1, 0x00, 0xbf, 0x02, 0x14, 0xb3, 0x3e,
  0x52, 0x58, 0x4b, 0xbe, 0x8d, 0x9f, 0x50, 0x3e, 0xe7, 0x19, 0xf8, 0x3d,
  0xd9, 0x57, 0x9d, 0x3c, 0xb2, 0x27, 0x17, 0xbf, 0xc6, 0xdf, 0x15, 0xbe,
  0x7c, 0x37, 0x88, 0xbe, 0x4f, 0x4c, 0xee, 0x3e, 0x15, 0xa6, 0x3a, 0x3e,
  0xc1, 0x3a, 0xcd, 0xbe, 0xd4, 0xf2, 0xde, 0xbe, 0xa6, 0xba, 0xd3, 0x3e,
  0x14, 0xd4, 0x1a, 0x3e, 0x43, 0xf2, 0x10, 0xbf, 0x9c, 0x50, 0xb0, 0xbe,
  0x7b, 0x5c, 0x41, 0x3f, 0xb6, 0x53, 0x34, 0xbb, 0x1f, 0x2c, 0xfb, 0x3e,
  0x3b, 0x6e, 0x77, 0x3e, 0x01, 0x1f, 0x98, 0xbe, 0xef, 0xaa, 0x5e, 0xbe,
  0x31, 0x75, 0x2f, 0x3e, 0xa8, 0x30, 0x54, 0xbe, 0xac, 0x59, 0x21, 0x3f,
  0x4d, 0xda, 0xaf, 0x3e, 0xc1, 0x9a, 0x6c, 0xbe, 0x9f, 0x05, 0x1c, 0xbf,
  0xc4, 0x86, 0x28, 0xbd, 0x1a, 0x82, 0x19, 0x3e, 0xa5, 0x31, 0x4c, 0xbc,
  0xf8, 0xcd, 0x11, 0x3e, 0x41, 0xa1, 0xb2, 0xbe, 0x79, 0xe3, 0xea, 0xbd,
  0xae, 0x8c, 0xfa, 0x3d, 0x0c, 0xe6, 0x88, 0x3e, 0x4d, 0x19, 0x93, 0x3e,
  0xc7, 0x71, 0x14, 0xbf, 0x3e, 0x93, 0x0d, 0xbf, 0x99, 0xaf, 0xa1, 0x3e,
  0xda, 0xe1, 0x04, 0x3f, 0x6f, 0xad, 0x7f, 0x3e, 0xa7, 0x0c, 0x99, 0x3d,
  0xd1, 0xdb, 0x2e, 0xbe, 0x44, 0x0d, 0x19, 0x3f, 0x53, 0xc9, 0xf7, 0x3e,
  0x43, 0x09, 0x22, 0xbf, 0x93, 0x2a, 0xba, 0xbe, 0xce, 0x57, 0x91, 0x3e,
  0xaf, 0x6e, 0x18, 0x3c, 0xb0, 0x4a, 0xc8, 0x3e, 0x2e, 0xbc, 0x42, 0xbe,
  0x79, 0x7a, 0xbc, 0xbe, 0x23, 0x06, 0xc4, 0x3e, 0xce, 0x06, 0x2b, 0xbe,
  0x90, 0x4d, 0x09, 0xbe, 0x4c, 0xf1, 0x43, 0x3e, 0x13, 0x54, 0xd4, 0x3e,
  0x9d, 0x5c, 0x9c, 0xbe, 0xc5, 0x22, 0x95, 0xbe, 0x9f, 0x9b, 0xdf, 0x3e,
  0x58, 0xdf, 0xfd, 0x3e, 0xe7, 0x54, 0xb2, 0xbe, 0xbf, 0x6f, 0xe3, 0xbe,
  0x67, 0x66, 0x2a, 0x3f, 0x78, 0x28, 0xf8, 0xbe, 0x8a, 0xcc, 0xca, 0x3e,
  0x8a, 0xe0, 0x5a, 0x3c, 0xa2, 0x85, 0xa3, 0xbe, 0x96, 0xf9, 0x25, 0x3e,
  0x6c, 0xb5, 0xba, 0x3d, 0x22, 0xb2, 0x13, 0xbe, 0x75, 0xab, 0x90, 0x3e,
  0xa1, 0xf1, 0xfe, 0x3e, 0x2e, 0x50, 0x90, 0xbd, 0x0d, 0xe1, 0x00, 0xbf,
  0x53, 0xfc, 0xa9, 0x3e, 0x63, 0x19, 0x3e, 0x3e, 0x36, 0xfd, 0xa8, 0xbe,
  0x94, 0x0a, 0xf6, 0xbe, 0xfd, 0xe1, 0x15, 0x3e, 0x6c, 0x80, 0xaa, 0xbe,
  0xc1, 0x99, 0xf9, 0x3e, 0x8f, 0x37, 0xcf, 0x3d, 0x88, 0x01, 0xa3, 0xbe,
  0x95, 0xcf, 0xad, 0xbc, 0xc8, 0xa3, 0x45, 0xbe, 0x8b, 0xef, 0xd1, 0xbd,
  0xc1, 0x3b, 0xe4, 0x3e, 0xe8, 0x8e, 0xed, 0x3e, 0x41, 0x3a, 0x9c, 0xbe,
  0x00, 0xef, 0x0b, 0xbe, 0xf9, 0xb6, 0x07, 0xbf, 0x0a, 0xab, 0x0a, 0xbf,
  0xde, 0x6b, 0x13, 0x3e, 0x13, 0x98, 0x52, 0x3d, 0x01, 0x5d, 0x78, 0xbe,
  0x1f, 0x1a, 0x34, 0xbe, 0x62, 0xca, 0x04, 0xbf, 0xce, 0xe0, 0x76, 0xbe,
  0x42, 0xfe, 0x86, 0x3e, 0xa7, 0x97, 0x4b, 0xbd, 0xbd, 0x29, 0xe6, 0xbc,
  0x52, 0x88, 0x03, 0x3e, 0x5d, 0x40, 0xc6, 0xbe, 0x5b, 0x48, 0x00, 0xbf,
  0x96, 0xcb, 0x33, 0x3d, 0x6a, 0x7d, 0x84, 0x3e, 0x8b, 0xb1, 0xd9, 0x3d,
  0x14, 0x89, 0xe6, 0x3c, 0x48, 0x98, 0x52, 0xbe, 0x0a, 0x1b, 0x09, 0xbe,
  0x37, 0xa4, 0x80, 0x3d, 0x34, 0x97, 0x13, 0xbe, 0x2c, 0x02, 0x57, 0x3e,
  0x23, 0x8a, 0xf1, 0x3c, 0xe2, 0x46, 0x2b, 0xbd, 0x84, 0x97, 0x13, 0x3e,
  0xe8, 0xce, 0x28, 0xbe, 0x99, 0x25, 0xcc, 0xbe, 0xc5, 0x9c, 0xa3, 0x3e,
  0x20, 0x75, 0xae, 0x3e, 0xd5, 0xaf, 0x80, 0xbe, 0x65, 0x70, 0xcd, 0xbe,
  0x01, 0xc9, 0x28, 0xbe, 0xa0, 0xa0, 0xfd, 0xbd, 0x83, 0x72, 0xa4, 0x3e,
  0xec, 0x86, 0x52, 0x3e, 0xc5, 0x4a, 0xc3, 0xbe, 0xf8, 0x39, 0xb7, 0x3e,
  0x2a, 0xf3, 0x95, 0xbe, 0x53, 0x8c, 0x08, 0xbe, 0xf7, 0xff, 0xfd, 0x3e,
  0x5a, 0xe4, 0x36, 0xbe, 0x42, 0xa6, 0xe2, 0xbd, 0x5f, 0x3f, 0xbd, 0x3e,
  0xf4, 0x0c, 0xd2, 0xbe, 0x90, 0x9f, 0x03, 0xbf, 0xb1, 0xfa, 0xee, 0x3e,
  0xf1, 0x5f, 0x51, 0x3e, 0x25, 0xbb, 0xa0, 0xbe, 0xee, 0x4c, 0xf7, 0xbe,
  0x3f, 0xea, 0x14, 0x3f, 0x3e, 0xd1, 0xfb, 0x3e, 0xd4, 0xad, 0x0d, 0xbf,
  0x62, 0x04, 0xba, 0x3e, 0x5d, 0x5f, 0xd1, 0xbe, 0x8f, 0x55, 0xbb, 0x3e,
  0x18, 0xf3, 0xe7, 0x3e, 0x3a, 0x16, 0x3c, 0xbd, 0xb9, 0x02, 0x13, 0xbe,
  0xe3, 0x77, 0xe6, 0x3e, 0xd5, 0xdc, 0x24, 0xbf, 0xbe, 0x57, 0xa4, 0xbe,
  0xa0, 0xae, 0x04, 0x3f, 0xf9, 0x9f, 0x07, 0x3f, 0x08, 0x13, 0xee, 0xbd,
  0xca, 0x0a, 0xb8, 0xbe, 0x53, 0xd0, 0x76, 0x3e, 0x3d, 0x31, 0x78, 0x3e,
  0x26, 0xd0, 0x24, 0xbd, 0x1c, 0x62, 0x54, 0xb9, 0x3b, 0x4d, 0xe9, 0xbe,
  0x7a, 0x50, 0x0b, 0xbf, 0x18, 0x60, 0xd6, 0xbd, 0x51, 0x8c, 0x37, 0x3e,
  0x00, 0xab, 0xc2, 0x3c, 0x68, 0x05, 0xb9, 0x3e, 0x13, 0x0c, 0x89, 0xbe,
  0x81, 0xe8, 0xf6, 0xbe, 0x06, 0x97, 0xd8, 0x3d, 0x8f, 0x7e, 0xec, 0x3e,
  0x18, 0x07, 0x37, 0x3e, 0x9d, 0xdc, 0x02, 0x3f, 0x26, 0x3c, 0x3f, 0xbe,
  0xb7, 0x2c, 0xdc, 0xbe, 0x4d, 0x18, 0x13, 0x3f, 0xa7, 0xe4, 0xf9, 0xbe,
  0x2a, 0x32, 0xba, 0x3e, 0x68, 0x6d, 0xb7, 0xbe, 0xf2, 0x1e, 0x23, 0xbd,
  0xc3, 0x31, 0x92, 0x3e, 0x0e, 0x4a, 0x62, 0xbe, 0xc9, 0x31, 0xe8, 0xbd,
  0x1b, 0x23, 0x81, 0x3e, 0x2f, 0xbc, 0x3f, 0x3e, 0xaf, 0xe3, 0x86, 0xbd,
  0xd5, 0x75, 0xb9, 0xbe, 0x85, 0x6d, 0x8c, 0xbe, 0x0e, 0xf0, 0xda, 0xbe,
  0xa0, 0xfa, 0x1c, 0x3f, 0xe8, 0xba, 0x55, 0x3d, 0xda, 0x1b, 0x0a, 0xbf,
  0xa3, 0x9c, 0xe8, 0x3e, 0xd5, 0xc0, 0xbc, 0xbe, 0x37, 0xaf, 0xd5, 0xbd,
  0x87, 0x9f, 0xa2, 0x3e, 0xb9, 0xd1, 0x9d, 0x3d, 0x25, 0xf0, 0x99, 0x3c,
  0x08, 0x8d, 0x69, 0x3e, 0xec, 0x22, 0x29, 0xbd, 0xf3, 0x6d, 0x5b, 0xbe,
  0x7f, 0x00, 0x4f, 0x3e, 0x02, 0xb4, 0x95, 0x3d, 0xf2, 0xd7, 0xff, 0xff,
  0x04, 0x00, 0x00, 0x00, 0x00, 0x04, 0x00, 0x00, 0x9c, 0x3b, 0x49, 0x3f,
  0x89, 0x8e, 0x45, 0xbf, 0xb6, 0x8f, 0xac, 0xbd, 0xff, 0x67, 0xba, 0x3e,
  0xc4, 0x74, 0x9b, 0xbd, 0xb4, 0x60, 0xa4, 0xbe, 0x71, 0x90, 0x47, 0x3f,
  0x0d, 0x43, 0x32, 0xbf, 0x02, 0xb1, 0x10, 0x3e, 0x70, 0xcb, 0x50, 0xbf,
  0x0f, 0x73, 0xa5, 0xbe, 0xf0, 0xd3, 0xcc, 0x3e, 0xb3, 0x21, 0x6e, 0x3e,
  0x97, 0x03, 0xc5, 0x3e, 0xf4, 0x24, 0x1b, 0x3f, 0x1a, 0x6b, 0x58, 0xbf,
  0x35, 0x76, 0x03, 0x3f, 0x3a, 0xcd, 0xf8, 0xbe, 0x05, 0x81, 0xdf, 0xbe,
  0x24, 0x4f, 0x8d, 0x3e, 0xaa, 0x64, 0x88, 0x3e, 0xf6, 0x8f, 0xc3, 0xbe,
  0x39, 0x37, 0xee, 0x3e, 0x2b, 0x8b, 0x03, 0xbe, 0x37, 0x87, 0xc0, 0xbd,
  0x29, 0xcf, 0x21, 0xbe, 0xa9, 0x74, 0x3d, 0xbe, 0xfb, 0x27, 0x02, 0x3d,
  0xb8, 0x7e, 0xa7, 0x3e, 0x4a, 0x06, 0xef, 0x3e, 0x05, 0xf2, 0x32, 0xbb,
  0x9b, 0x9d, 0x2b, 0xbf, 0xfc, 0x7f, 0x1f, 0x3f, 0xe6, 0xd4, 0xb0, 0xbe,
  0x7a, 0x8a, 0x5f, 0xbd, 0x81, 0x9e, 0xc9, 0x3e, 0x52, 0xad, 0x80, 0x3b,
  0x00, 0xb3, 0xa0, 0xbe, 0xfa, 0xaf, 0xd6, 0x3e, 0x5b, 0xce, 0xa1, 0x3d,
  0x0c, 0xe9, 0xd0, 0x3d, 0x2b, 0x48, 0xd2, 0xbe, 0xfa, 0x5b, 0x24, 0x3d,
  0xd8, 0x83, 0x8f, 0x3e, 0x7e, 0x7f, 0xfe, 0x3e, 0xed, 0x03, 0x0e, 0x3f,
  0x2c, 0x4e, 0xd4, 0x3d, 0x53, 0x86, 0xcd, 0xbe, 0x48, 0xc7, 0x12, 0x3f,
  0xe4, 0x45, 0xe3, 0xbe, 0x5f, 0x3c, 0x6f, 0xbe, 0x3e, 0x08, 0x13, 0xbe,
  0xe7, 0x9e, 0xf2, 0x3e, 0x9d, 0x67, 0x2c, 0xbf, 0xa8, 0xde, 0xf8, 0x3e,
  0x1f, 0xbe, 0x12, 0xbf, 0x6a, 0x3c, 0x7f, 0xbe, 0xea, 0xf3, 0xf6, 0x3e,
  0x77, 0x25, 0xe9, 0x3e, 0x06, 0x0f, 0xfc, 0xbc, 0x53, 0x46, 0x11, 0x3f,
  0x90, 0x83, 0xcd, 0x3e, 0x7c, 0x60, 0xd9, 0xbe, 0xec, 0xf1, 0x24, 0xbf,
  0x70, 0x30, 0xf2, 0x3e, 0xfe, 0x18, 0xb0, 0xbe, 0x88, 0x24, 0xb1, 0xbd,
  0x69, 0x24, 0xe5, 0x3e, 0x29, 0xfc, 0x2f, 0xbc, 0x28, 0x27, 0xe4, 0xbd,
  0x3b, 0xca, 0x02, 0x3f, 0xe1, 0x89, 0x4d, 0xbd, 0x9e, 0xf5, 0x16, 0x3e,
  0xc1, 0x4e, 0x86, 0x3d, 0x33, 0x1b, 0x3b, 0x3d, 0x37, 0x5e, 0x31, 0x3d,
  0xaf, 0x3d, 0x1b, 0x3f, 0x15, 0x2c, 0x02, 0x3f, 0xac, 0xb4, 0xdf, 0xbd,
  0x06, 0xb1, 0x14, 0xbf, 0x65, 0x9c, 0x24, 0xbc, 0x2c, 0x70, 0xc7, 0xbe,
  0x8f, 0xd6, 0x86, 0x3e, 0x84, 0x22, 0x56, 0xbf, 0xdf, 0x78, 0x73, 0xbe,
  0x38, 0x97, 0xf9, 0x3d, 0xaa, 0x14, 0xa8, 0xbe, 0x05, 0x4d, 0x9b, 0x3d,
  0x9f, 0x12, 0x2a, 0xbf, 0x4d, 0x1a, 0x60, 0x3e, 0x08, 0xc8, 0xbf, 0x3e,
  0x51, 0x3a, 0x64, 0xbe, 0x28, 0xa4, 0x8f, 0xbe, 0x60, 0x62, 0x05, 0xbf,
  0xd4, 0x73, 0xab, 0xbd, 0x6d, 0x7c, 0x03, 0x3f, 0x63, 0x8d, 0x19, 0x3f,
  0xd3, 0x82, 0xa7, 0xbe, 0xd6, 0x49, 0xe1, 0xbe, 0xd7, 0x82, 0x24, 0x3e,
  0x57, 0xa4, 0x02, 0x3e, 0x52, 0xee, 0xbf, 0xbe, 0xa0, 0x1d, 0x0c, 0x3f,
  0xac, 0xe9, 0x29, 0xbe, 0xaa, 0x0a, 0x1b, 0x3e, 0x1c, 0xd8, 0x81, 0xbd,
  0x5f, 0x41, 0xd1, 0x3d, 0xd3, 0x3f, 0x64, 0x3e, 0x34, 0xbe, 0xb9, 0x3e,
  0x03, 0xc5, 0xfb, 0x3e, 0xd1, 0xb3, 0x27, 0xbe, 0xef, 0x5f, 0xfc, 0xbe,
  0x60, 0xc6, 0x91, 0x3e, 0x00, 0x4c, 0xaa, 0xbd, 0x63, 0x6a, 0xe8, 0xbe,
  0xb2, 0x0e, 0xb7, 0x3e, 0xcf, 0x7b, 0xcd, 0x3e, 0xdc, 0xd0, 0xf9, 0xbe,
  0xf1, 0xf9, 0x14, 0x3f, 0xb7, 0x4f, 0x33, 0x3e, 0x74, 0xf8, 0x11, 0xbe,
  0x29, 0x79, 0x34, 0x3f, 0xab, 0xac, 0x9a, 0x3e, 0x89, 0xcf, 0x4c, 0x3d,
  0x2e, 0x39, 0xbe, 0x3e, 0x1a, 0xda, 0x64, 0x3e, 0x6f, 0xdb, 0xa6, 0xbe,
  0xd6, 0x37, 0x24, 0xbf, 0xad, 0x31, 0x30, 0x3f, 0xaa, 0x78, 0x43, 0xbf,
  0x55, 0x28, 0xda, 0xbe, 0xab, 0xd5, 0xae, 0x3e, 0x9b, 0xb2, 0x0e, 0x3e,
  0xf3, 0xec, 0x8e, 0xbe, 0x8d, 0x77, 0xdd, 0x3e, 0x6d, 0x87, 0x9d, 0xbe,
  0x18, 0xee, 0x8d, 0x3d, 0x3b, 0x73, 0xe6, 0xbe, 0x28, 0x29, 0x32, 0x3d,
  0x78, 0xa3, 0x04, 0x3f, 0xe1, 0x8b, 0x26, 0x3f, 0x35, 0x42, 0x5f, 0x3e,
  0xa1, 0x2b, 0x4a, 0x3e, 0x40, 0xf1, 0x0e, 0xbf, 0xd5, 0x5c, 0x2a, 0x3f,
  0xff, 0xd9, 0x7c, 0xbe, 0x11, 0x40, 0x87, 0xbd, 0x13, 0xd5, 0xa2, 0x3e,
  0x9c, 0x8f, 0x1d, 0x3e, 0xa5, 0x72, 0xcc, 0xbe, 0x02, 0x4c, 0x85, 0x3e,
  0x32, 0xbc, 0x54, 0xbe, 0x97, 0xc7, 0x97, 0x3e, 0x59, 0xe1, 0x89, 0xbe,
  0x0b, 0x6d, 0xfb, 0xbd, 0x6b, 0x79, 0xf1, 0x3e, 0x31, 0x6e, 0x16, 0x3f,
  0x0d, 0x05, 0xf1, 0x3e, 0xd7, 0x52, 0xa6, 0x3e, 0x1f, 0x9c, 0xcc, 0xbe,
  0x29, 0x9b, 0x35, 0x3f, 0x7a, 0x3c, 0x3c, 0xbf, 0x67, 0x08, 0x68, 0xbe,
  0x2d, 0xf3, 0x1c, 0x3f, 0xb1, 0xd8, 0x43, 0x3d, 0xb3, 0xe9, 0xa0, 0xbe,
  0xbb, 0x1f, 0xa5, 0x3e, 0xd0, 0xef, 0xd4, 0xbe, 0xde, 0x48, 0x24, 0x3f,
  0x7f, 0x9e, 0xc2, 0xbe, 0xc7, 0x2e, 0x83, 0xbd, 0x96, 0x06, 0x6d, 0x3e,
  0x6c, 0x45, 0x2b, 0x3f, 0x91, 0x0b, 0x41, 0x3e, 0x96, 0x36, 0xb5, 0x3e,
  0xde, 0xed, 0x2e, 0xbf, 0xd4, 0x63, 0xc7, 0x3e, 0x42, 0xda, 0xad, 0xbd,
  0x7a, 0x14, 0xc8, 0xbe, 0x1f, 0xaa, 0xac, 0x3e, 0x87, 0x76, 0x37, 0x3e,
  0xc5, 0xf0, 0x13, 0xbf, 0xf5, 0x20, 0xcd, 0x3e, 0x6e, 0x2d, 0xc1, 0xbe,
  0xa7, 0x75, 0xf0, 0x3d, 0x9e, 0x13, 0x80, 0xbe, 0x8d, 0xe2, 0x0a, 0x3e,
  0x29, 0x36, 0xb9, 0x3e, 0x29, 0xcd, 0xf4, 0x3e, 0xc3, 0x16, 0xae, 0x3e,
  0xef, 0x29, 0x54, 0x3e, 0x64, 0x0e, 0x37, 0xbf, 0x9d, 0x35, 0x39, 0x3f,
  0x60, 0x78, 0xd6, 0x3d, 0xe1, 0x36, 0xc5, 0xbd, 0x18, 0x04, 0x92, 0x3e,
  0xa6, 0xa0, 0xbf, 0x3e, 0x8b, 0xe6, 0xbd, 0xbe, 0xc9, 0xa8, 0xba, 0x3e,
  0xa1, 0xa0, 0xd2, 0xbd, 0xaf, 0xa4, 0xbe, 0xbd, 0x90, 0x42, 0x5d, 0x3e,
  0x79, 0x52, 0xb8, 0x3e, 0xba, 0x69, 0x46, 0xbe, 0xf5, 0x4e, 0x15, 0x3f,
  0x40, 0x57, 0xa9, 0x3e, 0x81, 0xc2, 0x41, 0xbd, 0x4a, 0xdc, 0xd0, 0xbe,
  0x99, 0x50, 0xf6, 0x3e, 0xd3, 0x3e, 0x44, 0xbf, 0x32, 0x8e, 0xb8, 0xbe,
  0x74, 0xf4, 0x33, 0x3f, 0x6e, 0x8c, 0x87, 0x3d, 0xad, 0x8b, 0x15, 0xbf,
  0xe5, 0x71, 0x14, 0x3f, 0x88, 0xbc, 0xb7, 0xbe, 0x9c, 0x90, 0xc5, 0x3e,
  0x3d, 0x74, 0xe1, 0xbe, 0x51, 0x48, 0xfb, 0xbd, 0x57, 0x5b, 0xcd, 0x3e,
  0xcd, 0x95, 0xa8, 0x3e, 0x45, 0x87, 0x73, 0x3e, 0x5d, 0x73, 0xea, 0x3e,
  0x03, 0x42, 0xfb, 0xbe, 0x25, 0xea, 0x3d, 0x3f, 0xcb, 0x95, 0x14, 0xbf,
  0x8f, 0x79, 0xff, 0xbe, 0x56, 0x2f, 0x9a, 0x3e, 0x28, 0x8b, 0xc9, 0x3d,
  0xb7, 0xf6, 0xf4, 0xbe, 0xda, 0xf9, 0x78, 0x3e, 0xbd, 0x4b, 0x86, 0xbe,
  0x96, 0x74, 0x8f, 0x3e, 0xa6, 0x9d, 0x34, 0xbe, 0xc0, 0x57, 0xd7, 0xbd,
  0x50, 0x74, 0xc7, 0x3e, 0x41, 0x2f, 0x9a, 0x3e, 0x00, 0x6f, 0xf5, 0x3e,
  0x58, 0xc0, 0xa4, 0x3e, 0x70, 0xcc, 0x3b, 0xbf, 0x28, 0xa3, 0x80, 0x3e,
  0x22, 0x97, 0x00, 0xbf, 0x85, 0xd3, 0xec, 0xbd, 0x4a, 0xf8, 0x81, 0x3e,
  0x67, 0xb8, 0x03, 0x3e, 0xc9, 0x77, 0x3e, 0xbe, 0x3d, 0xca, 0x28, 0x3f,
  0xbb, 0xdc, 0x84, 0x3e, 0x56, 0xb0, 0x8e, 0x3e, 0x4b, 0x53, 0x82, 0xbe,
  0x5e, 0x38, 0xd1, 0x3d, 0xf0, 0x7c, 0x02, 0x3f, 0x06, 0x4b, 0x16, 0x3f,
  0x3c, 0x0f, 0x84, 0x3e, 0x00, 0x7c, 0x61, 0x3e, 0x8d, 0x33, 0x31, 0xbf,
  0xfe, 0xdb, 0xff, 0xff, 0x04, 0x00, 0x00, 0x00, 0x40, 0x00, 0x00, 0x00,
  0xc3, 0x8a, 0x5e, 0xbe, 0x9a, 0x41, 0x96, 0x3d, 0x55, 0x90, 0xb8, 0xbe,
  0xbe, 0x32, 0xab, 0x3e, 0xe4, 0xda, 0x06, 0x3f, 0xfa, 0xef, 0xf2, 0xbf,
  0x6b, 0xe0, 0x82, 0x3e, 0x0a, 0x62, 0x83, 0x3e, 0x45, 0xa3, 0x81, 0xbe,
  0xcc, 0xfe, 0x15, 0x3d, 0xea, 0x75, 0x4b, 0xbf, 0x29, 0x82, 0x02, 0x3c,
  0x8f, 0x90, 0x71, 0x3e, 0x40, 0x8d, 0xe6, 0xbe, 0x5e, 0xa4, 0x25, 0x3c,
  0xd0, 0xc7, 0x4c, 0x3e, 0x4a, 0xdc, 0xff, 0xff, 0x04, 0x00, 0x00, 0x00,
  0x40, 0x00, 0x00, 0x00, 0xa7, 0x8a, 0x36, 0x3f, 0x21, 0xf1, 0x38, 0x3f,
  0xaf, 0xc9, 0x38, 0x3f, 0x05, 0x6d, 0xfe, 0x3e, 0x33, 0x3b, 0x18, 0x3f,
  0x13, 0x10, 0x18, 0xc0, 0xaa, 0xe6, 0x39, 0x3f, 0xe7, 0x99, 0x48, 0x3f,
  0x89, 0x95, 0x36, 0x3f, 0xe7, 0x23, 0x3a, 0x3f, 0x7a, 0xa6, 0x2c, 0x3f,
  0x1e, 0x3d, 0x3e, 0x3f, 0x4e, 0x6a, 0x33, 0x3f, 0x8c, 0x50, 0x1b, 0x3f,
  0xef, 0xe6, 0x35, 0x3f, 0x8a, 0xb3, 0x37, 0x3f, 0x96, 0xdc, 0xff, 0xff,
  0x04, 0x00, 0x00, 0x00, 0x40, 0x00, 0x00, 0x00, 0x20, 0x32, 0x95, 0x3b,
  0x20, 0xa1, 0xe3, 0xbc, 0x41, 0xff, 0x9a, 0xbc, 0x0e, 0x35, 0x2b, 0xbd,
  0x0d, 0xa6, 0x4b, 0xbc, 0xa6, 0x96, 0xa3, 0xbd, 0x92, 0x10, 0x2a, 0x3d,
  0x6f, 0xbd, 0x23, 0x3c, 0x34, 0x2b, 0x6e, 0x3c, 0xc5, 0x49, 0x93, 0x3c,
  0x2e, 0x75, 0x7f, 0xbc, 0x2c, 0x03, 0xad, 0xbc, 0xa3, 0xdb, 0x19, 0xbd,
  0xf0, 0x14, 0xa0, 0x3c, 0x5d, 0x4d, 0x11, 0x3c, 0xdf, 0xf8, 0x0d, 0xbc,
  0xe2, 0xdc, 0xff, 0xff, 0x04, 0x00, 0x00, 0x00, 0x40, 0x00, 0x00, 0x00,
  0xab, 0xd3, 0x23, 0x3d, 0xc3, 0x94, 0xa7, 0x3d, 0xfc, 0x6f, 0x08, 0xbe,
  0xf2, 0x2d, 0x02, 0x3f, 0x2b, 0x0a, 0x16, 0x3f, 0x50, 0x24, 0xfe, 0xbf,
  0x61, 0x45, 0x89, 0x3e, 0xcc, 0xac, 0xe3, 0x3d, 0xa6, 0x57, 0xa9, 0xbc,
  0x4b, 0x63, 0x5f, 0x3e, 0x23, 0x61, 0x0c, 0xbf, 0x0e, 0xad, 0xbe, 0x3d,
  0xd1, 0x4f, 0x2f, 0x3e, 0xaa, 0xd8, 0x6f, 0xbe, 0x0b, 0xc2, 0xa6, 0x3c,
  0x8a, 0xce, 0x3d, 0x3e, 0x2e, 0xdd, 0xff, 0xff, 0x04, 0x00, 0x00, 0x00,
  0x00, 0x04, 0x00, 0x00, 0xbe, 0xfd, 0x90, 0x3e, 0x25, 0x95, 0xa7, 0x3d,
  0x22, 0x9b, 0xd0, 0xbe, 0xb0, 0x2c, 0x28, 0xbf, 0x6e, 0x2d, 0x17, 0xbe,
  0x48, 0xf0, 0x3c, 0xbf, 0x7a, 0x91, 0xa8, 0x3e, 0xa6, 0x12, 0x81, 0xbd,
  0x87, 0x32, 0xa1, 0xbd, 0x70, 0xfc, 0x44, 0x3e, 0x7b, 0x2b, 0x32, 0xbe,
  0x59, 0x2e, 0x03, 0xbe, 0xf8, 0xa8, 0x42, 0x3d, 0x28, 0x70, 0x29, 0x3e,
  0xae, 0xb8, 0x00, 0xbe, 0x14, 0x53, 0x40, 0xbe, 0x91, 0x95, 0x8d, 0x3e,
  0x61, 0x2e, 0x35, 0x3e, 0x52, 0x65, 0x35, 0x3d, 0x28, 0xff, 0x1f, 0xbf,
  0xe6, 0xde, 0xc1, 0x3d, 0x29, 0x72, 0xcc, 0xbe, 0x09, 0xf4, 0xc2, 0x3d,
  0x7a, 0xca, 0x8c, 0xbe, 0x2e, 0xcc, 0x76, 0xbe, 0x0a, 0x67, 0x33, 0xbd,
  0x18, 0x47, 0x42, 0xbe, 0xe4, 0x34, 0x45, 0x3c, 0x37, 0x3f, 0x82, 0xbe,
  0x7f, 0x8b, 0x16, 0x3e, 0x51, 0x32, 0x32, 0xbe, 0x1d, 0x6b, 0x74, 0xbe,
  0xdc, 0x39, 0xd5, 0x3d, 0xb4, 0x4d, 0xa3, 0x3e, 0xc6, 0x5b, 0x34, 0xbe,
  0xa0, 0xcd, 0x43, 0xbf, 0xf6, 0x91, 0xa5, 0xbe, 0x93, 0x76, 0x6c, 0xbe,
  0x3d, 0xa1, 0x67, 0xbd, 0xa4, 0xd6, 0x01, 0xbe, 0x77, 0xf4, 0x4d, 0xbe,
  0x51, 0xde, 0x87, 0x3e, 0x43, 0x72, 0xab, 0xbe, 0x41, 0x94, 0x84, 0xbd,
  0xfc, 0xd6, 0x03, 0x3d, 0x0b, 0x0e, 0xb2, 0x3e, 0x10, 0xbd, 0x3c, 0xbe,
  0xd9, 0x59, 0xfe, 0xbd, 0xca, 0xaa, 0xe2, 0x3e, 0x32, 0x28, 0xb4, 0x3e,
  0x1e, 0x1e, 0x4e, 0xbf, 0x61, 0x50, 0x78, 0xbf, 0x0a, 0xed, 0x20, 0xbf,
  0xd7, 0x7f, 0xf9, 0xbe, 0x4a, 0xbe, 0xda, 0xbe, 0xb8, 0xcc, 0x4e, 0xbf,
  0x77, 0xe1, 0x17, 0xbf, 0x60, 0xc4, 0x63, 0x3f, 0x2a, 0xbc, 0x82, 0xbf,
  0x51, 0x47, 0x1c, 0x3f, 0xdc, 0xe9, 0xff, 0x3e, 0x25, 0x4a, 0x50, 0x3f,
  0x19, 0xd4, 0xdc, 0xbe, 0x39, 0x07, 0x70, 0x3e, 0x88, 0x30, 0x53, 0xbe,
  0x0e, 0xde, 0x80, 0xbb, 0x92, 0x9c, 0x74, 0xbe, 0xba, 0x55, 0x0a, 0xbf,
  0x0d, 0x9b, 0xbd, 0xbd, 0x0a, 0x0b, 0x8b, 0x3d, 0xf7, 0x49, 0x18, 0x3d,
  0x9d, 0x60, 0xa4, 0xbd, 0x5b, 0x3a, 0x9e, 0x3d, 0xca, 0xad, 0xf0, 0x3e,
  0x22, 0x5c, 0x23, 0xbe, 0x27, 0x16, 0x3a, 0x3e, 0x9f, 0x70, 0xa4, 0x3c,
  0x17, 0xa1, 0x5e, 0xbd, 0xef, 0x12, 0x5b, 0xbe, 0xa1, 0x77, 0xea, 0xbd,
  0x72, 0x45, 0xbd, 0x3d, 0xa8, 0x83, 0x57, 0x3f, 0xa4, 0x46, 0xc4, 0xbe,
  0xc0, 0x0d, 0x16, 0x3f, 0x84, 0xb7, 0xb7, 0xbd, 0x39, 0x8e, 0x81, 0xbe,
  0x15, 0xb8, 0x6b, 0xbf, 0x78, 0x25, 0x52, 0xbf, 0x6b, 0x90, 0x2d, 0xbe,
  0xdb, 0xdd, 0x95, 0x3e, 0xd8, 0x5a, 0xdd, 0xbd, 0x5c, 0xcd, 0xcc, 0x3e,
  0x05, 0xb4, 0x4e, 0x3f, 0x7b, 0xa2, 0x8b, 0x3d, 0x89, 0x8f, 0x82, 0xbe,
  0x73, 0x25, 0x08, 0x3f, 0xf8, 0x66, 0x25, 0x3e, 0xef, 0x30, 0x82, 0xbe,
  0x37, 0x6b, 0x82, 0x3d, 0xab, 0xb1, 0xd2, 0xbe, 0x3c, 0xf8, 0x1f, 0xbc,
  0xba, 0xa3, 0xb2, 0xbe, 0x67, 0xe3, 0x8c, 0x3e, 0x5a, 0x2e, 0x77, 0xbe,
  0x1b, 0x2e, 0xf9, 0xbd, 0x1e, 0x3d, 0x6a, 0xbe, 0x87, 0x12, 0x70, 0x3e,
  0xda, 0x60, 0x28, 0xbe, 0xe1, 0x5f, 0x2e, 0x3e, 0x32, 0x26, 0x3c, 0xbd,
  0xfc, 0xf6, 0x8c, 0x3e, 0x8e, 0x5e, 0xb3, 0xbe, 0x8d, 0xc8, 0x9d, 0x3d,
  0x77, 0x3f, 0x86, 0x3e, 0xfe, 0x32, 0x9d, 0xbe, 0xc6, 0x5b, 0x82, 0xbd,
  0x81, 0x42, 0x07, 0xbd, 0x03, 0x69, 0x26, 0xbd, 0x61, 0x57, 0x10, 0xbe,
  0x13, 0x25, 0x0f, 0xbe, 0x8c, 0xf1, 0x29, 0x3e, 0x07, 0xa7, 0xd9, 0x3c,
  0x3e, 0x2f, 0x96, 0xbd, 0x3b, 0x0a, 0x56, 0x3e, 0xf0, 0x6c, 0x84, 0x3e,
  0x07, 0x77, 0xb4, 0x3e, 0x70, 0xef, 0xd0, 0xbc, 0x94, 0x1a, 0x0c, 0x3e,
  0xc1, 0x21, 0xd8, 0x3e, 0x9d, 0x4d, 0xa8, 0x3d, 0xdd, 0xc4, 0xe0, 0xbc,
  0x5f, 0x81, 0x83, 0xbf, 0x04, 0xd3, 0xcf, 0x3d, 0x6b, 0x63, 0x55, 0xbf,
  0x37, 0xd7, 0x76, 0xbc, 0xfe, 0x1a, 0xa2, 0xbd, 0x0f, 0x71, 0x9c, 0xbe,
  0x3b, 0x63, 0x2a, 0x3e, 0x7e, 0xef, 0xac, 0xbe, 0xe3, 0xe6, 0x29, 0x3d,
  0x2b, 0x39, 0xc8, 0xbe, 0x43, 0x71, 0xe2, 0x3e, 0x28, 0x30, 0x04, 0xbe,
  0xde, 0x4f, 0x41, 0xbe, 0xa7, 0x93, 0x8f, 0x3e, 0xe1, 0x3c, 0x91, 0x3d,
  0x57, 0xed, 0x54, 0xbe, 0x21, 0xc2, 0x5b, 0xbf, 0x4a, 0xbc, 0xc8, 0xbd,
  0xc8, 0xac, 0x38, 0xbf, 0xf6, 0xfe, 0x26, 0x3e, 0x3a, 0xa2, 0x1b, 0xbe,
  0x21, 0x42, 0xf2, 0x3d, 0x4f, 0x31, 0x6b, 0x3e, 0x88, 0x5a, 0xfa, 0xbe,
  0x19, 0xee, 0x6c, 0xbd, 0x90, 0xb3, 0x0e, 0x3e, 0xad, 0xb7, 0xd9, 0x3e,
  0x17, 0x17, 0x6c, 0xbd, 0xa4, 0x20, 0x19, 0xbe, 0x22, 0x92, 0x2b, 0x3f,
  0x29, 0xe2, 0xd0, 0x3c, 0x70, 0xd5, 0x36, 0xbe, 0x42, 0xe2, 0xa2, 0xbf,
  0x37, 0xc2, 0x19, 0xbe, 0x20, 0xc2, 0x9a, 0xbe, 0xa2, 0xeb, 0x6f, 0xb9,
  0xc1, 0xaa, 0xad, 0xbe, 0x50, 0xf4, 0xe6, 0xbd, 0x37, 0x04, 0x40, 0x3e,
  0x9c, 0xb1, 0xeb, 0xbe, 0x32, 0xc9, 0x91, 0x3e, 0x23, 0xd3, 0x55, 0x3e,
  0xe3, 0x8c, 0xb6, 0x3e, 0xad, 0xff, 0xb6, 0x3c, 0x05, 0x10, 0x1c, 0x3e,
  0xf5, 0xc6, 0x99, 0x3e, 0x91, 0xad, 0xea, 0xbd, 0x70, 0x0b, 0x4d, 0xbe,
  0x57, 0x98, 0x36, 0xbf, 0x8e, 0x3f, 0xe5, 0xbd, 0x97, 0x7e, 0x30, 0xbf,
  0xf9, 0x05, 0x82, 0xbc, 0x6a, 0x09, 0xcb, 0xbd, 0x39, 0x09, 0x82, 0xbe,
  0x15, 0x5c, 0xa4, 0x3d, 0xb4, 0xbf, 0xbf, 0xbe, 0xbb, 0xa3, 0x2b, 0x3e,
  0x6d, 0x9c, 0xfe, 0xbd, 0x57, 0xdf, 0x9f, 0x3e, 0xe0, 0x2b, 0x2e, 0xbe,
  0x09, 0x78, 0xd2, 0x3d, 0xa6, 0x5f, 0x51, 0xbe, 0xc4, 0x21, 0x87, 0xbe,
  0x38, 0xb2, 0xd0, 0x3d, 0xde, 0xc0, 0x28, 0xbc, 0x24, 0x16, 0x19, 0xbe,
  0xe3, 0xad, 0xd3, 0xbe, 0xbb, 0x39, 0x28, 0x3e, 0x4d, 0xe1, 0x24, 0xbd,
  0x43, 0xe0, 0x36, 0x3e, 0x21, 0xf5, 0xba, 0xbe, 0xaf, 0xc6, 0xc3, 0x3d,
  0x2e, 0x7b, 0x28, 0xbe, 0xfe, 0x09, 0xfd, 0xbd, 0x3e, 0x1d, 0x0d, 0xbf,
  0x8f, 0x0c, 0x84, 0x3e, 0xe0, 0x32, 0x6d, 0xbe, 0x3b, 0xc8, 0x3d, 0x3e,
  0x26, 0x5e, 0xbc, 0x3e, 0x96, 0x80, 0xad, 0xbe, 0xd3, 0x9a, 0xa9, 0xbf,
  0x26, 0xac, 0xc3, 0xbe, 0xe3, 0x3a, 0x42, 0xbe, 0x07, 0xb1, 0xc5, 0xbd,
  0x48, 0x12, 0x79, 0xbe, 0x58, 0xea, 0xcd, 0xbd, 0x0a, 0xce, 0x68, 0x3e,
  0xaa, 0x84, 0x87, 0xbe, 0x6a, 0xe7, 0x26, 0x3e, 0x5f, 0x7f, 0x24, 0x3e,
  0xe2, 0x3c, 0xf9, 0x3e, 0x9a, 0x77, 0x9b, 0xbe, 0xc2, 0x82, 0x46, 0x3c,
  0xd8, 0xa1, 0xb5, 0xbc, 0xff, 0x84, 0xa7, 0x3d, 0xcd, 0xc0, 0x34, 0xbe,
  0x48, 0x7b, 0x3c, 0xbf, 0xde, 0xa8, 0x44, 0x3c, 0xca, 0x06, 0xf3, 0xbe,
  0xd2, 0xbe, 0x22, 0x3b, 0x0b, 0xc9, 0x8b, 0xbe, 0xea, 0x72, 0xf3, 0xbd,
  0x1b, 0x14, 0x4b, 0x3e, 0xec, 0xbf, 0x7c, 0xbd, 0x7a, 0x35, 0x94, 0xbe,
  0x2c, 0x58, 0x18, 0xbe, 0x3b, 0x9a, 0x5d, 0x3e, 0x59, 0x78, 0x1d, 0xbd,
  0xfe, 0x0d, 0x8c, 0xbd, 0x42, 0xec, 0x8c, 0x3e, 0x98, 0x73, 0x60, 0x3e,
  0x81, 0xbf, 0xd2, 0x3c, 0xed, 0x35, 0xeb, 0xbe, 0xd4, 0xed, 0x26, 0x3e,
  0x6a, 0xa2, 0x12, 0xbf, 0x14, 0x59, 0x85, 0x3e, 0x50, 0xcd, 0x8f, 0xbd,
  0x43, 0x2c, 0xbe, 0xbd, 0x8e, 0x0b, 0xc3, 0xbc, 0x2d, 0x1b, 0x86, 0x3d,
  0x39, 0x11, 0x12, 0x3d, 0xa1, 0xd5, 0xdb, 0xbd, 0xc5, 0xde, 0x67, 0x3d,
  0x58, 0x80, 0xbf, 0xbd, 0x52, 0x5b, 0x8c, 0xbe, 0x3a, 0xe1, 0xff, 0xff,
  0x04, 0x00, 0x00, 0x00, 0x00, 0x04, 0x00, 0x00, 0x3b, 0xc1, 0x66, 0x3e,
  0xf0, 0xf0, 0xff, 0x3d, 0x8e, 0x33, 0xd6, 0x3d, 0xf8, 0x7d, 0x03, 0x3e,
  0xd9, 0xce, 0x5e, 0x3e, 0x92, 0x19, 0x72, 0xbe, 0x35, 0x09, 0xec, 0xbc,
  0x65, 0x70, 0xdb, 0xbd, 0x81, 0x70, 0x8a, 0x3e, 0xe3, 0xa1, 0x36, 0x3e,
  0xa9, 0x51, 0x83, 0xbe, 0xbd, 0x3c, 0xc4, 0xba, 0x5e, 0x06, 0x36, 0x3c,
  0x38, 0xeb, 0x60, 0xbd, 0x9a, 0x9a, 0x14, 0x3e, 0x98, 0x5c, 0xd2, 0xbd,
  0x6d, 0x47, 0x39, 0xbe, 0xb7, 0x5a, 0x5e, 0x3e, 0x2e, 0xb8, 0x7c, 0xbd,
  0xfc, 0x6a, 0x5e, 0x3e, 0xec, 0xe4, 0x8a, 0xbd, 0xa5, 0x00, 0x26, 0x3e,
  0x78, 0xd0, 0x87, 0xbe, 0xa7, 0x00, 0xf8, 0xbd, 0x57, 0xff, 0xac, 0xbd,
  0xf0, 0x9a, 0x12, 0x3e, 0xc1, 0x4e, 0x87, 0xbe, 0x2e, 0x35, 0xa4, 0x3e,
  0xba, 0xb0, 0x6b, 0x3e, 0x9a, 0xd0, 0x12, 0x3e, 0x23, 0xaa, 0x03, 0xbd,
  0xc1, 0xef, 0xe0, 0x3d, 0x66, 0x13, 0xc5, 0xbc, 0x63, 0x35, 0x53, 0xbe,
  0x31, 0x6b, 0x93, 0xbe, 0x0d, 0xd3, 0xb4, 0xbd, 0x0f, 0x80, 0x02, 0xbe,
  0x9f, 0x46, 0x6e, 0xbd, 0xae, 0x8a, 0x13, 0xbd, 0xb6, 0x91, 0xee, 0x3c,
  0x2d, 0xe0, 0x71, 0xbe, 0x28, 0x6b, 0x89, 0x3e, 0xb9, 0xea, 0xe3, 0xbd,
  0x23, 0x66, 0x21, 0x3e, 0xb7, 0xfb, 0x0a, 0xbe, 0x46, 0x2c, 0x93, 0x3d,
  0xcc, 0xbd, 0x08, 0xbd, 0x64, 0xa1, 0x87, 0x3d, 0xbb, 0x06, 0x10, 0xbe,
  0x99, 0xb1, 0x84, 0xbe, 0x1b, 0x14, 0xfd, 0x3d, 0xd0, 0x54, 0x3f, 0x3e,
  0x6b, 0x5c, 0xc6, 0x3d, 0x92, 0x25, 0x06, 0xbe, 0x5a, 0xe3, 0xa5, 0xbd,
  0x72, 0x97, 0xe2, 0x3d, 0x3d, 0xff, 0x7a, 0x3e, 0xed, 0x74, 0xd8, 0xbe,
  0x54, 0x34, 0x21, 0x3d, 0xfa, 0x8a, 0x7b, 0xbd, 0xbb, 0x07, 0xfa, 0xbd,
  0xc4, 0x60, 0x30, 0xbe, 0x67, 0x10, 0xef, 0xbc, 0x4f, 0xd3, 0xb6, 0xbe,
  0x26, 0x80, 0x29, 0xbe, 0xfe, 0xfb, 0x24, 0xbe, 0x13, 0x4e, 0xe7, 0x3d,
  0x0e, 0xd3, 0x03, 0x3f, 0xee, 0x54, 0x23, 0xbe, 0x87, 0x1a, 0xce, 0xbc,
  0xa9, 0xe1, 0x63, 0x3c, 0x64, 0x3d, 0x64, 0xbe, 0x9d, 0xdc, 0xa7, 0x3d,
  0x88, 0xd9, 0xec, 0x3c, 0x30, 0x4d, 0x0f, 0x3d, 0xd6, 0x64, 0x4c, 0xbd,
  0x36, 0x3d, 0xbf, 0xbd, 0xd0, 0xfb, 0x83, 0x3a, 0xfc, 0xd6, 0xfe, 0x3d,
  0x17, 0x41, 0x63, 0xbe, 0x79, 0x9c, 0x77, 0xbf, 0x07, 0x4d, 0x98, 0xbe,
  0xb4, 0xcc, 0x06, 0x3f, 0x06, 0x93, 0x58, 0x3f, 0x93, 0xeb, 0xf6, 0x3e,
  0xdf, 0x57, 0x5a, 0xbe, 0xc8, 0x8b, 0x7d, 0x3e, 0xb1, 0xc9, 0x38, 0xbe,
  0x21, 0x55, 0x16, 0x3f, 0x5e, 0xe8, 0x90, 0xbe, 0x90, 0xc1, 0xaa, 0x3e,
  0x92, 0xbb, 0xbe, 0xbe, 0x9d, 0x78, 0xa1, 0x3d, 0x79, 0xc2, 0xd7, 0xbe,
  0xca, 0xef, 0xd4, 0x3e, 0x1a, 0x18, 0x21, 0xbf, 0x64, 0xb7, 0x22, 0x3e,
  0xbe, 0xee, 0x9e, 0x3e, 0xcd, 0xb9, 0x4a, 0xbe, 0x59, 0x80, 0x76, 0x3e,
  0x03, 0x4f, 0x6d, 0xbe, 0xed, 0x17, 0x9c, 0x3e, 0x5b, 0xe6, 0xad, 0xbd,
  0xaf, 0x53, 0x43, 0xbe, 0xd4, 0xef, 0x00, 0xbe, 0x90, 0xdc, 0xbf, 0x3e,
  0x7a, 0x1f, 0xc2, 0xbe, 0x19, 0x38, 0x0c, 0x3d, 0x53, 0xc8, 0x94, 0x3d,
  0x30, 0xe3, 0xd1, 0x3e, 0x52, 0x31, 0x86, 0xbe, 0xc9, 0x8b, 0x89, 0x3e,
  0x41, 0x90, 0x8c, 0x3d, 0x7f, 0xd1, 0xd6, 0xbd, 0x90, 0x26, 0x4c, 0xbc,
  0xa9, 0xef, 0x90, 0x3d, 0x56, 0xe5, 0x87, 0x3e, 0x95, 0x30, 0xdb, 0xbc,
  0xb0, 0xf2, 0x04, 0x3e, 0x95, 0xf0, 0x39, 0x3d, 0x72, 0x3b, 0x6b, 0x3e,
  0x11, 0xf2, 0x33, 0xbe, 0xe1, 0x07, 0x35, 0x3e, 0x9f, 0x7d, 0x17, 0x3e,
  0x26, 0x98, 0xa2, 0xbe, 0xe8, 0x94, 0x01, 0xbe, 0x54, 0x8f, 0x79, 0x3e,
  0x96, 0x2a, 0x3c, 0xbd, 0xa9, 0x38, 0xa5, 0x3d, 0xf8, 0x94, 0xb7, 0xbd,
  0x0c, 0x28, 0x3c, 0xbd, 0x24, 0xee, 0xb1, 0x3e, 0x6d, 0x1e, 0x7b, 0x3a,
  0x2f, 0x6e, 0x1b, 0x3e, 0xc8, 0xc6, 0x24, 0xbe, 0xaa, 0xc3, 0x72, 0xbd,
  0xef, 0xd4, 0xee, 0xbd, 0x8f, 0x15, 0xb5, 0x3e, 0x54, 0x46, 0x94, 0xbe,
  0x27, 0xde, 0x0d, 0x3e, 0x33, 0xc4, 0x96, 0x3e, 0x95, 0xdc, 0xed, 0x3d,
  0x33, 0xcb, 0x86, 0xbe, 0x7b, 0xc0, 0x4e, 0x3e, 0xc6, 0x3b, 0xa1, 0xbc,
  0x46, 0x41, 0xc9, 0x3d, 0x4c, 0x40, 0x1b, 0xbe, 0x76, 0xa4, 0x1f, 0x3f,
  0xb0, 0x4a, 0xc0, 0xbd, 0x14, 0x81, 0x9a, 0xbe, 0x70, 0x94, 0x07, 0x3c,
  0xbe, 0xc2, 0xe8, 0xbd, 0x93, 0x65, 0xb4, 0x3c, 0x72, 0x77, 0x43, 0x3e,
  0x39, 0x9f, 0x97, 0xbe, 0x03, 0xc7, 0x0c, 0x3d, 0x88, 0x94, 0x1b, 0xbe,
  0x2c, 0xf0, 0xf0, 0x3c, 0xf1, 0x31, 0xa6, 0xbd, 0xe0, 0x50, 0xe1, 0xbd,
  0x14, 0x1c, 0x29, 0xbc, 0x35, 0x83, 0x1e, 0xbe, 0x2b, 0x05, 0x59, 0x3e,
  0x30, 0xdb, 0x77, 0x3e, 0x2d, 0x1a, 0x5a, 0x3c, 0xc3, 0xc1, 0x5a, 0xbe,
  0xd8, 0xfe, 0x7b, 0x3d, 0x60, 0x97, 0x84, 0x3e, 0x9e, 0x79, 0x0f, 0x3e,
  0x9d, 0x94, 0xa7, 0x3d, 0xbd, 0x59, 0x3d, 0x3e, 0x02, 0xc9, 0x2c, 0x3e,
  0xcb, 0xf6, 0x37, 0xbd, 0x5a, 0x3d, 0x84, 0x3d, 0x8a, 0x87, 0x04, 0x3e,
  0x8b, 0x42, 0x4e, 0xbd, 0x7b, 0x9a, 0x95, 0x3d, 0xad, 0x66, 0xa1, 0x3d,
  0x89, 0x0a, 0x34, 0xbd, 0x25, 0x42, 0x79, 0x3e, 0x52, 0xa6, 0xa3, 0xbd,
  0x11, 0x2a, 0xa1, 0x3b, 0xb4, 0xc2, 0x6f, 0xbe, 0x0b, 0x27, 0xd2, 0x3d,
  0x2b, 0x20, 0x00, 0xbd, 0x26, 0x0c, 0xc6, 0x3e, 0x82, 0x6b, 0xb6, 0xbd,
  0xa3, 0x86, 0x85, 0x3d, 0x4e, 0x4d, 0x81, 0x3e, 0x4d, 0xbd, 0x14, 0x3e,
  0xb0, 0x0b, 0x62, 0x3d, 0x67, 0x51, 0xb0, 0xbd, 0x22, 0x59, 0x8b, 0x3e,
  0x12, 0x65, 0x39, 0x3e, 0x7a, 0xfe, 0xb0, 0xbd, 0x3e, 0x58, 0x1c, 0xbd,
  0xe3, 0xa6, 0xa9, 0x3b, 0xfc, 0x54, 0x62, 0x3e, 0x4c, 0x56, 0xde, 0xbe,
  0x7e, 0x85, 0x65, 0xbe, 0xdd, 0xe2, 0xfe, 0xbd, 0x94, 0xdb, 0xc9, 0x3e,
  0xd2, 0x13, 0x6d, 0xbe, 0x1c, 0x5d, 0x15, 0x3e, 0x95, 0x2e, 0xc0, 0x3e,
  0xa4, 0xf7, 0x0e, 0xbe, 0xfc, 0x49, 0xbd, 0xbe, 0x2f, 0x28, 0xe1, 0x3e,
  0x39, 0x21, 0xac, 0x3d, 0x9a, 0x99, 0x0d, 0x3d, 0x6e, 0xc9, 0x6c, 0x3e,
  0x62, 0x68, 0xcf, 0x3d, 0x7e, 0x75, 0x01, 0xbd, 0x0b, 0x1a, 0xd0, 0xbe,
  0xff, 0xb0, 0xad, 0x3d, 0xe0, 0xc2, 0x37, 0x3d, 0x6b, 0x4c, 0xf1, 0xbc,
  0x9a, 0x67, 0x50, 0x3e, 0xd4, 0x97, 0x3f, 0xbe, 0x5b, 0x27, 0xb3, 0x3d,
  0x7b, 0xaf, 0x9e, 0xbd, 0x98, 0xd4, 0xe6, 0xbd, 0x0a, 0x23, 0x81, 0xbc,
  0x45, 0x0a, 0x9b, 0xbc, 0x17, 0x99, 0x1f, 0x3e, 0xb5, 0xd1, 0x55, 0x3e,
  0x79, 0x9f, 0xff, 0x3d, 0x49, 0xb9, 0xed, 0xbb, 0xbd, 0x39, 0xae, 0xbd,
  0x5d, 0x2d, 0x2c, 0xbb, 0x15, 0x2c, 0x32, 0xbd, 0x43, 0x19, 0xfc, 0x3d,
  0xec, 0x7e, 0x7d, 0xbe, 0x88, 0x6a, 0x85, 0x3e, 0xbf, 0x68, 0xb0, 0xbe,
  0xa6, 0x71, 0x31, 0x3d, 0xe6, 0x7a, 0x11, 0x3e, 0x9e, 0x9d, 0x2c, 0x3e,
  0x8f, 0x6b, 0x06, 0xbe, 0xac, 0x96, 0x2d, 0x3e, 0x94, 0x60, 0x7d, 0x3e,
  0x34, 0xdf, 0x32, 0x3e, 0x45, 0xa0, 0x21, 0xbe, 0x75, 0xe9, 0x30, 0x3e,
  0x8f, 0x6c, 0x57, 0x3c, 0x0d, 0x3e, 0x66, 0x3d, 0x88, 0xff, 0xef, 0xbd,
  0x3a, 0x2b, 0x19, 0x3c, 0x77, 0x83, 0x21, 0xbe, 0x25, 0xc0, 0x36, 0x3e,
  0xff, 0x74, 0x6a, 0xbd, 0xfb, 0x48, 0xc4, 0x3e, 0x01, 0x02, 0x4b, 0xbd,
  0x57, 0x91, 0x72, 0x3e, 0xb4, 0x87, 0xde, 0xbd, 0xfd, 0x8d, 0x30, 0x3e,
  0x46, 0xe5, 0xff, 0xff, 0x04, 0x00, 0x00, 0x00, 0x00, 0x04, 0x00, 0x00,
  0x37, 0x4e, 0xbd, 0xbe, 0x87, 0x7f, 0x9d, 0xbe, 0x86, 0x6a, 0x5f, 0x3e,
  0xea, 0x51, 0x08, 0x3e, 0x8a, 0x9d, 0x08, 0x3e, 0x46, 0xf0, 0x45, 0xbd,
  0xcc, 0x61, 0x17, 0x3e, 0xe1, 0xf4, 0x44, 0x3e, 0x33, 0xce, 0xd0, 0x3e,
  0xf7, 0x4d, 0x1a, 0xbe, 0x4d, 0xbf, 0x6d, 0x3e, 0x35, 0x83, 0x71, 0xbe,
  0xc5, 0xd8, 0xa3, 0xbe, 0x4a, 0x45, 0x0b, 0xbe, 0x1f, 0x51, 0xcb, 0x3e,
  0xef, 0x04, 0x12, 0xbe, 0x60, 0x0c, 0x1e, 0x3e, 0x3c, 0xe1, 0xa5, 0xbd,
  0xc0, 0x23, 0xe6, 0x3b, 0xe7, 0x24, 0x67, 0x3e, 0xce, 0xe6, 0xb4, 0x3e,
  0xf5, 0x93, 0x4f, 0x3e, 0xcf, 0xcf, 0x27, 0x3e, 0x85, 0xe1, 0xce, 0x3d,
  0x75, 0xc6, 0xa2, 0x3d, 0xfb, 0x84, 0xc0, 0xbe, 0xd3, 0x3e, 0x52, 0xbd,
  0xfe, 0x38, 0x81, 0xbe, 0xb3, 0xfa, 0xf7, 0xbd, 0x06, 0x70, 0xba, 0xbe,
  0x6e, 0xd4, 0xbe, 0x3d, 0x93, 0xe1, 0x53, 0xbd, 0xab, 0xa7, 0x08, 0xbe,
  0x0b, 0x92, 0xa6, 0x3d, 0x56, 0xcf, 0x85, 0xbe, 0x32, 0x43, 0x17, 0xbe,
  0xb3, 0x3a, 0x60, 0xbe, 0xa9, 0xcf, 0x91, 0xbe, 0xe6, 0x26, 0xe6, 0xbc,
  0x40, 0x2c, 0x08, 0xbe, 0x36, 0x76, 0x77, 0xbe, 0xee, 0xb7, 0x4c, 0x3c,
  0x91, 0x3a, 0xd4, 0xbe, 0xc8, 0xd8, 0x77, 0x3e, 0xbc, 0x59, 0x39, 0x3e,
  0xce, 0x10, 0xd4, 0x3d, 0x4a, 0xdd, 0x1d, 0x3b, 0xd2, 0xad, 0x93, 0x3e,
  0x01, 0x60, 0x2a, 0x3e, 0x20, 0x80, 0x33, 0x3e, 0x88, 0xf4, 0x95, 0xbe,
  0x8a, 0x4f, 0xf1, 0xbe, 0xcc, 0xa5, 0xc2, 0xbe, 0x7a, 0x3c, 0x8e, 0xbe,
  0x87, 0x6c, 0xf6, 0xbd, 0x56, 0x3c, 0xb5, 0xbe, 0xe8, 0xec, 0x13, 0xbe,
  0xd7, 0x61, 0x96, 0x3e, 0x06, 0x90, 0xb5, 0xbe, 0x94, 0x88, 0xc2, 0x3e,
  0x82, 0x74, 0xbe, 0x3d, 0x3e, 0x79, 0xd8, 0x3e, 0xd2, 0x87, 0xb3, 0xbe,
  0x0d, 0xb2, 0x15, 0x3e, 0x73, 0xf9, 0xf5, 0x3d, 0xf7, 0xe4, 0xe0, 0x3d,
  0x09, 0xb0, 0xaf, 0xbd, 0xdc, 0xa8, 0x7f, 0xbe, 0xc1, 0xd1, 0x46, 0xbe,
  0x94, 0xd4, 0x22, 0xbe, 0x96, 0x71, 0xaf, 0xbe, 0xf1, 0xa1, 0xb9, 0xbe,
  0xef, 0xd8, 0x0f, 0xbe, 0xb4, 0x67, 0x4b, 0x3e, 0x16, 0x47, 0x0b, 0xbe,
  0x73, 0x54, 0x4c, 0x3e, 0xd7, 0xd5, 0xc2, 0x3d, 0x6a, 0x78, 0x76, 0x3d,
  0x8e, 0x89, 0x2c, 0xbd, 0x04, 0xef, 0x09, 0xbd, 0x1a, 0x14, 0x0b, 0xbe,
  0x1c, 0x7c, 0x70, 0xbe, 0x0e, 0xba, 0x05, 0xbf, 0x92, 0x29, 0x21, 0xbf,
  0x39, 0x98, 0x6d, 0xbe, 0x84, 0x27, 0x43, 0xc0, 0x02, 0x0e, 0xc7, 0x3d,
  0xf3, 0x2d, 0xda, 0xbd, 0x40, 0xcb, 0xb5, 0x3e, 0x83, 0x2b, 0x02, 0x3e,
  0x2a, 0xaf, 0xbe, 0xbe, 0x87, 0x8a, 0xdd, 0xbd, 0x21, 0xd4, 0x06, 0xbe,
  0xd6, 0xf7, 0x82, 0x3e, 0x65, 0xa6, 0x98, 0x3e, 0xa4, 0x18, 0x97, 0xbe,
  0x98, 0xa5, 0x17, 0x3e, 0xd7, 0xbe, 0x86, 0x3e, 0x87, 0x96, 0x4c, 0xbe,
  0x24, 0x0a, 0xe2, 0xbd, 0xda, 0x00, 0x42, 0xbe, 0xe4, 0x4f, 0x7c, 0x3e,
  0x57, 0x0f, 0xa8, 0xbe, 0xc4, 0x10, 0xea, 0xbd, 0x64, 0x85, 0x2c, 0xbb,
  0x9f, 0x44, 0xa9, 0x3d, 0x69, 0xa8, 0x9f, 0xbd, 0x5d, 0x34, 0x52, 0x3d,
  0x80, 0x9c, 0x53, 0x3e, 0x63, 0xd7, 0x4a, 0x3e, 0xf6, 0x5d, 0x55, 0xbe,
  0x28, 0x43, 0xc3, 0x3d, 0xf2, 0xb0, 0x10, 0xbc, 0xea, 0x82, 0x34, 0x3e,
  0x30, 0x97, 0x93, 0xbd, 0xcf, 0x35, 0x30, 0xbe, 0x3c, 0xda, 0x9c, 0xbe,
  0xa3, 0xd4, 0x76, 0xbe, 0x1c, 0xbd, 0xfd, 0xbe, 0xed, 0x43, 0x5f, 0xbd,
  0x21, 0xd7, 0x07, 0xbe, 0xa1, 0x7f, 0x56, 0x3d, 0x24, 0xdc, 0xd9, 0xbc,
  0xfd, 0xf6, 0x4d, 0x3d, 0x7a, 0xe0, 0x7e, 0x3e, 0x7c, 0xfa, 0x89, 0x3e,
  0x5a, 0x37, 0xf2, 0xbd, 0xcd, 0xe1, 0x7e, 0x3d, 0x8c, 0xe1, 0xfa, 0x3d,
  0x55, 0xa7, 0x6f, 0x3e, 0xd7, 0x2d, 0x6e, 0xbe, 0xef, 0x5a, 0xb2, 0xbe,
  0x2f, 0xbb, 0x0c, 0xbe, 0xa4, 0x9f, 0xb0, 0xbd, 0x3f, 0xe4, 0xb5, 0xbe,
  0xd0, 0x14, 0x1f, 0xbe, 0x81, 0x33, 0x37, 0xbe, 0xf3, 0x79, 0x35, 0x3e,
  0x16, 0x67, 0x95, 0xbe, 0x6a, 0xc2, 0xd8, 0x3e, 0xc8, 0x8a, 0x80, 0xbc,
  0x14, 0x57, 0x4f, 0x3e, 0x5f, 0x4a, 0xf9, 0xbe, 0x97, 0x85, 0x08, 0xbd,
  0x4b, 0x24, 0xac, 0xbd, 0x4a, 0x07, 0x0d, 0xbe, 0x80, 0x7d, 0x81, 0x3e,
  0xb4, 0x3a, 0x39, 0x3e, 0xde, 0xc8, 0xaf, 0x3e, 0x7d, 0xdc, 0x85, 0x3e,
  0x97, 0x43, 0xdb, 0x3d, 0x40, 0x01, 0x91, 0x3e, 0x93, 0x45, 0xae, 0x3c,
  0x5a, 0x2b, 0x98, 0xbd, 0x4f, 0x1a, 0x65, 0xbd, 0xda, 0xc5, 0x81, 0xbe,
  0x77, 0xfc, 0xf0, 0xbd, 0x28, 0xea, 0x28, 0xbc, 0xdc, 0xf3, 0xaf, 0x3e,
  0x53, 0x25, 0x0f, 0xbe, 0x70, 0xd0, 0x1d, 0x3e, 0x00, 0x58, 0x20, 0x3e,
  0x12, 0x8e, 0xbf, 0x3d, 0x08, 0x57, 0x74, 0xbe, 0x55, 0x76, 0x5c, 0xbe,
  0xec, 0xab, 0x26, 0xbd, 0xf9, 0x87, 0x55, 0xbd, 0x3c, 0x41, 0x0c, 0xbe,
  0x9a, 0xc9, 0xf1, 0xbd, 0x79, 0x02, 0x99, 0x3e, 0xe3, 0x05, 0x1c, 0xbe,
  0x4c, 0xd5, 0xf2, 0x3d, 0x01, 0x70, 0xac, 0xbd, 0x09, 0x1d, 0x36, 0x3e,
  0xef, 0x4e, 0x2e, 0x3d, 0xd7, 0x19, 0xb0, 0x3d, 0x1b, 0xa1, 0x68, 0x3d,
  0xb8, 0x76, 0x75, 0xbe, 0x8b, 0xc2, 0x7c, 0x3e, 0x1e, 0x1d, 0x7d, 0x3e,
  0x2b, 0x3c, 0x97, 0x3e, 0x33, 0x5a, 0x15, 0xbd, 0xc0, 0x71, 0x23, 0x3d,
  0x1d, 0x32, 0xaf, 0x3d, 0x04, 0xd3, 0x6b, 0x3e, 0x5e, 0xd1, 0x29, 0xbe,
  0x4e, 0x0c, 0x8b, 0x3e, 0x61, 0xab, 0x77, 0xbe, 0x00, 0x76, 0x8f, 0xbe,
  0x8a, 0x60, 0x30, 0xbe, 0x3a, 0xb4, 0x92, 0x3d, 0xd9, 0x02, 0xdd, 0xbd,
  0x55, 0xca, 0x82, 0xbd, 0x49, 0x02, 0x94, 0xbe, 0xcc, 0xf6, 0xe7, 0x3d,
  0x84, 0x4e, 0x3b, 0xbd, 0x95, 0x63, 0x63, 0x3e, 0x79, 0x7f, 0x4a, 0xbe,
  0x5d, 0x11, 0x86, 0x3e, 0x55, 0xbe, 0xca, 0x3d, 0xc7, 0x01, 0xc0, 0x3d,
  0x94, 0xfb, 0x03, 0xbe, 0x82, 0x0b, 0x02, 0x3e, 0x6c, 0x87, 0x63, 0x3d,
  0x2d, 0xd5, 0x2b, 0xbe, 0x9e, 0x95, 0x32, 0x3e, 0x96, 0x27, 0x79, 0x3e,
  0x76, 0x8c, 0xe4, 0xbe, 0xce, 0xcd, 0xf6, 0xba, 0x8e, 0x55, 0x2b, 0xbe,
  0x26, 0xf7, 0x3b, 0xbc, 0x96, 0x47, 0x8d, 0x3e, 0xb8, 0x6e, 0x77, 0x3e,
  0xbe, 0xdd, 0xba, 0x3e, 0x7b, 0xc9, 0x7e, 0x3e, 0x33, 0x3d, 0x81, 0xbd,
  0x2c, 0x4b, 0x03, 0xbb, 0xa3, 0x6e, 0x7d, 0xbe, 0x51, 0x25, 0x62, 0x3e,
  0x45, 0x5b, 0xeb, 0xbe, 0x0f, 0x2b, 0xcc, 0xbd, 0x5f, 0xb9, 0x8f, 0xbe,
  0xe4, 0x68, 0x9a, 0x3d, 0x56, 0xe3, 0x28, 0x3d, 0x34, 0x96, 0x34, 0x3e,
  0xd0, 0x7d, 0x2c, 0x3d, 0xd7, 0x51, 0x83, 0xbd, 0xe8, 0x4a, 0xd3, 0xbc,
  0x68, 0x71, 0x7e, 0xbe, 0x3d, 0xe0, 0x88, 0x3e, 0xa7, 0x34, 0x55, 0x3c,
  0x52, 0x8e, 0x9b, 0xbe, 0x2b, 0xc4, 0x04, 0xbe, 0x4a, 0x8d, 0xa7, 0x3e,
  0x69, 0xe7, 0x06, 0xbe, 0x5c, 0xb1, 0x6d, 0x3e, 0xcd, 0x9a, 0x40, 0x3d,
  0xb1, 0xc6, 0x3a, 0x3e, 0xc1, 0xda, 0x90, 0xbe, 0xb7, 0x35, 0x5d, 0x3e,
  0x77, 0xc8, 0x5b, 0xbd, 0xf5, 0x5e, 0xda, 0xbe, 0x67, 0x75, 0x71, 0x3e,
  0x4d, 0x83, 0x07, 0x3d, 0x8d, 0x7b, 0x2d, 0x3e, 0x81, 0x69, 0x02, 0xbe,
  0x29, 0x68, 0xc0, 0x3e, 0x83, 0x1f, 0x84, 0x3d, 0x72, 0xd6, 0x96, 0x3e,
  0xf4, 0xc8, 0x2f, 0xbe, 0xbf, 0x31, 0xbe, 0x3d, 0xb3, 0x11, 0x83, 0xbe,
  0x52, 0x3f, 0xfb, 0xbc, 0xc0, 0xfa, 0x34, 0xbe, 0x8e, 0x96, 0xdd, 0x3d,
  0xf8, 0x28, 0xee, 0xbe, 0x52, 0xe9, 0xff, 0xff, 0x04, 0x00, 0x00, 0x00,
  0x00, 0x04, 0x00, 0x00, 0x03, 0xd6, 0x5b, 0x3d, 0x21, 0x13, 0xbc, 0x3d,
  0xcf, 0x9a, 0xa5, 0xbd, 0xc7, 0x8d, 0x4b, 0xbc, 0xee, 0xd2, 0x74, 0xbe,
  0xce, 0x04, 0x55, 0x3e, 0xa9, 0xcc, 0x3c, 0xbe, 0xbb, 0xc2, 0x4c, 0xbe,
  0x97, 0xd5, 0x18, 0xbe, 0x3e, 0xc8, 0x05, 0x3e, 0xb4, 0x53, 0x89, 0xbe,
  0xa3, 0x57, 0x90, 0xbd, 0xf0, 0xcb, 0xf2, 0x3d, 0x27, 0x9a, 0x5f, 0x3e,
  0x6a, 0xb8, 0x89, 0xbe, 0x40, 0xa4, 0x9c, 0xbd, 0x59, 0x2d, 0xbc, 0x3c,
  0x32, 0x67, 0x9d, 0xbb, 0x8e, 0xf4, 0xd7, 0xbd, 0x2c, 0xcb, 0x8e, 0x3a,
  0x87, 0xdd, 0xc5, 0xbd, 0x8e, 0x57, 0xdc, 0x3d, 0xc0, 0x3a, 0x56, 0xbe,
  0xa4, 0xf4, 0x9a, 0xbe, 0x56, 0x13, 0x40, 0xbc, 0xf1, 0x23, 0x31, 0x3e,
  0x6b, 0x29, 0x37, 0xbd, 0x01, 0xff, 0xbc, 0x3d, 0x0a, 0x67, 0x40, 0x3c,
  0x50, 0x42, 0x42, 0x3e, 0x8a, 0x9e, 0x73, 0xbe, 0x85, 0x04, 0x9a, 0x3e,
  0xa6, 0xf8, 0x67, 0xbe, 0x53, 0x91, 0xf5, 0xbd, 0xf5, 0x97, 0x0b, 0xbd,
  0x69, 0xd1, 0xf4, 0x3d, 0xe1, 0xb3, 0xa3, 0xbe, 0x84, 0x13, 0x01, 0x3e,
  0x20, 0x42, 0x09, 0x3d, 0x58, 0xca, 0xc0, 0xbe, 0x59, 0xfb, 0x87, 0x3e,
  0xbe, 0x7b, 0x45, 0x3d, 0x69, 0xd4, 0xb4, 0x3c, 0xaf, 0x2f, 0x96, 0xbd,
  0x7c, 0x9f, 0x60, 0x3c, 0xe2, 0x17, 0xc5, 0x3d, 0xa0, 0x2f, 0xd7, 0xbd,
  0x72, 0xd4, 0x68, 0x3e, 0x8a, 0x68, 0x16, 0xbf, 0xfa, 0x83, 0x89, 0xbc,
  0xbb, 0xb7, 0xdc, 0x3d, 0x5d, 0xc3, 0x5c, 0x3d, 0xe2, 0x95, 0x9b, 0xbe,
  0x65, 0x2d, 0xd4, 0x3e, 0x9b, 0x36, 0x81, 0x3e, 0x7d, 0x7a, 0xec, 0xbd,
  0xdb, 0x46, 0x48, 0x3e, 0x57, 0x41, 0xe0, 0x3d, 0x85, 0x33, 0xa0, 0xbe,
  0x98, 0x90, 0xd3, 0xbd, 0xa3, 0x44, 0x1c, 0xbe, 0xc5, 0xf6, 0xec, 0x3b,
  0xba, 0xfa, 0xae, 0x3d, 0x1e, 0x8f, 0x90, 0xbd, 0x6e, 0xa9, 0x9b, 0xbd,
  0x17, 0xde, 0xb0, 0xbc, 0xcf, 0x93, 0x8d, 0xbd, 0x0e, 0x3e, 0x02, 0x3e,
  0x9b, 0xf9, 0x1b, 0xbe, 0x51, 0xc1, 0x7a, 0xbe, 0x35, 0xeb, 0x5c, 0x3e,
  0x83, 0x32, 0x0c, 0x3d, 0x36, 0x99, 0x1b, 0x3e, 0xb9, 0x97, 0xcc, 0xbd,
  0x64, 0x3c, 0xd1, 0x3c, 0xf4, 0x60, 0x5d, 0x3c, 0x7a, 0x43, 0xbd, 0xbc,
  0x8e, 0x8b, 0x29, 0x3b, 0xde, 0xc4, 0x35, 0xbe, 0xbc, 0x46, 0xdb, 0x3c,
  0x31, 0x14, 0x39, 0xbe, 0x8c, 0x27, 0xdf, 0x3e, 0x5b, 0xba, 0x24, 0xbe,
  0x79, 0xa7, 0x5d, 0x3f, 0x0e, 0xcc, 0xfc, 0x3d, 0x42, 0xfe, 0x79, 0x3d,
  0xa7, 0xfa, 0x36, 0xbf, 0x62, 0xa9, 0x0c, 0xbf, 0xff, 0x1d, 0x63, 0xbd,
  0x49, 0xbc, 0x99, 0x3e, 0xd4, 0x2c, 0xd2, 0xbd, 0x69, 0xee, 0x86, 0x3e,
  0x2b, 0xfc, 0x37, 0x3f, 0x3d, 0x71, 0xec, 0xbd, 0x38, 0x7c, 0x50, 0xbe,
  0x8d, 0xb0, 0xf3, 0x3e, 0xc4, 0xad, 0x8f, 0x3e, 0x92, 0x89, 0x2f, 0x3e,
  0x77, 0x88, 0x10, 0xbe, 0x43, 0x85, 0xf7, 0xbd, 0xa6, 0x9b, 0x6f, 0xbe,
  0xd1, 0xcd, 0xdf, 0x3d, 0xcd, 0x7b, 0x19, 0xbd, 0x33, 0x24, 0xcc, 0x3d,
  0x39, 0x0f, 0xcd, 0xbd, 0x39, 0x8c, 0x5d, 0x3d, 0xf3, 0xdf, 0x95, 0x3c,
  0x45, 0x50, 0x3a, 0xbd, 0x57, 0x26, 0xb1, 0xbd, 0x29, 0x1f, 0xf8, 0x3d,
  0x7f, 0xa1, 0x02, 0x3d, 0xc2, 0x72, 0x47, 0x3e, 0xd0, 0x42, 0x35, 0xbe,
  0xf1, 0x79, 0x9a, 0x3d, 0xba, 0x93, 0x81, 0x3e, 0x9e, 0xdc, 0x03, 0xbd,
  0x79, 0x0b, 0x88, 0xbe, 0x1f, 0x41, 0x16, 0xbe, 0xd3, 0x22, 0xed, 0x3d,
  0x53, 0x17, 0x58, 0xbe, 0xe0, 0xd7, 0x39, 0x3e, 0x7c, 0x38, 0x2d, 0xbe,
  0xf0, 0xaf, 0xef, 0xbd, 0xfd, 0x2f, 0x46, 0x3e, 0xb2, 0xdd, 0x0c, 0xbc,
  0xf8, 0x16, 0x4d, 0x3e, 0xef, 0x88, 0xb2, 0xbd, 0x0b, 0x4d, 0xaf, 0x3d,
  0x34, 0xb1, 0x2a, 0x3b, 0x34, 0xc8, 0x55, 0x3e, 0x71, 0xb3, 0x6a, 0xbe,
  0xb6, 0xd5, 0xa6, 0x3d, 0xdd, 0xa6, 0x2c, 0xbe, 0x01, 0xa3, 0xdc, 0x3e,
  0x38, 0x31, 0xa8, 0x3c, 0xae, 0xde, 0x54, 0x3d, 0xd6, 0x2e, 0x2c, 0xbd,
  0x0e, 0x55, 0x6a, 0x3e, 0x73, 0x67, 0x5f, 0xbe, 0x2b, 0x86, 0x99, 0x3e,
  0x59, 0x26, 0x3a, 0x3e, 0x0e, 0x10, 0xee, 0x3c, 0xee, 0x57, 0xe2, 0xbb,
  0x33, 0x16, 0xe4, 0x3b, 0x48, 0xa6, 0xb5, 0xbe, 0xd6, 0x31, 0x1c, 0x3e,
  0x5c, 0xea, 0xb5, 0x3b, 0xf9, 0xf1, 0x5f, 0x3e, 0x79, 0x5d, 0x8c, 0xbe,
  0xf8, 0x5e, 0xeb, 0x3e, 0x29, 0x5b, 0x21, 0x3d, 0xf0, 0x8a, 0x13, 0xbe,
  0xe0, 0xd1, 0x9a, 0xbc, 0x03, 0xbd, 0x15, 0xbe, 0xc4, 0xfd, 0x62, 0xbe,
  0x06, 0xb0, 0x6b, 0x3d, 0xbc, 0x75, 0xa8, 0xbd, 0xf3, 0x22, 0x36, 0xbe,
  0x5a, 0x79, 0x7a, 0x3d, 0x74, 0xdf, 0x2c, 0xbe, 0x35, 0x89, 0x7e, 0xbd,
  0x3d, 0x23, 0x1f, 0xbe, 0x84, 0xb5, 0xc2, 0xbc, 0x89, 0x6e, 0xa2, 0x3d,
  0x8a, 0x6a, 0xd4, 0xbe, 0x57, 0x08, 0x61, 0x3e, 0x75, 0x1c, 0x28, 0x3e,
  0xec, 0x32, 0x71, 0xbb, 0x5a, 0x81, 0x8d, 0x3e, 0xc0, 0xa7, 0x23, 0xbe,
  0x60, 0x6b, 0x87, 0xbd, 0xf8, 0xdd, 0x6b, 0xbc, 0xb1, 0x84, 0xb5, 0x3d,
  0x7b, 0x5e, 0x17, 0xbc, 0x1c, 0xba, 0x0f, 0xbe, 0x7e, 0x50, 0x83, 0xbe,
  0x92, 0x9a, 0x8c, 0x3c, 0x93, 0x6d, 0xa1, 0x3d, 0x9c, 0xec, 0x9d, 0x3d,
  0x48, 0x42, 0x49, 0x3e, 0xeb, 0xca, 0x1c, 0xbe, 0x1b, 0x1d, 0x3f, 0x3e,
  0xb6, 0x24, 0x8a, 0xbd, 0xb7, 0xdd, 0x68, 0xbe, 0x9e, 0x44, 0x1a, 0x3e,
  0x3f, 0x0a, 0x58, 0x3d, 0x34, 0x22, 0x2f, 0xbe, 0x32, 0xcd, 0xcd, 0x3d,
  0x45, 0x88, 0x25, 0xbc, 0xe8, 0x4a, 0x80, 0x3d, 0x2b, 0x8a, 0xc4, 0xbd,
  0x1e, 0x47, 0x28, 0x3e, 0x44, 0x22, 0x8e, 0xbd, 0x45, 0x92, 0x73, 0xbe,
  0x53, 0xf7, 0x69, 0xbe, 0xfc, 0x08, 0x66, 0xbd, 0x53, 0xa6, 0xbd, 0x3e,
  0x58, 0x72, 0xae, 0xbd, 0x42, 0x6b, 0xec, 0x3d, 0x6c, 0xbb, 0xbb, 0x3b,
  0xf5, 0xc1, 0x1d, 0xbe, 0x8c, 0x2a, 0xfa, 0x3c, 0xc0, 0xd4, 0x1f, 0x3e,
  0x94, 0x56, 0xed, 0xbd, 0x02, 0x9a, 0x92, 0xbd, 0xc7, 0x54, 0xe2, 0x3d,
  0x30, 0x84, 0xd4, 0x3d, 0xc8, 0xbd, 0x2a, 0xbd, 0x87, 0x0b, 0xa9, 0xbd,
  0x86, 0xf1, 0xb4, 0xbe, 0xb2, 0x03, 0xa5, 0xbd, 0xa3, 0x63, 0xa1, 0x3e,
  0x0e, 0x86, 0x37, 0xbe, 0xf1, 0x64, 0xb6, 0x3e, 0x48, 0x63, 0x0f, 0xbe,
  0x4d, 0xdf, 0xa0, 0xbd, 0x38, 0xc5, 0x1d, 0x3e, 0xb1, 0x5d, 0xfa, 0x3a,
  0x2a, 0x5a, 0xa9, 0xbe, 0xb6, 0xee, 0xcf, 0xbd, 0x2c, 0x2c, 0x53, 0xbc,
  0xc4, 0x90, 0x23, 0x3e, 0xb5, 0x4f, 0xd9, 0xbd, 0xb5, 0xd0, 0xbb, 0xbd,
  0x0e, 0x68, 0xdd, 0xbc, 0x4c, 0x0e, 0xab, 0x3d, 0x8e, 0xf7, 0xee, 0xbd,
  0x43, 0xc6, 0x41, 0x3d, 0x9f, 0x24, 0x1d, 0xbe, 0x9f, 0x21, 0xf8, 0x3d,
  0x4d, 0xd7, 0xb7, 0xbe, 0x6d, 0x38, 0x48, 0xbd, 0xcb, 0x81, 0x21, 0xbd,
  0x6d, 0x9a, 0x4d, 0x3e, 0xa6, 0x69, 0xbc, 0xbe, 0xa9, 0xe7, 0x8f, 0x3d,
  0x0d, 0x27, 0x76, 0x3d, 0xc1, 0x1f, 0x31, 0xbd, 0x69, 0xd1, 0x89, 0xbd,
  0xef, 0x91, 0x08, 0x3d, 0x46, 0xc1, 0x6c, 0x3e, 0xef, 0xec, 0xb1, 0x3d,
  0xa2, 0xae, 0x88, 0xbe, 0xc6, 0x08, 0xa3, 0xbe, 0xab, 0x06, 0x83, 0xbe,
  0x53, 0x39, 0xa4, 0xb9, 0xea, 0x29, 0xb6, 0x3b, 0xb3, 0xbd, 0x13, 0x3d,
  0x0f, 0x7e, 0x22, 0x3e, 0x77, 0x05, 0x87, 0x3e, 0x3f, 0x37, 0xb0, 0xbd,
  0x90, 0x56, 0x0f, 0x3e, 0x0a, 0xf2, 0x5e, 0xbe, 0x42, 0x18, 0x34, 0xbd,
  0x43, 0xd5, 0x9b, 0xbe, 0xc5, 0x1a, 0x25, 0x3c, 0x5e, 0xed, 0xff, 0xff,
  0x04, 0x00, 0x00, 0x00, 0x40, 0x00, 0x00, 0x00, 0xcd, 0x56, 0x87, 0x3e,
  0xec, 0x0d, 0xe4, 0xbe, 0x67, 0xd7, 0x06, 0x3e, 0x3a, 0x54, 0x97, 0xbe,
  0xce, 0x27, 0x3b, 0x3e, 0x03, 0x6a, 0x34, 0x3e, 0xd1, 0x28, 0x99, 0x3e,
  0xcd, 0xd5, 0x56, 0x3e, 0xd0, 0xa2, 0x8b, 0xbe, 0xe7, 0x95, 0x81, 0xbf,
  0x68, 0x06, 0x38, 0xbe, 0xf5, 0xcd, 0x24, 0xbf, 0x29, 0x15, 0x8a, 0x3e,
  0x8c, 0xd4, 0x55, 0x3e, 0xad, 0x76, 0x0d, 0xbf, 0xb5, 0x0b, 0xb2, 0x3e,
  0xaa, 0xed, 0xff, 0xff, 0x04, 0x00, 0x00, 0x00, 0x40, 0x00, 0x00, 0x00,
  0xa3, 0x7e, 0x01, 0x3e, 0x33, 0x0d, 0x7a, 0x3e, 0x1f, 0x32, 0x14, 0x3e,
  0xb9, 0x6f, 0x4f, 0xbe, 0xfb, 0x25, 0xd9, 0xbd, 0x08, 0x42, 0x2f, 0x3d,
  0xbb, 0x77, 0x96, 0x3e, 0x04, 0xba, 0xf9, 0xbe, 0x54, 0x61, 0x56, 0x3e,
  0xc4, 0xeb, 0x56, 0x3e, 0x8c, 0x68, 0xe4, 0x3c, 0x48, 0x1f, 0x85, 0x3e,
  0x6e, 0xf7, 0xc1, 0x3e, 0x69, 0x76, 0x5d, 0x3e, 0xac, 0x9b, 0x2b, 0x3e,
  0xd4, 0xfb, 0x95, 0x3e, 0xf6, 0xed, 0xff, 0xff, 0x04, 0x00, 0x00, 0x00,
  0x40, 0x00, 0x00, 0x00, 0xdb, 0xbe, 0xa0, 0x3e, 0x7a, 0x96, 0x05, 0x3f,
  0x7e, 0x60, 0xb5, 0xbe, 0xf0, 0x4e, 0xd0, 0xbe, 0x2c, 0x83, 0x16, 0x3f,
  0xcd, 0xfd, 0x4e, 0xbe, 0x5c, 0xf2, 0x87, 0x3e, 0xe0, 0xf6, 0xe8, 0xbd,
  0x22, 0xf6, 0xc1, 0xbe, 0x9e, 0x88, 0x39, 0x3e, 0x2f, 0x1d, 0x57, 0x3d,
  0x64, 0xcf, 0xac, 0xbe, 0x58, 0x96, 0x85, 0x3e, 0x33, 0xd2, 0xa9, 0x3e,
  0x82, 0xdb, 0xb7, 0xbe, 0x18, 0x26, 0x86, 0xbe, 0x42, 0xee, 0xff, 0xff,
  0x04, 0x00, 0x00, 0x00, 0x40, 0x00, 0x00, 0x00, 0x78, 0x45, 0xaf, 0x3e,
  0xd7, 0x87, 0xca, 0xbe, 0x71, 0x5c, 0x3c, 0x3e, 0x82, 0x2f, 0xf4, 0xbe,
  0x57, 0x6f, 0x63, 0x3e, 0x1b, 0x6d, 0x50, 0x3e, 0x71, 0x35, 0xc6, 0x3e,
  0x0c, 0xc1, 0x4e, 0x3e, 0x86, 0xab, 0xd1, 0xbe, 0x52, 0x39, 0x1d, 0xbf,
  0xfb, 0xdd, 0x99, 0xbe, 0x18, 0xbe, 0xe1, 0xbe, 0x35, 0xa6, 0x9f, 0x3e,
  0xca, 0x72, 0xae, 0x3e, 0x36, 0x47, 0x96, 0xbe, 0xeb, 0x2c, 0xe7, 0x3e,
  0x8e, 0xee, 0xff, 0xff, 0x04, 0x00, 0x00, 0x00, 0x40, 0x00, 0x00, 0x00,
  0xc1, 0x3f, 0x05, 0xbe, 0x87, 0xcc, 0x54, 0x3d, 0x50, 0x6a, 0x2e, 0x3e,
  0x66, 0x5e, 0x45, 0x3d, 0x55, 0xfe, 0x01, 0x3f, 0xf5, 0x39, 0xb6, 0xbe,
  0x75, 0x63, 0x99, 0xbe, 0xe6, 0xb1, 0x86, 0xbf, 0xde, 0xfd, 0x2d, 0xbe,
  0xa8, 0x78, 0xdf, 0xbf, 0x54, 0x44, 0x55, 0xc0, 0xf5, 0x43, 0x19, 0xbf,
  0x8b, 0x11, 0x58, 0xbe, 0x33, 0xe2, 0xbf, 0xbd, 0x8e, 0x05, 0x77, 0xbe,
  0xa9, 0xae, 0xe0, 0xbe, 0xda, 0xee, 0xff, 0xff, 0x04, 0x00, 0x00, 0x00,
  0x40, 0x00, 0x00, 0x00, 0x25, 0xa0, 0x28, 0x3f, 0xcb, 0xbf, 0xca, 0x3e,
  0x98, 0x97, 0x41, 0x3f, 0x5c, 0x5e, 0x22, 0x3f, 0xcc, 0x34, 0x2f, 0x3f,
  0x77, 0xb7, 0x30, 0x3f, 0xc4, 0x13, 0x2a, 0x3f, 0xa0, 0x2e, 0x0e, 0xbe,
  0x83, 0xce, 0x18, 0x3f, 0x42, 0xd3, 0x62, 0xbf, 0x43, 0xcf, 0x94, 0xbf,
  0xf3, 0x2d, 0x2c, 0x3f, 0x2b, 0x2d, 0x1a, 0x3f, 0xbc, 0x87, 0x2f, 0x3f,
  0x96, 0xbc, 0x32, 0x3f, 0xf2, 0x71, 0x18, 0x3f, 0x26, 0xef, 0xff, 0xff,
  0x04, 0x00, 0x00, 0x00, 0x40, 0x00, 0x00, 0x00, 0x1d, 0xa8, 0x43, 0xbd,
  0xdc, 0x01, 0x23, 0x3d, 0xc5, 0x0a, 0xf5, 0x3c, 0xf4, 0x9e, 0x49, 0x3c,
  0xf9, 0x4c, 0xce, 0xbc, 0xfc, 0xe1, 0x58, 0x3d, 0xcc, 0x96, 0xdf, 0xbc,
  0xee, 0x28, 0x91, 0x3d, 0xc8, 0xfd, 0xf8, 0x3c, 0xf9, 0x25, 0x7f, 0x3c,
  0xf8, 0xd8, 0x1c, 0xbd, 0x90, 0xbc, 0xa8, 0xbc, 0xac, 0xfb, 0xd1, 0xbc,
  0xa1, 0xdc, 0x18, 0xbd, 0xc8, 0x80, 0xf7, 0x3a, 0xb7, 0xb5, 0x03, 0x3c,
  0x72, 0xef, 0xff, 0xff, 0x04, 0x00, 0x00, 0x00, 0x40, 0x00, 0x00, 0x00,
  0x49, 0x8c, 0x5c, 0x3c, 0x32, 0xe0, 0xbf, 0x3e, 0xb7, 0x56, 0x75, 0x3e,
  0x20, 0x40, 0x1f, 0x3e, 0xb8, 0x8d, 0xec, 0x3e, 0x5c, 0x63, 0xf6, 0xbd,
  0x6e, 0x23, 0x5c, 0xbe, 0x12, 0xe3, 0x63, 0xbf, 0xb1, 0xd3, 0x2b, 0xbe,
  0x5f, 0x92, 0xcf, 0xbf, 0x3a, 0x8a, 0x54, 0xc0, 0x28, 0x8e, 0x30, 0xbe,
  0xd7, 0xc2, 0x50, 0xbd, 0x7d, 0x3d, 0x83, 0xbd, 0x56, 0xf1, 0xc4, 0x3c,
  0x4f, 0x36, 0xd6, 0xbe, 0xbe, 0xef, 0xff, 0xff, 0x04, 0x00, 0x00, 0x00,
  0x00, 0x04, 0x00, 0x00, 0xdb, 0xbf, 0x95, 0xbd, 0x86, 0x00, 0x2c, 0x3e,
  0x85, 0x91, 0x85, 0x3e, 0x75, 0xb6, 0x15, 0xbd, 0x6c, 0x0c, 0xb5, 0x3d,
  0x0f, 0x2e, 0xe7, 0x3e, 0x5b, 0x81, 0xd2, 0xbd, 0x2b, 0x54, 0x30, 0x3f,
  0xf8, 0x20, 0x2a, 0x3e, 0xeb, 0x17, 0x0c, 0xbe, 0x0d, 0xac, 0xec, 0xbe,
  0x4d, 0xe2, 0xd7, 0x3b, 0xc2, 0xa6, 0xc2, 0x3c, 0x67, 0x47, 0x44, 0x3d,
  0xef, 0xef, 0xb9, 0xbe, 0xdf, 0x96, 0x22, 0xbd, 0x01, 0x33, 0xa7, 0x3e,
  0x48, 0xbd, 0xfd, 0x3e, 0xf8, 0x03, 0xee, 0xbe, 0x3a, 0xc6, 0xca, 0xbe,
  0x64, 0x55, 0xa2, 0x3e, 0xe0, 0xa0, 0xde, 0xbe, 0xdf, 0xe4, 0xaf, 0x3e,
  0x41, 0x85, 0x31, 0xbf, 0x62, 0x65, 0x93, 0xbe, 0x43, 0xba, 0x29, 0x3f,
  0x87, 0x0b, 0xd8, 0x3e, 0xdc, 0x4e, 0x23, 0xbf, 0x8b, 0x5c, 0x03, 0x3f,
  0x40, 0x27, 0xc1, 0x3e, 0x40, 0x34, 0x24, 0xbf, 0x4d, 0xff, 0x18, 0xbf,
  0xa0, 0x5a, 0x23, 0xbe, 0x67, 0xfa, 0x27, 0x3d, 0x35, 0x8d, 0x3b, 0x3e,
  0x84, 0x4e, 0x09, 0x3f, 0xee, 0xef, 0x8b, 0xbe, 0x29, 0xf6, 0xd4, 0x3e,
  0x7b, 0x0c, 0xf6, 0xbc, 0xdc, 0xb0, 0xde, 0x3e, 0x50, 0xa6, 0xee, 0x3d,
  0xb3, 0x1b, 0x98, 0xbd, 0xe3, 0xf0, 0x2a, 0x3e, 0xde, 0x73, 0x8e, 0x3d,
  0xbb, 0xca, 0x68, 0xbc, 0x4b, 0xf2, 0xfd, 0x3c, 0xe4, 0x0b, 0x45, 0xbe,
  0x9f, 0x07, 0x58, 0x3d, 0x1f, 0xc4, 0xd5, 0xbc, 0x9c, 0xdc, 0x21, 0x3d,
  0x70, 0x1d, 0x2f, 0xbe, 0xb7, 0x3a, 0x3d, 0xbe, 0xbe, 0x52, 0x70, 0x3e,
  0x9e, 0x27, 0xf3, 0xbc, 0x16, 0xa3, 0xd5, 0x3d, 0xe2, 0x7a, 0x11, 0xbf,
  0x8a, 0xa6, 0xb3, 0x3d, 0xc4, 0xdb, 0xa6, 0x3d, 0x6a, 0x5f, 0x0e, 0x3e,
  0xed, 0x63, 0xe1, 0xbe, 0x20, 0x1e, 0x94, 0x3d, 0x1d, 0xf7, 0xb2, 0x3d,
  0xf3, 0xfc, 0x40, 0xbe, 0x77, 0xb0, 0xbd, 0xbd, 0x69, 0xb6, 0x78, 0x3d,
  0x10, 0x9c, 0xda, 0x3e, 0x75, 0xeb, 0xcf, 0x3d, 0x43, 0x74, 0x26, 0xbc,
  0xff, 0xd4, 0x29, 0xbd, 0xdb, 0x29, 0x46, 0xbd, 0x54, 0xe2, 0x3e, 0x3e,
  0x93, 0xfc, 0xfd, 0xbd, 0x27, 0x91, 0x4e, 0xbd, 0x27, 0x7e, 0x95, 0x3e,
  0x1a, 0xca, 0xa6, 0x3e, 0x66, 0xe2, 0xee, 0xbe, 0x6e, 0x93, 0xb5, 0xbd,
  0x28, 0x16, 0x2e, 0x3e, 0x62, 0xb1, 0x8c, 0xbe, 0x4a, 0x21, 0xe5, 0xbc,
  0xd4, 0xc4, 0xa8, 0xbe, 0xf2, 0x36, 0x22, 0x3d, 0x11, 0xed, 0x86, 0x3e,
  0xad, 0x74, 0x05, 0x3f, 0xca, 0x8e, 0x0a, 0xbf, 0x6b, 0x82, 0x36, 0x3f,
  0x61, 0x06, 0x5a, 0xbe, 0x20, 0x16, 0xc7, 0x3f, 0x36, 0x19, 0xc2, 0x3e,
  0x43, 0x7a, 0x63, 0xb9, 0x5d, 0x89, 0x56, 0x3e, 0x16, 0x44, 0xa9, 0x3d,
  0xea, 0xf7, 0x31, 0xbf, 0xae, 0x8c, 0xbf, 0xbe, 0x30, 0x5e, 0x5e, 0x3d,
  0x39, 0x37, 0x6e, 0x3e, 0xa3, 0x47, 0xed, 0x3d, 0x37, 0xc5, 0x40, 0xbe,
  0x7d, 0x18, 0xcf, 0x3d, 0xa0, 0x4c, 0xc7, 0x3e, 0x3c, 0xea, 0x24, 0xbe,
  0x28, 0xff, 0xc7, 0x3e, 0x1a, 0x98, 0x7a, 0xbe, 0xc6, 0xa9, 0xac, 0x3f,
  0x42, 0x48, 0x88, 0x3e, 0x34, 0xed, 0x0d, 0xbe, 0xe4, 0x76, 0xfb, 0xbd,
  0xa8, 0xa4, 0x08, 0x3d, 0xcd, 0xd5, 0xdc, 0xbd, 0x3a, 0xf9, 0xce, 0xbd,
  0x8c, 0x01, 0x3c, 0xbd, 0xda, 0x93, 0x0a, 0x3e, 0xb9, 0x9c, 0x2d, 0xbf,
  0xc2, 0xc2, 0x0a, 0xbe, 0x53, 0xd4, 0x54, 0x3f, 0x33, 0x63, 0x0e, 0x3f,
  0x73, 0x38, 0x4f, 0xbf, 0x6d, 0x03, 0x31, 0x3f, 0x7b, 0xcf, 0x84, 0xbf,
  0x6f, 0xd3, 0xbd, 0x3f, 0x51, 0xf5, 0x49, 0x3f, 0x84, 0x8c, 0xa8, 0xbd,
  0xbd, 0xfb, 0x40, 0x3e, 0xb1, 0x19, 0xe3, 0x3e, 0x0c, 0x28, 0x56, 0xbf,
  0x13, 0xe2, 0x35, 0xbf, 0x8b, 0x63, 0x24, 0x3f, 0xe3, 0x78, 0x1b, 0x3f,
  0xba, 0xf1, 0x77, 0xbe, 0x39, 0x59, 0xa8, 0x3e, 0x43, 0x47, 0xbe, 0x3e,
  0xd9, 0x72, 0xea, 0xbd, 0x5f, 0xb0, 0x46, 0xbe, 0x09, 0x60, 0x5c, 0x3e,
  0x3e, 0x05, 0x63, 0xbe, 0x1c, 0xc9, 0x11, 0xbf, 0xba, 0xae, 0x2c, 0x3e,
  0x1c, 0x2f, 0x06, 0x3e, 0x43, 0xd9, 0xad, 0x3e, 0xc4, 0x24, 0xbb, 0xbe,
  0x50, 0x6b, 0x50, 0xbe, 0xb4, 0x89, 0x9c, 0xbd, 0xb9, 0x60, 0x2d, 0xbe,
  0x38, 0xa9, 0xc2, 0x3d, 0xfd, 0x59, 0x7d, 0xbe, 0x4e, 0x92, 0xd4, 0x3e,
  0xe6, 0x31, 0x32, 0x3e, 0x6e, 0xbd, 0x35, 0xbf, 0x72, 0x27, 0xba, 0xbe,
  0x89, 0x4b, 0x1a, 0x3f, 0xa9, 0x00, 0x16, 0xbf, 0x98, 0x5d, 0xbf, 0x3e,
  0xfd, 0x32, 0x3d, 0xbe, 0xd1, 0xdc, 0xf5, 0xbe, 0x32, 0x09, 0x53, 0xbe,
  0xcf, 0x94, 0xf1, 0xbe, 0x16, 0x12, 0x40, 0xbf, 0xa3, 0x8d, 0x9f, 0xbe,
  0x9d, 0x9a, 0xcb, 0xbd, 0x5e, 0xd7, 0x37, 0x3f, 0x40, 0x66, 0xd4, 0xbe,
  0x0c, 0xfc, 0x89, 0xbe, 0x0e, 0xf9, 0x8c, 0x3e, 0x66, 0x9d, 0x9f, 0xbd,
  0x13, 0xb7, 0x1d, 0xbf, 0xa5, 0x0c, 0x43, 0x3e, 0x3d, 0x77, 0xf1, 0xbe,
  0x0a, 0xf5, 0x00, 0x3e, 0x03, 0x7b, 0x33, 0x3e, 0x96, 0xb9, 0x49, 0x3b,
  0x89, 0x2b, 0x8e, 0x3d, 0xc0, 0x4f, 0x8d, 0x3e, 0xde, 0x14, 0xa3, 0xbe,
  0xb5, 0x79, 0x48, 0xbe, 0xc3, 0x68, 0xfc, 0x3d, 0x1d, 0x38, 0xe1, 0x3e,
  0xe3, 0x38, 0x3e, 0x3e, 0x11, 0x10, 0xd2, 0x3e, 0x09, 0xc2, 0x1f, 0xbe,
  0xe4, 0xd9, 0xa9, 0xbe, 0xb3, 0xee, 0xeb, 0x3c, 0x11, 0xfb, 0xa2, 0xbe,
  0xd7, 0x60, 0x7a, 0xbd, 0xbd, 0xbf, 0x15, 0xbf, 0x95, 0x4f, 0xad, 0xbe,
  0x10, 0x46, 0xae, 0x3e, 0xb0, 0x14, 0x07, 0x3f, 0xd1, 0x0e, 0x38, 0xbf,
  0x93, 0x45, 0x59, 0x3e, 0xdf, 0x14, 0x32, 0x3e, 0x35, 0x74, 0x13, 0xbf,
  0x60, 0x9b, 0x80, 0xbe, 0xff, 0xad, 0x01, 0xbd, 0x40, 0x15, 0xfc, 0xbd,
  0x8e, 0xe2, 0x53, 0x3e, 0xd0, 0xca, 0x8b, 0x3e, 0xb7, 0xb5, 0xb6, 0xbe,
  0xb1, 0x0b, 0x0f, 0x3f, 0x7a, 0x44, 0xf7, 0xbd, 0x7a, 0xc1, 0x8e, 0x3f,
  0xee, 0x28, 0x20, 0x3f, 0x36, 0x60, 0xe2, 0xbe, 0x59, 0xf3, 0xd8, 0xbe,
  0xdf, 0x37, 0x23, 0x3e, 0xe7, 0x7e, 0x8a, 0xbe, 0xda, 0xf8, 0x5d, 0xbe,
  0xf6, 0x77, 0x7f, 0x3e, 0x14, 0x2e, 0x5b, 0x3c, 0x19, 0x06, 0x27, 0xbd,
  0xfa, 0xbc, 0xab, 0x3e, 0xc9, 0xb9, 0xb3, 0x3e, 0x5e, 0x96, 0xe8, 0x3d,
  0x0a, 0xdd, 0x2e, 0xbd, 0x3a, 0xe2, 0x69, 0x3e, 0xcd, 0x23, 0x12, 0xbd,
  0x10, 0x8d, 0x1f, 0x3f, 0xca, 0xd5, 0x94, 0x3e, 0x85, 0xd7, 0x47, 0xbe,
  0x33, 0xcd, 0x34, 0xbe, 0xb2, 0x77, 0x79, 0xbe, 0x41, 0x86, 0x40, 0xbe,
  0x82, 0x82, 0x53, 0xbc, 0xb2, 0xb4, 0xb3, 0xbd, 0x63, 0xda, 0x98, 0xbd,
  0x8e, 0xec, 0x2c, 0x3e, 0x18, 0xe2, 0xcd, 0x3e, 0x5d, 0x90, 0x15, 0xbe,
  0xec, 0x61, 0x13, 0x3c, 0xfa, 0x25, 0x00, 0xbe, 0x2e, 0xd8, 0xa7, 0xbd,
  0x99, 0xe3, 0x33, 0x3e, 0x0b, 0x42, 0xcb, 0xbe, 0xa3, 0x64, 0xac, 0x3c,
  0x32, 0x1b, 0x09, 0x3d, 0x2b, 0x79, 0x86, 0x3d, 0x05, 0x53, 0x45, 0xbe,
  0x4c, 0x9c, 0xb2, 0xbd, 0x19, 0x5b, 0x5e, 0x3e, 0x60, 0x4c, 0x0c, 0xbe,
  0xc6, 0x92, 0xf0, 0xbd, 0x55, 0x12, 0xde, 0xbd, 0xad, 0x5e, 0x47, 0x3d,
  0x32, 0x04, 0xd8, 0x3d, 0xec, 0x0c, 0xde, 0x3e, 0x7b, 0x6d, 0x80, 0xbe,
  0x63, 0x24, 0x1c, 0x3e, 0x49, 0x73, 0x40, 0x3d, 0x6a, 0x3e, 0x66, 0x3f,
  0x1e, 0xb4, 0x84, 0x3e, 0xbf, 0x9e, 0x72, 0xbe, 0x2c, 0x10, 0x23, 0xbe,
  0xb4, 0x1e, 0x47, 0x3e, 0x8e, 0xd7, 0x7e, 0xbe, 0x4c, 0x3e, 0x9b, 0xbe,
  0xf2, 0x75, 0x1f, 0x3d, 0x09, 0x75, 0xc6, 0x3e, 0xca, 0xf3, 0xff, 0xff,
  0x04, 0x00, 0x00, 0x00, 0x00, 0x04, 0x00, 0x00, 0x15, 0x0c, 0xb5, 0x3c,
  0x95, 0xdb, 0x3b, 0xbe, 0x5c, 0xfe, 0x10, 0x3e, 0x52, 0xd3, 0x76, 0x3d,
  0x8f, 0x5d, 0x00, 0xbe, 0x6c, 0x01, 0x89, 0xbd, 0xef, 0x4f, 0xf8, 0x3c,
  0xd2, 0x3c, 0xab, 0xbe, 0x7f, 0x86, 0x81, 0xbc, 0xd7, 0x0d, 0x2e, 0xbe,
  0xda, 0x85, 0x8d, 0x3d, 0x69, 0xea, 0x55, 0x3e, 0x09, 0xd8, 0x99, 0xbe,
  0xff, 0x5f, 0x7d, 0xbe, 0xe4, 0x8a, 0xeb, 0x3d, 0x6f, 0xd3, 0x6f, 0x3d,
  0xd7, 0xf2, 0x7d, 0xbe, 0x00, 0x5c, 0x28, 0xbf, 0xc1, 0x04, 0x19, 0x3f,
  0x91, 0xa0, 0x66, 0x3e, 0x6f, 0x46, 0x2f, 0xbf, 0x93, 0x43, 0x1f, 0x3e,
  0xa4, 0x62, 0x08, 0xbf, 0xcf, 0xa9, 0x36, 0x3e, 0x03, 0x73, 0xde, 0x3e,
  0xfb, 0x12, 0x51, 0xbf, 0x1c, 0x04, 0xc0, 0xbe, 0x96, 0x94, 0x3a, 0x3f,
  0x4c, 0xd5, 0x68, 0xbe, 0xf5, 0xcd, 0x21, 0xbf, 0xee, 0x8e, 0xfe, 0x3e,
  0x35, 0x22, 0x0c, 0x3f, 0x9e, 0x7b, 0xeb, 0xbc, 0xc9, 0xb3, 0x24, 0xbe,
  0x92, 0xab, 0x0d, 0x3e, 0x27, 0xe9, 0x6e, 0x3b, 0x65, 0x03, 0x85, 0xbd,
  0x6a, 0xb6, 0x6d, 0xbe, 0x6e, 0x81, 0x90, 0xbd, 0xc5, 0x46, 0xc0, 0xbe,
  0xe1, 0xcc, 0xa8, 0x3d, 0x5a, 0x8a, 0x68, 0xbe, 0xc1, 0x70, 0x4d, 0xbd,
  0x22, 0x93, 0x53, 0x3e, 0xa2, 0x75, 0x88, 0xbd, 0x93, 0x10, 0xeb, 0xbd,
  0x2f, 0x99, 0x8e, 0xbd, 0x4b, 0x39, 0x40, 0xbe, 0x03, 0x6f, 0xa0, 0xbd,
  0xc0, 0xbc, 0x10, 0xbe, 0x91, 0x87, 0x80, 0x3d, 0x28, 0x55, 0xfb, 0x3d,
  0x87, 0x0a, 0xfe, 0xbe, 0xab, 0x5c, 0x93, 0x3e, 0xae, 0x29, 0x31, 0xbd,
  0xeb, 0xf5, 0xda, 0x3e, 0x3e, 0x3a, 0x70, 0x3e, 0x72, 0xb8, 0x29, 0xbf,
  0x44, 0x12, 0x69, 0xbe, 0x25, 0x0c, 0x94, 0x3e, 0x0f, 0xe0, 0xef, 0xbb,
  0xd2, 0x6f, 0xb1, 0xbd, 0x23, 0xaf, 0xbf, 0x3d, 0xe5, 0x5a, 0xda, 0x3d,
  0x7f, 0xaa, 0xde, 0xbd, 0x85, 0x5b, 0x96, 0xbe, 0x7b, 0xc9, 0xb3, 0x3c,
  0x4d, 0x81, 0x51, 0x3e, 0x59, 0x67, 0x07, 0xbe, 0x15, 0x0c, 0xb3, 0xbd,
  0x7b, 0x9f, 0x9d, 0xbd, 0xa6, 0x90, 0xc9, 0xbe, 0xf7, 0xa7, 0x96, 0x3d,
  0x70, 0xef, 0xde, 0xbe, 0xf9, 0xf6, 0xed, 0xbd, 0xa3, 0x9f, 0x84, 0xbd,
  0x7f, 0xb3, 0x59, 0x3e, 0xe8, 0xe2, 0x31, 0xbe, 0xee, 0xb1, 0x06, 0xbe,
  0xd6, 0xaf, 0x62, 0xbc, 0xab, 0xb8, 0xde, 0x3d, 0x8e, 0x6f, 0x7d, 0xbe,
  0x7f, 0x0c, 0x4a, 0xbe, 0xba, 0x3e, 0x44, 0x3e, 0x69, 0x96, 0x5f, 0x3d,
  0x3c, 0x4a, 0x18, 0xbd, 0xb8, 0xa7, 0x6e, 0x3e, 0xdd, 0x20, 0x90, 0xbe,
  0x79, 0xac, 0x59, 0xbd, 0x84, 0xed, 0x2c, 0xbe, 0x20, 0x95, 0xf5, 0x3d,
  0x87, 0x38, 0x81, 0xbc, 0x7f, 0x20, 0xd3, 0x3d, 0x6e, 0x83, 0x5d, 0x3e,
  0x58, 0x33, 0x8c, 0xbd, 0x60, 0x45, 0x9b, 0x3c, 0xda, 0xc6, 0x1c, 0xbe,
  0xd1, 0x2e, 0x85, 0xbd, 0x9e, 0xf6, 0x95, 0x3e, 0xa6, 0x79, 0x8d, 0xbc,
  0xd9, 0x43, 0x99, 0x3a, 0x8f, 0xc9, 0xb3, 0x3d, 0x16, 0x21, 0x46, 0xbe,
  0x72, 0x84, 0xf4, 0xbe, 0x0e, 0x1b, 0xa2, 0xbd, 0x56, 0xb4, 0x8f, 0xbe,
  0xc9, 0x94, 0x7e, 0x3e, 0x99, 0xd7, 0x0b, 0x3e, 0x92, 0x9f, 0xe2, 0xbd,
  0xf0, 0x4c, 0x33, 0xbe, 0xff, 0xf5, 0x74, 0x3e, 0xf4, 0xbd, 0x2b, 0x3e,
  0x67, 0x9d, 0xd8, 0x3e, 0xaa, 0x54, 0x01, 0xbf, 0x39, 0xd4, 0x1b, 0xbe,
  0x8a, 0xa0, 0x8a, 0x3e, 0x7b, 0x5d, 0x4d, 0xbd, 0x2d, 0xb4, 0x2d, 0xbe,
  0x25, 0x80, 0x5e, 0x3e, 0xdf, 0x5c, 0xd8, 0xbe, 0xd4, 0x60, 0x49, 0x3e,
  0x76, 0x53, 0x4b, 0xbe, 0x5f, 0x72, 0x70, 0x3e, 0xc3, 0x06, 0xb4, 0x3e,
  0x7a, 0x7e, 0xe2, 0x3e, 0xe1, 0x0f, 0x91, 0x3e, 0x07, 0x88, 0x24, 0x3e,
  0xda, 0xb0, 0xfd, 0xbe, 0x58, 0x9c, 0x08, 0x3e, 0x4a, 0xe8, 0xa6, 0xbe,
  0x1d, 0x50, 0x6a, 0x3e, 0x11, 0xf8, 0x01, 0x3f, 0x64, 0x62, 0xd3, 0xbe,
  0x8b, 0xd6, 0x31, 0x3e, 0x42, 0x88, 0xe4, 0xbd, 0xe0, 0xbf, 0x13, 0xbd,
  0x5b, 0x0e, 0xc5, 0x3e, 0xf3, 0x06, 0x08, 0xbf, 0x19, 0xde, 0x80, 0xbe,
  0x68, 0x5c, 0xaa, 0x3e, 0x06, 0x96, 0x00, 0x3e, 0xf9, 0x04, 0x24, 0xbe,
  0x12, 0x4e, 0x53, 0x3e, 0xfd, 0x81, 0xe1, 0xbd, 0x18, 0xcb, 0xca, 0x3e,
  0xe4, 0x40, 0xe4, 0xbe, 0x9b, 0x34, 0x7c, 0xbe, 0xb2, 0xa2, 0xc8, 0x3e,
  0x3c, 0xbd, 0x98, 0x3d, 0xe5, 0x91, 0x30, 0xbf, 0x5d, 0x8a, 0xd9, 0xbc,
  0x28, 0x2d, 0xa7, 0xbf, 0x1e, 0x43, 0x09, 0xbf, 0xd2, 0x2c, 0xa3, 0x3e,
  0x79, 0x65, 0x35, 0x3f, 0x4b, 0x9d, 0xcd, 0xbe, 0x67, 0x33, 0x0c, 0x3e,
  0x53, 0x43, 0x94, 0x3e, 0x69, 0x66, 0x16, 0xbf, 0xe7, 0x63, 0xc0, 0xbc,
  0xe3, 0xdc, 0xab, 0x3e, 0x18, 0x98, 0x2d, 0xb9, 0xdb, 0xfc, 0x78, 0xbe,
  0x1b, 0x3e, 0x07, 0x3e, 0x33, 0x1c, 0x1b, 0x3d, 0xf9, 0x16, 0x8e, 0xbe,
  0x1e, 0x53, 0x97, 0xbe, 0x82, 0xc0, 0xfd, 0xbe, 0xe8, 0xc7, 0x8e, 0xbd,
  0x74, 0x61, 0xa3, 0x3e, 0x61, 0x40, 0x74, 0x3e, 0x5f, 0xad, 0x70, 0xbe,
  0x31, 0x54, 0x0e, 0x3e, 0x16, 0x5d, 0x27, 0x3e, 0x00, 0x2e, 0x0a, 0xbe,
  0x85, 0xf2, 0xdd, 0x3c, 0x07, 0x2e, 0xe7, 0xbd, 0x94, 0x34, 0xfd, 0xbe,
  0x49, 0x0c, 0xc7, 0x3d, 0x97, 0x5a, 0xd4, 0x3e, 0x04, 0x59, 0x50, 0xbe,
  0x6f, 0x23, 0x88, 0xbd, 0x17, 0x8d, 0x83, 0x3d, 0xa1, 0x82, 0xe1, 0xbd,
  0xad, 0xd0, 0x6f, 0x3e, 0xaf, 0xea, 0x1d, 0xbf, 0x61, 0xbd, 0x15, 0xbf,
  0x04, 0x14, 0x90, 0x3e, 0x35, 0xd1, 0x83, 0x3d, 0x1e, 0xc8, 0xa4, 0xbd,
  0x54, 0xd2, 0x23, 0x3e, 0x30, 0x73, 0x7f, 0xbd, 0x75, 0x70, 0xdb, 0x3d,
  0x74, 0x75, 0x37, 0xbe, 0x09, 0xc6, 0xe8, 0x3d, 0xdc, 0x11, 0xd0, 0x3e,
  0x86, 0x4d, 0xc5, 0xbc, 0xf9, 0x92, 0x55, 0xbc, 0x53, 0xac, 0x43, 0xbe,
  0xeb, 0xf6, 0xc2, 0xbe, 0x34, 0xa5, 0x94, 0x3d, 0xfe, 0x17, 0x15, 0xbf,
  0x11, 0x18, 0x71, 0x3d, 0xfe, 0xa8, 0x85, 0x3e, 0x2b, 0x71, 0x4e, 0xbe,
  0xf3, 0xb9, 0x7f, 0xbe, 0x1e, 0x0e, 0x6f, 0x3e, 0x50, 0x1b, 0x4e, 0xbd,
  0xf9, 0xb7, 0x4e, 0xbe, 0xc0, 0x61, 0xf5, 0x3a, 0x8e, 0x2c, 0x38, 0xbe,
  0xfd, 0x65, 0x4a, 0xbc, 0x66, 0xb6, 0x2f, 0x3e, 0x3b, 0xe1, 0x8d, 0x3c,
  0x76, 0xf7, 0x67, 0xbe, 0xed, 0x40, 0xd0, 0xbe, 0xda, 0xda, 0x28, 0x3d,
  0x13, 0xae, 0x00, 0xbf, 0xa1, 0xd2, 0x7b, 0x3d, 0x34, 0x27, 0x9a, 0x3e,
  0x02, 0x1f, 0x63, 0xbe, 0xcc, 0x86, 0xb9, 0xbe, 0xa1, 0x16, 0x47, 0x3e,
  0x0c, 0xd9, 0x34, 0x3e, 0xe2, 0x51, 0xf3, 0x3d, 0xca, 0xaa, 0x66, 0xbe,
  0xd5, 0x5e, 0x86, 0x3e, 0x01, 0x06, 0xac, 0x3d, 0x44, 0x62, 0x9a, 0xbd,
  0x24, 0x14, 0x55, 0x3e, 0x45, 0x35, 0x9a, 0xbd, 0x61, 0x2d, 0x1e, 0xbe,
  0x1e, 0xe3, 0xc6, 0xbd, 0x61, 0x48, 0x41, 0xbf, 0x89, 0xd2, 0xff, 0xbd,
  0xa2, 0x28, 0xdf, 0x3d, 0x22, 0x71, 0x37, 0x3e, 0xaf, 0x0c, 0x77, 0xbe,
  0x19, 0xbd, 0xc7, 0x3e, 0x99, 0x32, 0x3d, 0x3e, 0xf9, 0x8e, 0x63, 0xbe,
  0x96, 0x06, 0x07, 0xbe, 0xd8, 0x7d, 0x0e, 0x3e, 0xb2, 0xa2, 0x56, 0x3e,
  0xfb, 0x1b, 0x63, 0xbe, 0xa2, 0x56, 0xc3, 0xbd, 0x0b, 0x9e, 0xc5, 0xbb,
  0x00, 0x5f, 0x76, 0xbe, 0xb7, 0xfb, 0x2a, 0x3d, 0x56, 0xea, 0xe6, 0xbe,
  0x9b, 0x4e, 0x59, 0x3e, 0x3a, 0xc1, 0x37, 0x3e, 0x67, 0x36, 0x78, 0x3d,
  0x97, 0x6b, 0x04, 0x3b, 0x51, 0x65, 0x4e, 0x3e, 0x3e, 0x3f, 0x23, 0x3e,
  0xd6, 0xf7, 0xff, 0xff, 0x04, 0x00, 0x00, 0x00, 0x00, 0x04, 0x00, 0x00,
  0x41, 0xf6, 0x6b, 0xbc, 0xc4, 0xe7, 0x02, 0xbe, 0x03, 0x09, 0x7c, 0x3e,
  0xeb, 0xd9, 0x1d, 0xbd, 0xe7, 0x5f, 0x91, 0xbe, 0x47, 0xbe, 0xa0, 0x3e,
  0xdb, 0xa6, 0xe9, 0xbd, 0x15, 0xc9, 0xe6, 0x3c, 0xf6, 0xe9, 0x91, 0x3e,
  0x1c, 0xc5, 0x6d, 0xbe, 0x03, 0x9f, 0x0c, 0xbe, 0x8f, 0xf5, 0x10, 0x3e,
  0xb7, 0x74, 0x7c, 0xbe, 0x49, 0x98, 0x8b, 0xbe, 0xd8, 0x34, 0x12, 0x3e,
  0xef, 0xec, 0x73, 0x3e, 0x6d, 0xc2, 0x83, 0x3d, 0xc5, 0xc9, 0xbb, 0xbe,
  0xbf, 0x8f, 0xc9, 0x3e, 0x07, 0xcb, 0xad, 0x3e, 0x67, 0x37, 0x9d, 0xbe,
  0xc6, 0xd0, 0xa4, 0xbd, 0x60, 0x1a, 0xa8, 0xbd, 0xd2, 0xbe, 0x71, 0x3b,
  0x06, 0xd5, 0xd1, 0x3d, 0x8d, 0x4d, 0xcd, 0xbe, 0x37, 0xac, 0x99, 0x3e,
  0x1e, 0xb1, 0x05, 0x3f, 0x23, 0xfe, 0xa4, 0xbe, 0x1c, 0xa3, 0x69, 0xbd,
  0xf2, 0x2f, 0xcd, 0x3e, 0x28, 0xf8, 0x16, 0x3c, 0x67, 0x70, 0x50, 0x3e,
  0x0a, 0xf8, 0x96, 0x3e, 0x7a, 0x37, 0xbb, 0xbe, 0x27, 0x93, 0x36, 0xbe,
  0xd4, 0x9c, 0x05, 0x3e, 0x85, 0xc3, 0x75, 0xbd, 0x70, 0xec, 0xc2, 0x3e,
  0xd4, 0x08, 0x84, 0xbd, 0x21, 0x3b, 0x8e, 0xbe, 0x02, 0xc1, 0x19, 0xbe,
  0x7b, 0x0e, 0x05, 0xbd, 0xe8, 0x8c, 0x0d, 0xbe, 0x1f, 0x26, 0x23, 0x3e,
  0x1e, 0x70, 0x40, 0x3e, 0x0e, 0xf0, 0x4e, 0xbe, 0x85, 0x87, 0xac, 0xbe,
  0xf9, 0xed, 0xd2, 0x3c, 0xa0, 0x9c, 0x5c, 0x3e, 0x9e, 0xae, 0x0c, 0xbe,
  0xb3, 0xc9, 0x44, 0xbe, 0x2d, 0x2c, 0x3f, 0x3e, 0xe0, 0xd8, 0x8a, 0x3d,
  0xfa, 0x7f, 0xcf, 0x3c, 0xa9, 0xb5, 0x11, 0x3d, 0xe4, 0x34, 0xab, 0xbe,
  0x86, 0x57, 0xbd, 0xbc, 0x31, 0x6d, 0x92, 0x3e, 0x80, 0xf7, 0xfd, 0x3c,
  0xd3, 0x4b, 0x93, 0x3d, 0xf8, 0xec, 0x23, 0xb8, 0xf1, 0xb3, 0x3b, 0xbd,
  0x89, 0x2a, 0x80, 0xbd, 0x60, 0x72, 0xcd, 0xbd, 0xb2, 0xbb, 0xea, 0xbe,
  0x66, 0x10, 0xe7, 0x3e, 0x02, 0x85, 0x03, 0x3f, 0x7f, 0xf2, 0xcc, 0xbe,
  0x4f, 0x9d, 0xfd, 0x3d, 0x59, 0x14, 0x60, 0xbe, 0x7d, 0xdc, 0x50, 0xbe,
  0x86, 0x22, 0xbe, 0x3d, 0x2a, 0x9f, 0xe2, 0xbc, 0xc0, 0x73, 0xee, 0x3c,
  0x25, 0x89, 0xb8, 0x3e, 0x83, 0xb1, 0xa8, 0xbe, 0x5a, 0xa9, 0x7d, 0xbe,
  0x32, 0xd8, 0x69, 0x3e, 0x32, 0x01, 0x99, 0x3d, 0xb1, 0xfa, 0x8c, 0x3e,
  0x58, 0xac, 0x1e, 0xbd, 0x7c, 0x01, 0xb9, 0xbd, 0x98, 0x62, 0xd1, 0xbe,
  0xcb, 0x34, 0x05, 0x3e, 0x8a, 0x4d, 0x0e, 0xbf, 0x02, 0x4b, 0xfa, 0xbc,
  0x4b, 0x60, 0xc0, 0xbe, 0x56, 0xc9, 0x8e, 0xbe, 0xc7, 0x36, 0xf5, 0x3d,
  0x4a, 0xa3, 0x7e, 0x3e, 0x4e, 0xeb, 0x19, 0xbe, 0x5b, 0xf3, 0x31, 0x3d,
  0x27, 0x27, 0xd6, 0x3e, 0xa0, 0x98, 0x48, 0xbe, 0x3c, 0x91, 0x24, 0xbe,
  0x6b, 0x35, 0x56, 0xbe, 0xb3, 0xac, 0x35, 0xbe, 0xcb, 0x03, 0xae, 0x3d,
  0xc9, 0xf9, 0x9a, 0x3e, 0x71, 0x74, 0x69, 0xbd, 0x08, 0x4c, 0x4a, 0x3e,
  0x3c, 0x2f, 0x82, 0xbe, 0x14, 0xae, 0xdf, 0x3d, 0x6c, 0xb6, 0x3e, 0x3e,
  0x41, 0x65, 0xb9, 0x3d, 0x69, 0x3f, 0x86, 0x3e, 0x0f, 0x80, 0x32, 0xbd,
  0xb5, 0x1f, 0xbb, 0xbe, 0x0c, 0x03, 0x38, 0xbe, 0xbf, 0x89, 0x88, 0xbd,
  0x41, 0xe4, 0x3e, 0x3e, 0x2b, 0xd4, 0x4f, 0x3e, 0x98, 0x7c, 0x79, 0xbe,
  0x6b, 0x3f, 0x78, 0xbe, 0x51, 0xb9, 0x6d, 0xbd, 0xc9, 0xfb, 0x5b, 0x3e,
  0xd6, 0x00, 0x5d, 0xbf, 0xde, 0x63, 0x9c, 0x3d, 0xa4, 0x93, 0x9a, 0xbf,
  0x7f, 0x87, 0x1c, 0xbe, 0x4c, 0xcb, 0x1a, 0x3e, 0xfe, 0xec, 0x9c, 0x3e,
  0x82, 0xd6, 0x9b, 0x3e, 0x89, 0xb8, 0xa7, 0x3e, 0x23, 0xfa, 0xe7, 0x3e,
  0x16, 0x20, 0xeb, 0xbd, 0xda, 0x7f, 0xde, 0x3c, 0xd5, 0x70, 0x9e, 0x3e,
  0xd2, 0x90, 0x52, 0x3d, 0xff, 0xe6, 0x6d, 0xbe, 0x11, 0x1e, 0xc7, 0xbe,
  0xb5, 0x6d, 0xad, 0x3e, 0xab, 0x53, 0xfd, 0xbd, 0x11, 0xee, 0x36, 0x3e,
  0x6a, 0x6f, 0x19, 0xbe, 0xeb, 0x86, 0x88, 0xbe, 0x5d, 0x9d, 0xad, 0x3e,
  0x87, 0x40, 0xf1, 0xbd, 0x8f, 0xd4, 0xad, 0xbe, 0x3e, 0x64, 0xeb, 0x3c,
  0x7f, 0x36, 0x2f, 0x3e, 0xf4, 0xc5, 0x83, 0xbe, 0x7d, 0x22, 0x33, 0x3d,
  0xcb, 0x7d, 0xf2, 0x3d, 0x7f, 0x34, 0xe6, 0xbe, 0x81, 0x08, 0x9b, 0x3e,
  0xc9, 0x1c, 0x00, 0xbc, 0x92, 0x55, 0x2e, 0xbe, 0x7d, 0x5f, 0xec, 0x3c,
  0xd5, 0xfe, 0x95, 0x3d, 0x10, 0xe1, 0x00, 0x3c, 0xcf, 0xc1, 0x18, 0x3e,
  0x5c, 0xaa, 0x1d, 0xc0, 0x8b, 0x19, 0x8b, 0xbe, 0xba, 0xdd, 0xed, 0x3d,
  0x92, 0xd8, 0x1a, 0xbe, 0x8e, 0xbd, 0x98, 0xbd, 0xf6, 0xf8, 0xd8, 0x3d,
  0xc3, 0x7a, 0xc4, 0x3b, 0x4c, 0x6d, 0x21, 0x3e, 0x5c, 0x08, 0xd7, 0x3d,
  0x51, 0xc3, 0xd7, 0x3c, 0x17, 0x54, 0xd7, 0x3d, 0x21, 0xa9, 0x21, 0xbe,
  0x34, 0x70, 0x8d, 0x3e, 0xdc, 0x37, 0x2d, 0x3e, 0x9c, 0x38, 0x1a, 0x3f,
  0x23, 0x99, 0xaa, 0x3d, 0xf2, 0x8f, 0x4f, 0xbf, 0x53, 0x42, 0xa6, 0xbf,
  0xb8, 0xf0, 0xa7, 0x3e, 0xfc, 0x1a, 0x19, 0xbe, 0x60, 0xae, 0xcb, 0xbd,
  0x6d, 0x75, 0x91, 0xbd, 0x13, 0x6e, 0x73, 0xbe, 0x33, 0xf9, 0x4c, 0x3e,
  0xea, 0xab, 0xc2, 0x3e, 0x56, 0x5d, 0x26, 0xbe, 0x58, 0x6a, 0x73, 0xbd,
  0x86, 0xfe, 0xbb, 0x3e, 0x51, 0xe3, 0xf4, 0xbd, 0x20, 0xbf, 0xef, 0xbc,
  0x00, 0x14, 0xfc, 0x3e, 0x0c, 0x60, 0x94, 0xbe, 0xe6, 0x73, 0x56, 0xbe,
  0x21, 0xb5, 0xb8, 0xbe, 0x00, 0x6d, 0xa0, 0xbe, 0x45, 0x38, 0x42, 0x3e,
  0xe3, 0x7f, 0x13, 0x3d, 0xe2, 0xba, 0x1b, 0xbe, 0xed, 0x1c, 0x9d, 0xbe,
  0xd2, 0x66, 0xca, 0xbd, 0x09, 0xc7, 0x03, 0x3e, 0xfb, 0x2b, 0x28, 0x3e,
  0xf2, 0xb8, 0xf7, 0x3c, 0x35, 0x2a, 0xc1, 0xbe, 0xa1, 0xcc, 0xdf, 0x3d,
  0x5d, 0x6b, 0x79, 0xbe, 0x33, 0x9e, 0x24, 0x3e, 0xae, 0xf6, 0x25, 0x3e,
  0x8d, 0x0f, 0x80, 0xbc, 0x6c, 0xe7, 0x65, 0x3b, 0x20, 0xe7, 0x81, 0xbe,
  0x58, 0x64, 0xa4, 0xbe, 0x16, 0x75, 0xd7, 0xbd, 0x86, 0xd5, 0x0b, 0x3e,
  0x3d, 0x74, 0xfa, 0x3a, 0xfb, 0x8d, 0xa7, 0xbe, 0x64, 0x12, 0x84, 0xbe,
  0x2a, 0x71, 0x87, 0x3e, 0x27, 0xaf, 0x61, 0x3e, 0xb5, 0x3a, 0x67, 0xbe,
  0xf9, 0x22, 0xce, 0x3e, 0x13, 0xdc, 0xae, 0xbe, 0xd4, 0xad, 0x90, 0xbd,
  0x23, 0xc0, 0x0e, 0x3d, 0x76, 0x37, 0x41, 0x3c, 0xd0, 0x24, 0x9c, 0xbd,
  0xe1, 0x7b, 0x25, 0x3e, 0xc6, 0x16, 0x20, 0xbe, 0x65, 0xda, 0x36, 0xbd,
  0x75, 0xc0, 0xaa, 0x3e, 0x34, 0x17, 0x95, 0x3e, 0xd5, 0xb3, 0x00, 0x3f,
  0x15, 0xc7, 0x16, 0x3e, 0x65, 0xb4, 0x06, 0xbe, 0xed, 0x83, 0x37, 0xbe,
  0x36, 0x31, 0xa5, 0x3e, 0x30, 0xe2, 0x0d, 0xbd, 0xf7, 0xbc, 0x57, 0x3e,
  0x82, 0x48, 0x9b, 0x3d, 0xfc, 0x23, 0x80, 0xbe, 0xd2, 0x4e, 0x12, 0xbe,
  0x99, 0x45, 0xe6, 0x3d, 0x8c, 0x12, 0xd3, 0xbe, 0x97, 0x03, 0xbb, 0x3e,
  0xf1, 0xa1, 0xfe, 0x3d, 0xa7, 0xd1, 0x87, 0xbe, 0x80, 0x0c, 0x4e, 0x3d,
  0xd9, 0xda, 0xe5, 0x3e, 0x85, 0x5c, 0x3e, 0xbc, 0x1d, 0x1c, 0xa4, 0xbe,
  0x70, 0x1c, 0xaa, 0xbd, 0x91, 0xe6, 0xa2, 0x3c, 0xbd, 0xee, 0x77, 0xbe,
  0x4a, 0xf2, 0x5a, 0x3e, 0xf6, 0x57, 0xf9, 0x3d, 0x81, 0xa5, 0x63, 0xbe,
  0x2f, 0x34, 0x65, 0xbe, 0x4e, 0x67, 0xa5, 0x3c, 0xf2, 0xfd, 0x37, 0xbe,
  0x0a, 0x7a, 0xb0, 0x3e, 0xd7, 0x77, 0xfb, 0xbd, 0x47, 0x77, 0x01, 0xbe,
  0xa7, 0x9a, 0x0b, 0xbe, 0xe2, 0xfb, 0xff, 0xff, 0x04, 0x00, 0x00, 0x00,
  0x00, 0x04, 0x00, 0x00, 0xf7, 0xb4, 0x5e, 0x3c, 0xa1, 0x29, 0x9d, 0xbe,
  0x51, 0x0e, 0x91, 0x3d, 0xdc, 0x2a, 0x5e, 0x3e, 0x76, 0xb2, 0x59, 0x3e,
  0x0a, 0x79, 0x4e, 0x3d, 0x99, 0x01, 0x40, 0x3e, 0x9c, 0xdd, 0xa7, 0xbd,
  0x6f, 0x02, 0x84, 0x3e, 0xca, 0x96, 0x51, 0xbe, 0x16, 0x20, 0xda, 0xbd,
  0xb4, 0xc7, 0x80, 0x3e, 0x06, 0x90, 0xa6, 0xbe, 0xc5, 0x57, 0xbb, 0x3d,
  0x65, 0x12, 0x0c, 0x3d, 0x4c, 0x67, 0xc1, 0xbd, 0x9d, 0x1e, 0xea, 0x3d,
  0x1a, 0x7e, 0x5c, 0x3e, 0xb0, 0xd2, 0xe9, 0xbe, 0x2e, 0x1a, 0x84, 0xbe,
  0xd6, 0x52, 0x51, 0x3e, 0xfa, 0xb3, 0x39, 0xbe, 0x52, 0xe9, 0x1d, 0x3e,
  0x7b, 0x81, 0x59, 0xbd, 0x3a, 0xb8, 0x09, 0xbf, 0xf9, 0xac, 0x17, 0xbd,
  0x29, 0xec, 0xba, 0xbe, 0x61, 0xe3, 0x28, 0xbd, 0x93, 0xb4, 0xce, 0x3e,
  0x7c, 0x18, 0x4d, 0x3e, 0x5a, 0x5a, 0xbf, 0x3c, 0x31, 0xe2, 0xce, 0xbe,
  0x25, 0x4c, 0x57, 0x3e, 0xeb, 0x79, 0x43, 0xbd, 0x65, 0x53, 0x25, 0xbe,
  0x7f, 0x3e, 0x6b, 0x3e, 0x62, 0x60, 0x17, 0xbe, 0x08, 0x9a, 0x8b, 0xbe,
  0x84, 0x0d, 0x63, 0x3e, 0x9f, 0xbd, 0x93, 0xbe, 0xb2, 0x52, 0x92, 0x3e,
  0xa3, 0xf9, 0x20, 0x3d, 0xdc, 0xd6, 0x5f, 0x3d, 0x86, 0x3a, 0x8f, 0x3d,
  0xed, 0x75, 0x5e, 0x3e, 0x9a, 0x2c, 0x75, 0x3e, 0x96, 0x62, 0x1b, 0x3c,
  0xe1, 0xcf, 0x10, 0xbe, 0xf9, 0x9b, 0xb0, 0x3c, 0xb2, 0xcf, 0xa2, 0x3e,
  0xdf, 0xfb, 0x85, 0x3d, 0xea, 0x4b, 0x12, 0x3e, 0x16, 0x20, 0xe3, 0x3c,
  0xe8, 0x50, 0x68, 0x3e, 0x4e, 0x68, 0x12, 0xbe, 0x1b, 0x41, 0xb1, 0x3b,
  0xc9, 0x0a, 0xc6, 0x3c, 0x0a, 0xba, 0x82, 0xbe, 0x0c, 0x71, 0xd1, 0xbd,
  0x4a, 0xb7, 0x58, 0xbe, 0x84, 0xcc, 0x1a, 0x3d, 0x3c, 0x91, 0x71, 0x3c,
  0x0d, 0xa2, 0xaf, 0xbb, 0xd1, 0x81, 0xc9, 0xbd, 0x5c, 0x1a, 0x63, 0x3e,
  0x40, 0x0a, 0xb1, 0x3b, 0x4f, 0xd8, 0xa4, 0x3d, 0x7a, 0x0e, 0x12, 0x3e,
  0x15, 0xa0, 0x0f, 0x3e, 0x86, 0xe1, 0x57, 0x3d, 0xe7, 0x7b, 0xf1, 0xbd,
  0xd3, 0x56, 0x69, 0xbe, 0xdb, 0x1b, 0x2f, 0x3b, 0x7f, 0xd8, 0x6e, 0x3c,
  0x91, 0x47, 0xc9, 0xbc, 0xa9, 0xe0, 0x69, 0x3e, 0x0e, 0xf9, 0x96, 0xbc,
  0x22, 0xeb, 0x0c, 0x3e, 0xf6, 0x88, 0x62, 0x3d, 0xf1, 0x14, 0xb4, 0xbe,
  0xde, 0x7d, 0x30, 0xbe, 0x7e, 0xb2, 0x2e, 0xbe, 0x95, 0x65, 0x59, 0x3e,
  0xed, 0x61, 0x84, 0x3f, 0x45, 0xe0, 0x32, 0xbe, 0x8a, 0x16, 0xcb, 0x3d,
  0x8b, 0x22, 0xd4, 0x3c, 0xff, 0x92, 0x9c, 0x3d, 0x68, 0x9c, 0x51, 0x3f,
  0x55, 0x0c, 0xf8, 0x3d, 0x78, 0x31, 0x2e, 0x3e, 0x09, 0xc5, 0xb3, 0x3e,
  0x27, 0x72, 0x29, 0xbe, 0x34, 0x45, 0x6f, 0xbe, 0x6f, 0xe8, 0x90, 0x3e,
  0xa9, 0x52, 0x0c, 0xbe, 0x20, 0xd5, 0xa8, 0x3d, 0x0c, 0xf1, 0xe6, 0x3d,
  0xfe, 0x5b, 0x7e, 0x3d, 0x68, 0x13, 0xef, 0x3e, 0x4c, 0xd3, 0xd0, 0xbd,
  0x3d, 0xf0, 0x00, 0xbe, 0x56, 0x95, 0xdf, 0x3c, 0xac, 0xad, 0xff, 0x3c,
  0x51, 0xc5, 0x90, 0x3e, 0x7f, 0x3d, 0xb5, 0x3e, 0x60, 0xfe, 0xbc, 0x3c,
  0x1c, 0xbe, 0x58, 0x3e, 0x00, 0x49, 0x70, 0xbd, 0x69, 0xc6, 0x04, 0xbe,
  0x87, 0x13, 0xa0, 0x3e, 0x3a, 0xfd, 0x67, 0x3e, 0x05, 0x25, 0xa3, 0xbe,
  0xfe, 0xa8, 0x1a, 0xbf, 0x2e, 0xc6, 0x26, 0x3f, 0x78, 0x39, 0x75, 0x3f,
  0x8e, 0x4e, 0x67, 0xbf, 0xa7, 0x56, 0xc7, 0x3e, 0xd1, 0x31, 0x04, 0xbf,
  0xb5, 0x80, 0xa6, 0x3e, 0xa1, 0x39, 0x85, 0x3f, 0x82, 0x9c, 0x6e, 0xbb,
  0x1e, 0xd7, 0x93, 0x3e, 0xb2, 0xe6, 0x6b, 0x3f, 0x39, 0xda, 0xbe, 0xbe,
  0x1c, 0x21, 0x14, 0xbf, 0xce, 0xc1, 0x01, 0x3f, 0x7c, 0x80, 0x91, 0x3e,
  0x2b, 0x9d, 0x94, 0xbd, 0x50, 0xea, 0x8b, 0x3d, 0x2c, 0xb4, 0x28, 0x3e,
  0xf6, 0xb0, 0x84, 0x3e, 0xb1, 0xde, 0x9b, 0xbd, 0x6e, 0x17, 0xb2, 0xbd,
  0x4a, 0x1c, 0x17, 0x3d, 0x5d, 0x79, 0x69, 0xbe, 0x5d, 0x93, 0x54, 0xbd,
  0x2d, 0x96, 0xab, 0xbd, 0xc3, 0xf0, 0x45, 0xbe, 0xa6, 0xc6, 0x80, 0xbd,
  0xa4, 0x97, 0x09, 0x3c, 0xda, 0x5e, 0x8c, 0x3e, 0xd8, 0xa3, 0xfa, 0x3d,
  0xe7, 0xf5, 0xad, 0x3d, 0xbb, 0x8d, 0x82, 0x3d, 0xfd, 0xb5, 0x92, 0x3f,
  0x91, 0xa0, 0x92, 0x3b, 0x35, 0x20, 0x82, 0xbf, 0xbc, 0x25, 0xca, 0x3e,
  0x17, 0xe6, 0xc3, 0xbe, 0x76, 0x67, 0x6f, 0xbd, 0xe0, 0x3c, 0xac, 0xbe,
  0x1f, 0x7e, 0x89, 0xbf, 0xef, 0x29, 0x25, 0x3f, 0xf3, 0x35, 0x2f, 0x3f,
  0x13, 0x4e, 0x69, 0xbf, 0x9e, 0x13, 0x00, 0xbe, 0x67, 0xfb, 0x1f, 0x3e,
  0xfe, 0xa1, 0x87, 0xbf, 0x74, 0xc5, 0xa9, 0x3e, 0x8a, 0x0d, 0x13, 0xbf,
  0xd9, 0x7a, 0x3d, 0xbf, 0xb4, 0x92, 0xdc, 0x3e, 0xec, 0xc3, 0x9d, 0x3e,
  0x3e, 0x5f, 0x33, 0xbf, 0xe0, 0xff, 0x00, 0x3d, 0x81, 0xa5, 0x67, 0xbf,
  0xa5, 0x86, 0x0d, 0x3c, 0xac, 0xb1, 0x83, 0x3e, 0xc8, 0x03, 0x90, 0x3c,
  0x81, 0x09, 0x7e, 0x3e, 0xf0, 0x5e, 0x04, 0x3f, 0x54, 0x50, 0x1d, 0xbf,
  0x5d, 0x3c, 0xeb, 0xbe, 0x5c, 0x87, 0xa4, 0x3e, 0xec, 0xb0, 0x57, 0x3f,
  0xec, 0xe8, 0x2e, 0xbc, 0xa8, 0x64, 0x86, 0x3d, 0xc3, 0xc9, 0x4f, 0x3e,
  0xb8, 0xb6, 0x2e, 0xbe, 0x7b, 0xa1, 0x2a, 0x3e, 0xf6, 0x58, 0x13, 0xbc,
  0x0f, 0xdf, 0x64, 0x3c, 0x0d, 0xd3, 0xd8, 0xbc, 0xa3, 0x4d, 0xd9, 0xbd,
  0x2a, 0x4c, 0x01, 0xbe, 0x11, 0x06, 0xcf, 0xbe, 0x3b, 0x58, 0xcd, 0xbd,
  0x2d, 0xc8, 0xf2, 0xbc, 0xef, 0xc2, 0x50, 0x3e, 0x5a, 0xc0, 0x16, 0x3e,
  0xd2, 0xde, 0xe6, 0xbd, 0x70, 0x62, 0xc1, 0x3e, 0xd8, 0x12, 0x1c, 0xbe,
  0xda, 0x28, 0x04, 0x3e, 0x03, 0x30, 0x0f, 0x3f, 0x0f, 0x7c, 0x26, 0xbe,
  0x5d, 0x38, 0xde, 0x3d, 0x05, 0xe0, 0x87, 0x3e, 0xa1, 0x62, 0x98, 0x3d,
  0x4f, 0x3c, 0x24, 0x3f, 0x67, 0xd9, 0x21, 0xbe, 0xb1, 0xd5, 0x08, 0xbe,
  0x83, 0x2f, 0xb0, 0x3e, 0x56, 0x38, 0x92, 0x3c, 0xc6, 0x5c, 0xac, 0x3d,
  0x31, 0x25, 0xae, 0x3d, 0x39, 0x52, 0x99, 0xbd, 0x6d, 0x7d, 0xe0, 0x3d,
  0xdf, 0x6a, 0x95, 0x3d, 0x69, 0x07, 0xdb, 0x3d, 0xe4, 0xe4, 0xa6, 0x3e,
  0x0f, 0x38, 0xc7, 0xbd, 0x54, 0xc8, 0xb5, 0x3d, 0x53, 0x84, 0x8d, 0xbd,
  0x23, 0xd4, 0x7c, 0xbe, 0x3e, 0x8e, 0x08, 0x3e, 0xcc, 0x9f, 0xc7, 0xbd,
  0xbc, 0xef, 0xa8, 0x3e, 0xa4, 0xb4, 0x28, 0xbd, 0x49, 0x8d, 0x4c, 0xbe,
  0x84, 0xb2, 0xf1, 0x3c, 0xa9, 0xcf, 0x21, 0xbe, 0x64, 0xa9, 0x7a, 0x3b,
  0x7a, 0xec, 0x8e, 0x3e, 0x25, 0x5a, 0x9f, 0xbc, 0xc2, 0x5b, 0x27, 0xbe,
  0xd7, 0x76, 0x1f, 0x3d, 0x32, 0x5c, 0x36, 0x3e, 0x6b, 0xd2, 0xb0, 0xbd,
  0xae, 0x09, 0xae, 0x3e, 0x74, 0x13, 0xcf, 0xbe, 0x3c, 0x4d, 0x17, 0xbe,
  0xec, 0x1b, 0x04, 0xbf, 0x58, 0x6d, 0x85, 0xbe, 0xcf, 0x41, 0x6f, 0x3e,
  0x5a, 0x76, 0x1b, 0x3e, 0xe1, 0x77, 0x26, 0x3e, 0xea, 0x66, 0x48, 0x3c,
  0x6d, 0xbf, 0x1d, 0xbe, 0x19, 0xc3, 0x11, 0xbd, 0x3b, 0xb5, 0xde, 0xbe,
  0x77, 0x2e, 0xa7, 0x3e, 0x5f, 0x18, 0x2b, 0x3f, 0x51, 0x85, 0xc0, 0xbd,
  0x71, 0xa0, 0xa7, 0x3d, 0xad, 0xeb, 0x9e, 0x3d, 0x67, 0x39, 0xb3, 0xbd,
  0xa5, 0x19, 0xf5, 0x3e, 0xde, 0x81, 0x47, 0xbe, 0x9f, 0x72, 0xc2, 0x3d,
  0x96, 0xda, 0xb0, 0x3e, 0x68, 0x86, 0x8b, 0xbd, 0xf6, 0x3e, 0x85, 0xbe,
  0x9c, 0xcf, 0xa2, 0x3e, 0x91, 0x33, 0xf3, 0xbd, 0xee, 0xff, 0xff, 0xff,
  0x04, 0x00, 0x00, 0x00, 0x04, 0x00, 0x00, 0x00, 0xc8, 0xc4, 0x11, 0x3d,
  0x00, 0x00, 0x06, 0x00, 0x08, 0x00, 0x04, 0x00, 0x06, 0x00, 0x00, 0x00,
  0x04, 0x00, 0x00, 0x00, 0x40, 0x00, 0x00, 0x00, 0x00, 0x00, 0x00, 0x00,
  0x00, 0x00, 0x00, 0x00, 0x00, 0x00, 0x00, 0x00, 0x00, 0x00, 0x00, 0x00,
  0x00, 0x00, 0x00, 0x00, 0x00, 0x00, 0x00, 0x00, 0x00, 0x00, 0x00, 0x00,
  0x00, 0x00, 0x00, 0x00, 0x00, 0x00, 0x00, 0x00, 0x00, 0x00, 0x00, 0x00,
  0x00, 0x00, 0x00, 0x00, 0x00, 0x00, 0x00, 0x00, 0x00, 0x00, 0x00, 0x00,
  0x00, 0x00, 0x00, 0x00, 0x00, 0x00, 0x00, 0x00, 0x00, 0x00, 0x00, 0x00,
  0xe0, 0xf4, 0xff, 0xff, 0xe4, 0xf4, 0xff, 0xff, 0x0f, 0x00, 0x00, 0x00,
  0x4d, 0x4c, 0x49, 0x52, 0x20, 0x43, 0x6f, 0x6e, 0x76, 0x65, 0x72, 0x74,
  0x65, 0x64, 0x2e, 0x00, 0x01, 0x00, 0x00, 0x00, 0x14, 0x00, 0x00, 0x00,
  0x00, 0x00, 0x0e, 0x00, 0x18, 0x00, 0x14, 0x00, 0x10, 0x00, 0x0c, 0x00,
  0x08, 0x00, 0x04, 0x00, 0x0e, 0x00, 0x00, 0x00, 0x14, 0x00, 0x00, 0x00,
  0x1c, 0x00, 0x00, 0x00, 0xc4, 0x01, 0x00, 0x00, 0xc8, 0x01, 0x00, 0x00,
  0xcc, 0x01, 0x00, 0x00, 0x04, 0x00, 0x00, 0x00, 0x6d, 0x61, 0x69, 0x6e,
  0x00, 0x00, 0x00, 0x00, 0x03, 0x00, 0x00, 0x00, 0x0c, 0x01, 0x00, 0x00,
  0x5c, 0x00, 0x00, 0x00, 0x14, 0x00, 0x00, 0x00, 0x00, 0x00, 0x0e, 0x00,
  0x1a, 0x00, 0x14, 0x00, 0x10, 0x00, 0x0c, 0x00, 0x0b, 0x00, 0x04, 0x00,
  0x0e, 0x00, 0x00, 0x00, 0x20, 0x00, 0x00, 0x00, 0x00, 0x00, 0x00, 0x08,
  0x20, 0x00, 0x00, 0x00, 0x24, 0x00, 0x00, 0x00, 0x01, 0x00, 0x00, 0x00,
  0x00, 0x00, 0x0a, 0x00, 0x08, 0x00, 0x00, 0x00, 0x00, 0x00, 0x07, 0x00,
  0x0a, 0x00, 0x00, 0x00, 0x00, 0x00, 0x00, 0x01, 0x01, 0x00, 0x00, 0x00,
  0x21, 0x00, 0x00, 0x00, 0x03, 0x00, 0x00, 0x00, 0x20, 0x00, 0x00, 0x00,
  0x1b, 0x00, 0x00, 0x00, 0x02, 0x00, 0x00, 0x00, 0x6a, 0xff, 0xff, 0xff,
  0x14, 0x00, 0x00, 0x00, 0x14, 0x00, 0x00, 0x00, 0x00, 0x00, 0x00, 0x47,
  0x18, 0x00, 0x00, 0x00, 0x1c, 0x00, 0x00, 0x00, 0x00, 0x00, 0x00, 0x00,
  0x54, 0xff, 0xff, 0xff, 0x00, 0x00, 0x20, 0x41, 0x00, 0x00, 0x00, 0x04,
  0x01, 0x00, 0x00, 0x00, 0x20, 0x00, 0x00, 0x00, 0x18, 0x00, 0x00, 0x00,
  0x1d, 0x00, 0x00, 0x00, 0x1a, 0x00, 0x00, 0x00, 0x19, 0x00, 0x00, 0x00,
  0x18, 0x00, 0x00, 0x00, 0x17, 0x00, 0x00, 0x00, 0x12, 0x00, 0x00, 0x00,
  0x11, 0x00, 0x00, 0x00, 0x10, 0x00, 0x00, 0x00, 0x0f, 0x00, 0x00, 0x00,
  0xff, 0xff, 0xff, 0xff, 0xff, 0xff, 0xff, 0xff, 0xff, 0xff, 0xff, 0xff,
  0x16, 0x00, 0x00, 0x00, 0x15, 0x00, 0x00, 0x00, 0x14, 0x00, 0x00, 0x00,
  0x13, 0x00, 0x00, 0x00, 0xff, 0xff, 0xff, 0xff, 0xff, 0xff, 0xff, 0xff,
  0x1e, 0x00, 0x00, 0x00, 0x1f, 0x00, 0x00, 0x00, 0xff, 0xff, 0xff, 0xff,
  0xff, 0xff, 0xff, 0xff, 0xff, 0xff, 0xff, 0xff, 0xff, 0xff, 0xff, 0xff,
  0x00, 0x00, 0x16, 0x00, 0x18, 0x00, 0x00, 0x00, 0x14, 0x00, 0x10, 0x00,
  0x0f, 0x00, 0x08, 0x00, 0x00, 0x00, 0x00, 0x00, 0x00, 0x00, 0x04, 0x00,
  0x16, 0x00, 0x00, 0x00, 0x14, 0x00, 0x00, 0x00, 0x1c, 0x00, 0x00, 0x00,
  0x00, 0x00, 0x00, 0x47, 0x20, 0x00, 0x00, 0x00, 0x24, 0x00, 0x00, 0x00,
  0x00, 0x00, 0x00, 0x00, 0x08, 0x00, 0x0c, 0x00, 0x0b, 0x00, 0x04, 0x00,
  0x08, 0x00, 0x00, 0x00, 0x00, 0x00, 0x20, 0x41, 0x00, 0x00, 0x00, 0x04,
  0x01, 0x00, 0x00, 0x00, 0x1d, 0x00, 0x00, 0x00, 0x18, 0x00, 0x00, 0x00,
  0x00, 0x00, 0x00, 0x00, 0x0e, 0x00, 0x00, 0x00, 0x0d, 0x00, 0x00, 0x00,
  0x0c, 0x00, 0x00, 0x00, 0x0b, 0x00, 0x00, 0x00, 0x06, 0x00, 0x00, 0x00,
  0x05, 0x00, 0x00, 0x00, 0x04, 0x00, 0x00, 0x00, 0x03, 0x00, 0x00, 0x00,
  0xff, 0xff, 0xff, 0xff, 0xff, 0xff, 0xff, 0xff, 0xff, 0xff, 0xff, 0xff,
  0x0a, 0x00, 0x00, 0x00, 0x09, 0x00, 0x00, 0x00, 0x08, 0x00, 0x00, 0x00,
  0x07, 0x00, 0x00, 0x00, 0xff, 0xff, 0xff, 0xff, 0xff, 0xff, 0xff, 0xff,
  0x01, 0x00, 0x00, 0x00, 0x1c, 0x00, 0x00, 0x00, 0xff, 0xff, 0xff, 0xff,
  0xff, 0xff, 0xff, 0xff, 0xff, 0xff, 0xff, 0xff, 0xff, 0xff, 0xff, 0xff,
  0x01, 0x00, 0x00, 0x00, 0x21, 0x00, 0x00, 0x00, 0x01, 0x00, 0x00, 0x00,
  0x00, 0x00, 0x00, 0x00, 0x22, 0x00, 0x00, 0x00, 0xf0, 0x08, 0x00, 0x00,
  0x98, 0x08, 0x00, 0x00, 0x2c, 0x08, 0x00, 0x00, 0xec, 0x07, 0x00, 0x00,
  0xac, 0x07, 0x00, 0x00, 0x6c, 0x07, 0x00, 0x00, 0x2c, 0x07, 0x00, 0x00,
  0xf0, 0x06, 0x00, 0x00, 0xb4, 0x06, 0x00, 0x00, 0x78, 0x06, 0x00, 0x00,
  0x3c, 0x06, 0x00, 0x00, 0xfc, 0x05, 0x00, 0x00, 0xbc, 0x05, 0x00, 0x00,
  0x78, 0x05, 0x00, 0x00, 0x34, 0x05, 0x00, 0x00, 0xf0, 0x04, 0x00, 0x00,
  0xac, 0x04, 0x00, 0x00, 0x68, 0x04, 0x00, 0x00, 0x24, 0x04, 0x00, 0x00,
  0xe4, 0x03, 0x00, 0x00, 0xa4, 0x03, 0x00, 0x00, 0x64, 0x03, 0x00, 0x00,
  0x24, 0x03, 0x00, 0x00, 0xe0, 0x02, 0x00, 0x00, 0x9c, 0x02, 0x00, 0x00,
  0x58, 0x02, 0x00, 0x00, 0x14, 0x02, 0x00, 0x00, 0xc4, 0x01, 0x00, 0x00,
  0x84, 0x01, 0x00, 0x00, 0x2c, 0x01, 0x00, 0x00, 0xec, 0x00, 0x00, 0x00,
  0xac, 0x00, 0x00, 0x00, 0x54, 0x00, 0x00, 0x00, 0x04, 0x00, 0x00, 0x00,
  0xae, 0xf7, 0xff, 0xff, 0x00, 0x00, 0x00, 0x01, 0x10, 0x00, 0x00, 0x00,
  0x10, 0x00, 0x00, 0x00, 0x22, 0x00, 0x00, 0x00, 0x28, 0x00, 0x00, 0x00,
  0x98, 0xf7, 0xff, 0xff, 0x19, 0x00, 0x00, 0x00, 0x53, 0x74, 0x61, 0x74,
  0x65, 0x66, 0x75, 0x6c, 0x50, 0x61, 0x72, 0x74, 0x69, 0x74, 0x69, 0x6f,
  0x6e, 0x65, 0x64, 0x43, 0x61, 0x6c, 0x6c, 0x3a, 0x30, 0x00, 0x00, 0x00,
  0x03, 0x00, 0x00, 0x00, 0x01, 0x00, 0x00, 0x00, 0x06, 0x00, 0x00, 0x00,
  0x01, 0x00, 0x00, 0x00, 0xfa, 0xf7, 0xff, 0xff, 0x00, 0x00, 0x00, 0x01,
  0x10, 0x00, 0x00, 0x00, 0x10, 0x00, 0x00, 0x00, 0x21, 0x00, 0x00, 0x00,
  0x30, 0x00, 0x00, 0x00, 0xe4, 0xf7, 0xff, 0xff, 0x21, 0x00, 0x00, 0x00,
  0x74, 0x66, 0x6c, 0x2e, 0x75, 0x6e, 0x69, 0x64, 0x69, 0x72, 0x65, 0x63,
  0x74, 0x69, 0x6f, 0x6e, 0x61, 0x6c, 0x5f, 0x73, 0x65, 0x71, 0x75, 0x65,
  0x6e, 0x63, 0x65, 0x5f, 0x6c, 0x73, 0x74, 0x6d, 0x31, 0x00, 0x00, 0x00,
  0x03, 0x00, 0x00, 0x00, 0x01, 0x00, 0x00, 0x00, 0x06, 0x00, 0x00, 0x00,
  0x10, 0x00, 0x00, 0x00, 0xa2, 0xf8, 0xff, 0xff, 0x00, 0x00, 0x01, 0x01,
  0x0c, 0x00, 0x00, 0x00, 0x0c, 0x00, 0x00, 0x00, 0x20, 0x00, 0x00, 0x00,
  0x34, 0xf8, 0xff, 0xff, 0x13, 0x00, 0x00, 0x00, 0x6d, 0x6f, 0x64, 0x65,
  0x6c, 0x2f, 0x6c, 0x73, 0x74, 0x6d, 0x5f, 0x36, 0x2f, 0x7a, 0x65, 0x72,
  0x6f, 0x73, 0x33, 0x00, 0x02, 0x00, 0x00, 0x00, 0x01, 0x00, 0x00, 0x00,
  0x10, 0x00, 0x00, 0x00, 0xde, 0xf8, 0xff, 0xff, 0x00, 0x00, 0x01, 0x01,
  0x0c, 0x00, 0x00, 0x00, 0x0c, 0x00, 0x00, 0x00, 0x20, 0x00, 0x00, 0x00,
  0x70, 0xf8, 0xff, 0xff, 0x13, 0x00, 0x00, 0x00, 0x6d, 0x6f, 0x64, 0x65,
  0x6c, 0x2f, 0x6c, 0x73, 0x74, 0x6d, 0x5f, 0x36, 0x2f, 0x7a, 0x65, 0x72,
  0x6f, 0x73, 0x32, 0x00, 0x02, 0x00, 0x00, 0x00, 0x01, 0x00, 0x00, 0x00,
  0x10, 0x00, 0x00, 0x00, 0xc6, 0xf8, 0xff, 0xff, 0x00, 0x00, 0x00, 0x01,
  0x10, 0x00, 0x00, 0x00, 0x10, 0x00, 0x00, 0x00, 0x1e, 0x00, 0x00, 0x00,
  0x30, 0x00, 0x00, 0x00, 0xb0, 0xf8, 0xff, 0xff, 0x20, 0x00, 0x00, 0x00,
  0x74, 0x66, 0x6c, 0x2e, 0x75, 0x6e, 0x69, 0x64, 0x69, 0x72, 0x65, 0x63,
  0x74, 0x69, 0x6f, 0x6e, 0x61, 0x6c, 0x5f, 0x73, 0x65, 0x71, 0x75, 0x65,
  0x6e, 0x63, 0x65, 0x5f, 0x6c, 0x73, 0x74, 0x6d, 0x00, 0x00, 0x00, 0x00,
  0x03, 0x00, 0x00, 0x00, 0x01, 0x00, 0x00, 0x00, 0x06, 0x00, 0x00, 0x00,
  0x10, 0x00, 0x00, 0x00, 0x6e, 0xf9, 0xff, 0xff, 0x00, 0x00, 0x01, 0x01,
  0x0c, 0x00, 0x00, 0x00, 0x0c, 0x00, 0x00, 0x00, 0x20, 0x00, 0x00, 0x00,
  0x00, 0xf9, 0xff, 0xff, 0x13, 0x00, 0x00, 0x00, 0x6d, 0x6f, 0x64, 0x65,
  0x6c, 0x2f, 0x6c, 0x73, 0x74, 0x6d, 0x5f, 0x36, 0x2f, 0x7a, 0x65, 0x72,
  0x6f, 0x73, 0x31, 0x00, 0x02, 0x00, 0x00, 0x00, 0x01, 0x00, 0x00, 0x00,
  0x10, 0x00, 0x00, 0x00, 0x56, 0xf9, 0xff, 0xff, 0x00, 0x00, 0x00, 0x01,
  0x10, 0x00, 0x00, 0x00, 0x10, 0x00, 0x00, 0x00, 0x1c, 0x00, 0x00, 0x00,
  0x2c, 0x00, 0x00, 0x00, 0x40, 0xf9, 0xff, 0xff, 0x1e, 0x00, 0x00, 0x00,
  0x6d, 0x6f, 0x64, 0x65, 0x6c, 0x2f, 0x64, 0x65, 0x6e, 0x73, 0x65, 0x5f,
  0x31, 0x2f, 0x54, 0x65, 0x6e, 0x73, 0x6f, 0x72, 0x64, 0x6f, 0x74, 0x2f,
  0x4d, 0x61, 0x74, 0x4d, 0x75, 0x6c, 0x00, 0x00, 0x02, 0x00, 0x00, 0x00,
  0x01, 0x00, 0x00, 0x00, 0x10, 0x00, 0x00, 0x00, 0xa2, 0xf9, 0xff, 0xff,
  0x00, 0x00, 0x00, 0x01, 0x10, 0x00, 0x00, 0x00, 0x10, 0x00, 0x00, 0x00,
  0x1b, 0x00, 0x00, 0x00, 0x20, 0x00, 0x00, 0x00, 0x8c, 0xf9, 0xff, 0xff,
  0x10, 0x00, 0x00, 0x00, 0x61, 0x72, 0x69, 0x74, 0x68, 0x2e, 0x63, 0x6f,
  0x6e, 0x73, 0x74, 0x61, 0x6e, 0x74, 0x32, 0x33, 0x00, 0x00, 0x00, 0x00,
  0x02, 0x00, 0x00, 0x00, 0x10, 0x00, 0x00, 0x00, 0x10, 0x00, 0x00, 0x00,
  0xe2, 0xf9, 0xff, 0xff, 0x00, 0x00, 0x00, 0x01, 0x10, 0x00, 0x00, 0x00,
  0x10, 0x00, 0x00, 0x00, 0x1a, 0x00, 0x00, 0x00, 0x20, 0x00, 0x00, 0x00,
  0xcc, 0xf9, 0xff, 0xff, 0x10, 0x00, 0x00, 0x00, 0x61, 0x72, 0x69, 0x74,
  0x68, 0x2e, 0x63, 0x6f, 0x6e, 0x73, 0x74, 0x61, 0x6e, 0x74, 0x32, 0x32,
  0x00, 0x00, 0x00, 0x00, 0x02, 0x00, 0x00, 0x00, 0x10, 0x00, 0x00, 0x00,
  0x10, 0x00, 0x00, 0x00, 0x22, 0xfa, 0xff, 0xff, 0x00, 0x00, 0x00, 0x01,
  0x10, 0x00, 0x00, 0x00, 0x10, 0x00, 0x00, 0x00, 0x19, 0x00, 0x00, 0x00,
  0x20, 0x00, 0x00, 0x00, 0x0c, 0xfa, 0xff, 0xff, 0x10, 0x00, 0x00, 0x00,
  0x61, 0x72, 0x69, 0x74, 0x68, 0x2e, 0x63, 0x6f, 0x6e, 0x73, 0x74, 0x61,
  0x6e, 0x74, 0x32, 0x31, 0x00, 0x00, 0x00, 0x00, 0x02, 0x00, 0x00, 0x00,
  0x10, 0x00, 0x00, 0x00, 0x10, 0x00, 0x00, 0x00, 0x62, 0xfa, 0xff, 0xff,
  0x00, 0x00, 0x00, 0x01, 0x10, 0x00, 0x00, 0x00, 0x10, 0x00, 0x00, 0x00,
  0x18, 0x00, 0x00, 0x00, 0x20, 0x00, 0x00, 0x00, 0x4c, 0xfa, 0xff, 0xff,
  0x10, 0x00, 0x00, 0x00, 0x61, 0x72, 0x69, 0x74, 0x68, 0x2e, 0x63, 0x6f,
  0x6e, 0x73, 0x74, 0x61, 0x6e, 0x74, 0x32, 0x30, 0x00, 0x00, 0x00, 0x00,
  0x02, 0x00, 0x00, 0x00, 0x10, 0x00, 0x00, 0x00, 0x10, 0x00, 0x00, 0x00,
  0xa2, 0xfa, 0xff, 0xff, 0x00, 0x00, 0x00, 0x01, 0x10, 0x00, 0x00, 0x00,
  0x10, 0x00, 0x00, 0x00, 0x17, 0x00, 0x00, 0x00, 0x20, 0x00, 0x00, 0x00,
  0x8c, 0xfa, 0xff, 0xff, 0x10, 0x00, 0x00, 0x00, 0x61, 0x72, 0x69, 0x74,
  0x68, 0x2e, 0x63, 0x6f, 0x6e, 0x73, 0x74, 0x61, 0x6e, 0x74, 0x31, 0x39,
  0x00, 0x00, 0x00, 0x00, 0x01, 0x00, 0x00, 0x00, 0x10, 0x00, 0x00, 0x00,
  0xde, 0xfa, 0xff, 0xff, 0x00, 0x00, 0x00, 0x01, 0x10, 0x00, 0x00, 0x00,
  0x10, 0x00, 0x00, 0x00, 0x16, 0x00, 0x00, 0x00, 0x20, 0x00, 0x00, 0x00,
  0xc8, 0xfa, 0xff, 0xff, 0x10, 0x00, 0x00, 0x00, 0x61, 0x72, 0x69, 0x74,
  0x68, 0x2e, 0x63, 0x6f, 0x6e, 0x73, 0x74, 0x61, 0x6e, 0x74, 0x31, 0x38,
  0x00, 0x00, 0x00, 0x00, 0x01, 0x00, 0x00, 0x00, 0x10, 0x00, 0x00, 0x00,
  0x1a, 0xfb, 0xff, 0xff, 0x00, 0x00, 0x00, 0x01, 0x10, 0x00, 0x00, 0x00,
  0x10, 0x00, 0x00, 0x00, 0x15, 0x00, 0x00, 0x00, 0x20, 0x00, 0x00, 0x00,
  0x04, 0xfb, 0xff, 0xff, 0x10, 0x00, 0x00, 0x00, 0x61, 0x72, 0x69, 0x74,
  0x68, 0x2e, 0x63, 0x6f, 0x6e, 0x73, 0x74, 0x61, 0x6e, 0x74, 0x31, 0x37,
  0x00, 0x00, 0x00, 0x00, 0x01, 0x00, 0x00, 0x00, 0x10, 0x00, 0x00, 0x00,
  0x56, 0xfb, 0xff, 0xff, 0x00, 0x00, 0x00, 0x01, 0x10, 0x00, 0x00, 0x00,
  0x10, 0x00, 0x00, 0x00, 0x14, 0x00, 0x00, 0x00, 0x20, 0x00, 0x00, 0x00,
  0x40, 0xfb, 0xff, 0xff, 0x10, 0x00, 0x00, 0x00, 0x61, 0x72, 0x69, 0x74,
  0x68, 0x2e, 0x63, 0x6f, 0x6e, 0x73, 0x74, 0x61, 0x6e, 0x74, 0x31, 0x36,
  0x00, 0x00, 0x00, 0x00, 0x01, 0x00, 0x00, 0x00, 0x10, 0x00, 0x00, 0x00,
  0x92, 0xfb, 0xff, 0xff, 0x00, 0x00, 0x00, 0x01, 0x10, 0x00, 0x00, 0x00,
  0x10, 0x00, 0x00, 0x00, 0x13, 0x00, 0x00, 0x00, 0x20, 0x00, 0x00, 0x00,
  0x7c, 0xfb, 0xff, 0xff, 0x10, 0x00, 0x00, 0x00, 0x61, 0x72, 0x69, 0x74,
  0x68, 0x2e, 0x63, 0x6f, 0x6e, 0x73, 0x74, 0x61, 0x6e, 0x74, 0x31, 0x35,
  0x00, 0x00, 0x00, 0x00, 0x02, 0x00, 0x00, 0x00, 0x10, 0x00, 0x00, 0x00,
  0x10, 0x00, 0x00, 0x00, 0xd2, 0xfb, 0xff, 0xff, 0x00, 0x00, 0x00, 0x01,
  0x10, 0x00, 0x00, 0x00, 0x10, 0x00, 0x00, 0x00, 0x12, 0x00, 0x00, 0x00,
  0x20, 0x00, 0x00, 0x00, 0xbc, 0xfb, 0xff, 0xff, 0x10, 0x00, 0x00, 0x00,
  0x61, 0x72, 0x69, 0x74, 0x68, 0x2e, 0x63, 0x6f, 0x6e, 0x73, 0x74, 0x61,
  0x6e, 0x74, 0x31, 0x34, 0x00, 0x00, 0x00, 0x00, 0x02, 0x00, 0x00, 0x00,
  0x10, 0x00, 0x00, 0x00, 0x10, 0x00, 0x00, 0x00, 0x12, 0xfc, 0xff, 0xff,
  0x00, 0x00, 0x00, 0x01, 0x10, 0x00, 0x00, 0x00, 0x10, 0x00, 0x00, 0x00,
  0x11, 0x00, 0x00, 0x00, 0x20, 0x00, 0x00, 0x00, 0xfc, 0xfb, 0xff, 0xff,
  0x10, 0x00, 0x00, 0x00, 0x61, 0x72, 0x69, 0x74, 0x68, 0x2e, 0x63, 0x6f,
  0x6e, 0x73, 0x74, 0x61, 0x6e, 0x74, 0x31, 0x33, 0x00, 0x00, 0x00, 0x00,
  0x02, 0x00, 0x00, 0x00, 0x10, 0x00, 0x00, 0x00, 0x10, 0x00, 0x00, 0x00,
  0x52, 0xfc, 0xff, 0xff, 0x00, 0x00, 0x00, 0x01, 0x10, 0x00, 0x00, 0x00,
  0x10, 0x00, 0x00, 0x00, 0x10, 0x00, 0x00, 0x00, 0x20, 0x00, 0x00, 0x00,
  0x3c, 0xfc, 0xff, 0xff, 0x10, 0x00, 0x00, 0x00, 0x61, 0x72, 0x69, 0x74,
